{
  "<unk>": 0,
  "<s>": 1,
  "</s>": 2,
  "in": 3,
  "er": 4,
  "en": 5,
  "▁s": 6,
  "▁m": 7,
  "on": 8,
  "ed": 9,
  "re": 10,
  "▁c": 11,
  "ou": 12,
  "th": 13,
  "ing": 14,
  "ar": 15,
  "▁a": 16,
  "▁p": 17,
  "le": 18,
  "ne": 19,
  "▁e": 20,
  "▁w": 21,
  "st": 22,
  "▁d": 23,
  "an": 24,
  "ti": 25,
  "▁f": 26,
  "li": 27,
  "ly": 28,
  "▁g": 29,
  "▁h": 30,
  "or": 31,
  "ce": 32,
  "ss": 33,
  "▁b": 34,
  "▁re": 35,
  "al": 36,
  "▁l": 37,
  "ent": 38,
  "▁t": 39,
  "gh": 40,
  "om": 41,
  "ld": 42,
  "net": 43,
  "ennet": 44,
  "tion": 45,
  "ab": 46,
  "bennet": 47,
  "at": 48,
  "it": 49,
  "is": 50,
  "▁mr": 51,
  "ay": 52,
  "ver": 53,
  "ow": 54,
  "es": 55,
  "ll": 56,
  "ther": 57,
  "▁in": 58,
  "ould": 59,
  "▁o": 60,
  "ri": 61,
  "ec": 62,
  "ght": 63,
  "▁th": 64,
  "tt": 65,
  "ve": 66,
  "ad": 67,
  "ro": 68,
  "▁u": 69,
  "se": 70,
  "eth": 71,
  "▁con": 72,
  "am": 73,
  "▁eli": 74,
  "ge": 75,
  "zab": 76,
  "zabeth": 77,
  "▁elizabeth": 78,
  "ir": 79,
  "our": 80,
  "pp": 81,
  "ee": 82,
  "▁ne": 83,
  "▁k": 84,
  "▁su": 85,
  "ation": 86,
  "ear": 87,
  "ch": 88,
  "one": 89,
  "▁mu": 90,
  "oo": 91,
  "▁be": 92,
  "as": 93,
  "▁li": 94,
  "qu": 95,
  "end": 96,
  "▁le": 97,
  "ak": 98,
  "▁ex": 99,
  "id": 100,
  "▁com": 101,
  "▁mi": 102,
  "ur": 103,
  "▁n": 104,
  "ect": 105,
  "ain": 106,
  "▁could": 107,
  "ff": 108,
  "oun": 109,
  "cy": 110,
  "ic": 111,
  "ist": 112,
  "▁un": 113,
  "▁ch": 114,
  "▁j": 115,
  "ard": 116,
  "ance": 117,
  "▁i": 118,
  "▁de": 119,
  "▁would": 120,
  "ion": 121,
  "ment": 122,
  "ty": 123,
  "ul": 124,
  "▁y": 125,
  "ter": 126,
  "able": 127,
  "▁man": 128,
  "▁st": 129,
  "dar": 130,
  "▁thou": 131,
  "darcy": 132,
  "ra": 133,
  "▁ever": 134,
  "ine": 135,
  "ers": 136,
  "ate": 137,
  "now": 138,
  "ol": 139,
  "mp": 140,
  "ant": 141,
  "ley": 142,
  "ort": 143,
  "▁ac": 144,
  "▁an": 145,
  "▁sh": 146,
  "all": 147,
  "ence": 148,
  "▁al": 149,
  "ong": 150,
  "▁sp": 151,
  "ure": 152,
  "ell": 153,
  "▁know": 154,
  "▁v": 155,
  "▁par": 156,
  "ish": 157,
  "▁mrs": 158,
  "ast": 159,
  "il": 160,
  "▁ti": 161,
  "▁much": 162,
  "ingley": 163,
  "▁en": 164,
  "thing": 165,
  "▁see": 166,
  "ous": 167,
  "▁so": 168,
  "▁pro": 169,
  "iv": 170,
  "▁se": 171,
  "▁dis": 172,
  "▁ge": 173,
  "▁lad": 174,
  "▁pre": 175,
  "au": 176,
  "▁fa": 177,
  "ood": 178,
  "▁must": 179,
  "ie": 180,
  "ind": 181,
  "me": 182,
  "and": 183,
  "▁sist": 184,
  "▁wh": 185,
  "ane": 186,
  "ake": 187,
  "▁mar": 188,
  "app": 189,
  "▁wi": 190,
  "▁one": 191,
  "▁for": 192,
  "ac": 193,
  "un": 194,
  "ble": 195,
  "▁jane": 196,
  "op": 197,
  "▁no": 198,
  "▁every": 199,
  "di": 200,
  "ook": 201,
  "ted": 202,
  "▁exp": 203,
  "age": 204,
  "est": 205,
  "▁ad": 206,
  "ive": 207,
  "▁miss": 208,
  "el": 209,
  "▁po": 210,
  "ily": 211,
  "ally": 212,
  "▁geor": 213,
  "ke": 214,
  "us": 215,
  "▁comp": 216,
  "way": 217,
  "ink": 218,
  "▁qu": 219,
  "▁att": 220,
  "oll": 221,
  "▁well": 222,
  "de": 223,
  "ru": 224,
  "▁ev": 225,
  "ry": 226,
  "tter": 227,
  "sh": 228,
  "reat": 229,
  "▁per": 230,
  "ick": 231,
  "▁hear": 232,
  "▁never": 233,
  "ress": 234,
  "▁though": 235,
  "os": 236,
  "ert": 237,
  "ord": 238,
  "▁lady": 239,
  "▁long": 240,
  "▁soon": 241,
  "▁imp": 242,
  "alk": 243,
  "▁think": 244,
  "▁sister": 245,
  "ved": 246,
  "▁ro": 247,
  "ity": 248,
  "▁happ": 249,
  "▁with": 250,
  "bingley": 251,
  "ful": 252,
  "▁lo": 253,
  "▁app": 254,
  "uc": 255,
  "ham": 256,
  "▁fri": 257,
  "ome": 258,
  "▁go": 259,
  "leas": 260,
  "▁char": 261,
  "ire": 262,
  "ten": 263,
  "ins": 264,
  "med": 265,
  "▁good": 266,
  "ite": 267,
  "▁me": 268,
  "▁ob": 269,
  "▁sa": 270,
  "wick": 271,
  "▁george": 272,
  "ond": 273,
  "▁might": 274,
  "wickham": 275,
  "▁time": 276,
  "▁res": 277,
  "▁friend": 278,
  "ag": 279,
  "▁say": 280,
  "ness": 281,
  "▁mo": 282,
  "ings": 283,
  "▁r": 284,
  "▁wish": 285,
  "▁pleas": 286,
  "ttle": 287,
  "ose": 288,
  "▁may": 289,
  "out": 290,
  "▁tw": 291,
  "▁us": 292,
  "▁youn": 293,
  "▁nothing": 294,
  "▁pl": 295,
  "ollins": 296,
  "▁little": 297,
  "ame": 298,
  "ili": 299,
  "ree": 300,
  "▁day": 301,
  "▁great": 302,
  "ot": 303,
  "dia": 304,
  "ible": 305,
  "mb": 306,
  "ise": 307,
  "ject": 308,
  "urn": 309,
  "▁aff": 310,
  "▁ass": 311,
  "▁look": 312,
  "▁ly": 313,
  "▁lydia": 314,
  "eel": 315,
  "▁hop": 316,
  "lie": 317,
  "ea": 318,
  "▁make": 319,
  "▁without": 320,
  "ut": 321,
  "ound": 322,
  "▁des": 323,
  "▁even": 324,
  "▁young": 325,
  "▁feel": 326,
  "ertain": 327,
  "▁shall": 328,
  "ever": 329,
  "▁fam": 330,
  "ention": 331,
  "are": 332,
  "ner": 333,
  "ade": 334,
  "ffer": 335,
  "▁dear": 336,
  "▁fir": 337,
  "▁cons": 338,
  "fe": 339,
  "led": 340,
  "▁pa": 341,
  "iness": 342,
  "ca": 343,
  "aught": 344,
  "▁room": 345,
  "▁first": 346,
  "▁thought": 347,
  "▁family": 348,
  "lo": 349,
  "▁two": 350,
  "collins": 351,
  "▁belie": 352,
  "▁am": 353,
  "▁op": 354,
  "▁like": 355,
  "um": 356,
  "▁pr": 357,
  "▁rep": 358,
  "ha": 359,
  "bour": 360,
  "ouse": 361,
  "▁house": 362,
  "▁certain": 363,
  "ps": 364,
  "▁acc": 365,
  "▁any": 366,
  "▁last": 367,
  "ways": 368,
  "▁always": 369,
  "▁wor": 370,
  "▁supp": 371,
  "▁to": 372,
  "▁spe": 373,
  "▁marri": 374,
  "▁give": 375,
  "▁made": 376,
  "ection": 377,
  "▁daught": 378,
  "▁ar": 379,
  "ious": 380,
  "▁beg": 381,
  "▁how": 382,
  "▁tow": 383,
  "▁hope": 384,
  "therine": 385,
  "ach": 386,
  "ice": 387,
  "▁father": 388,
  "▁mother": 389,
  "▁however": 390,
  "ann": 391,
  "▁rec": 392,
  "▁reg": 393,
  "▁ab": 394,
  "▁im": 395,
  "ction": 396,
  "igh": 397,
  "per": 398,
  "▁int": 399,
  "▁pers": 400,
  "▁rece": 401,
  "et": 402,
  "ip": 403,
  "ave": 404,
  "ting": 405,
  "▁ent": 406,
  "▁mor": 407,
  "annot": 408,
  "▁cannot": 409,
  "▁walk": 410,
  "elt": 411,
  "▁mer": 412,
  "▁away": 413,
  "catherine": 414,
  "ough": 415,
  "▁sure": 416,
  "sp": 417,
  "ary": 418,
  "▁many": 419,
  "▁parti": 420,
  "▁expect": 421,
  "▁letter": 422,
  "ced": 423,
  "ning": 424,
  "▁inc": 425,
  "▁gard": 426,
  "ens": 427,
  "▁di": 428,
  "ight": 429,
  "ined": 430,
  "▁unc": 431,
  "▁inde": 432,
  "▁talk": 433,
  "ated": 434,
  "ither": 435,
  "ssible": 436,
  "▁bingley": 437,
  "gn": 438,
  "▁pe": 439,
  "ered": 440,
  "▁rem": 441,
  "ended": 442,
  "▁mean": 443,
  "od": 444,
  "▁sc": 445,
  "▁felt": 446,
  "erv": 447,
  "▁love": 448,
  "▁pres": 449,
  "▁appear": 450,
  "sf": 451,
  "ide": 452,
  "▁ag": 453,
  "▁acqu": 454,
  "▁speak": 455,
  "cc": 456,
  "▁sm": 457,
  "ssed": 458,
  "vour": 459,
  "▁sub": 460,
  "▁way": 461,
  "light": 462,
  "▁gent": 463,
  "▁occ": 464,
  "▁saw": 465,
  "▁kind": 466,
  "▁better": 467,
  "▁enough": 468,
  "▁manner": 469,
  "ied": 470,
  "ies": 471,
  "lem": 472,
  "unt": 473,
  "ften": 474,
  "▁inst": 475,
  "cer": 476,
  "ore": 477,
  "iner": 478,
  "▁inf": 479,
  "▁read": 480,
  "ged": 481,
  "▁oh": 482,
  "ards": 483,
  "cess": 484,
  "▁inter": 485,
  "▁acquain": 486,
  "▁attention": 487,
  "emp": 488,
  "▁mat": 489,
  "ility": 490,
  "▁cont": 491,
  "▁done": 492,
  "mber": 493,
  "▁col": 494,
  "▁eng": 495,
  "▁vis": 496,
  "ately": 497,
  "ought": 498,
  "▁come": 499,
  "▁indeed": 500,
  "int": 501,
  "tte": 502,
  "ener": 503,
  "ations": 504,
  "▁often": 505,
  "▁really": 506,
  "▁express": 507,
  "▁pleasure": 508,
  "ef": 509,
  "▁he": 510,
  "▁giv": 511,
  "▁luc": 512,
  "▁sur": 513,
  "▁quite": 514,
  "▁visit": 515,
  "pt": 516,
  "ace": 517,
  "ived": 518,
  "▁sin": 519,
  "▁till": 520,
  "▁want": 521,
  "▁consid": 522,
  "▁subject": 523,
  "▁gardiner": 524,
  "ened": 525,
  "▁bro": 526,
  "▁mom": 527,
  "▁und": 528,
  "▁call": 529,
  "▁perf": 530,
  "▁moment": 531,
  "▁gentlem": 532,
  "ct": 533,
  "ole": 534,
  "▁ra": 535,
  "fort": 536,
  "ions": 537,
  "ular": 538,
  "▁adm": 539,
  "lotte": 540,
  "▁aunt": 541,
  "▁came": 542,
  "▁dist": 543,
  "▁less": 544,
  "▁happy": 545,
  "▁charlotte": 546,
  "irl": 547,
  "ason": 548,
  "▁girl": 549,
  "ody": 550,
  "ably": 551,
  "ount": 552,
  "▁adv": 553,
  "▁rel": 554,
  "bourn": 555,
  "▁hand": 556,
  "▁turn": 557,
  "▁longbourn": 558,
  "ely": 559,
  "ost": 560,
  "red": 561,
  "▁ri": 562,
  "body": 563,
  "ield": 564,
  "less": 565,
  "tisf": 566,
  "▁take": 567,
  "▁place": 568,
  "xt": 569,
  "▁up": 570,
  "▁wr": 571,
  "▁ret": 572,
  "▁gener": 573,
  "lic": 574,
  "vers": 575,
  "▁gra": 576,
  "▁off": 577,
  "▁part": 578,
  "▁feelings": 579,
  "ving": 580,
  "▁all": 581,
  "▁ill": 582,
  "▁yes": 583,
  "▁opin": 584,
  "▁believe": 585,
  "▁brother": 586,
  "▁affection": 587,
  "illi": 588,
  "▁dec": 589,
  "▁tru": 590,
  "▁wom": 591,
  "▁cour": 592,
  "▁surp": 593,
  "▁tell": 594,
  "▁ladies": 595,
  "▁satisf": 596,
  "ank": 597,
  "owed": 598,
  "▁inv": 599,
  "▁bennet": 600,
  "▁anything": 601,
  "▁happiness": 602,
  "▁br": 603,
  "▁far": 604,
  "▁fort": 605,
  "▁seen": 606,
  "▁surpr": 607,
  "▁whole": 608,
  "▁looked": 609,
  "▁partic": 610,
  "▁daughter": 611,
  "medi": 612,
  "▁let": 613,
  "▁yet": 614,
  "▁form": 615,
  "▁ther": 616,
  "▁word": 617,
  "▁reason": 618,
  "▁present": 619,
  "▁particular": 620,
  "ud": 621,
  "osed": 622,
  "tive": 623,
  "▁sit": 624,
  "▁disp": 625,
  "▁find": 626,
  "illiam": 627,
  "▁morning": 628,
  "mon": 629,
  "row": 630,
  "ton": 631,
  "▁af": 632,
  "ised": 633,
  "itty": 634,
  "most": 635,
  "ship": 636,
  "▁car": 637,
  "▁end": 638,
  "▁ref": 639,
  "▁som": 640,
  "▁sti": 641,
  "▁exce": 642,
  "ething": 643,
  "▁lucas": 644,
  "▁marry": 645,
  "▁immedi": 646,
  "▁evening": 647,
  "▁sisters": 648,
  "▁something": 649,
  "ft": 650,
  "alf": 651,
  "▁jo": 652,
  "▁sil": 653,
  "efore": 654,
  "field": 655,
  "▁heard": 656,
  "▁kitty": 657,
  "▁therefore": 658,
  "ack": 659,
  "ess": 660,
  "▁ca": 661,
  "▁nat": 662,
  "▁str": 663,
  "acter": 664,
  "▁next": 665,
  "gether": 666,
  "▁found": 667,
  "▁nether": 668,
  "▁opinion": 669,
  "▁character": 670,
  "▁netherfield": 671,
  "sw": 672,
  "oub": 673,
  "pect": 674,
  "▁civ": 675,
  "▁est": 676,
  "▁half": 677,
  "▁other": 678,
  "▁consider": 679,
  "▁certainly": 680,
  "tim": 681,
  "▁el": 682,
  "erst": 683,
  "▁sec": 684,
  "▁sir": 685,
  "ained": 686,
  "tance": 687,
  "▁disc": 688,
  "▁town": 689,
  "▁still": 690,
  "▁uncle": 691,
  "▁delight": 692,
  "tu": 693,
  "day": 694,
  "haps": 695,
  "swer": 696,
  "ured": 697,
  "▁pri": 698,
  "ments": 699,
  "shire": 700,
  "▁upon": 701,
  "▁coming": 702,
  "▁perhaps": 703,
  "▁acquaintance": 704,
  "air": 705,
  "ust": 706,
  "▁co": 707,
  "onel": 708,
  "▁conv": 709,
  "▁went": 710,
  "▁since": 711,
  "▁answer": 712,
  "▁return": 713,
  "▁colonel": 714,
  "▁perfect": 715,
  "▁ey": 716,
  "ently": 717,
  "▁beha": 718,
  "▁hard": 719,
  "▁occas": 720,
  "▁married": 721,
  "gi": 722,
  "ms": 723,
  "irc": 724,
  "ances": 725,
  "▁circ": 726,
  "▁hour": 727,
  "▁prev": 728,
  "▁told": 729,
  "▁world": 730,
  "▁person": 731,
  "cern": 732,
  "▁ear": 733,
  "▁hum": 734,
  "▁hur": 735,
  "▁new": 736,
  "▁high": 737,
  "▁home": 738,
  "▁began": 739,
  "▁leave": 740,
  "▁woman": 741,
  "▁favour": 742,
  "▁marriage": 743,
  "▁possible": 744,
  "▁together": 745,
  "duc": 746,
  "une": 747,
  "▁cl": 748,
  "▁id": 749,
  "aken": 750,
  "ared": 751,
  "read": 752,
  "▁foll": 753,
  "▁left": 754,
  "▁mind": 755,
  "▁almost": 756,
  "▁either": 757,
  "▁regard": 758,
  "▁mention": 759,
  "▁underst": 760,
  "▁immediately": 761,
  "vi": 762,
  "ign": 763,
  "orm": 764,
  "▁as": 765,
  "▁gone": 766,
  "▁stay": 767,
  "▁year": 768,
  "▁least": 769,
  "▁friends": 770,
  "▁received": 771,
  "new": 772,
  "cted": 773,
  "▁abs": 774,
  "▁add": 775,
  "▁mis": 776,
  "▁opp": 777,
  "▁spo": 778,
  "ingly": 779,
  "onour": 780,
  "▁doub": 781,
  "▁some": 782,
  "▁seeing": 783,
  "▁seemed": 784,
  "▁convers": 785,
  "▁respect": 786,
  "ked": 787,
  "use": 788,
  "▁do": 789,
  "ited": 790,
  "▁equ": 791,
  "aking": 792,
  "▁best": 793,
  "▁knew": 794,
  "▁given": 795,
  "▁going": 796,
  "▁known": 797,
  "▁resol": 798,
  "▁short": 799,
  "▁object": 800,
  "▁rather": 801,
  "▁towards": 802,
  "▁everything": 803,
  "ang": 804,
  "ense": 805,
  "iety": 806,
  "ward": 807,
  "▁din": 808,
  "▁hus": 809,
  "▁able": 810,
  "▁thank": 811,
  "▁honour": 812,
  "ue": 813,
  "ret": 814,
  "▁bl": 815,
  "band": 816,
  "ners": 817,
  "yton": 818,
  "▁ano": 819,
  "▁dep": 820,
  "▁ext": 821,
  "▁pur": 822,
  "▁sett": 823,
  "▁agree": 824,
  "▁hands": 825,
  "▁means": 826,
  "▁three": 827,
  "▁another": 828,
  "▁husband": 829,
  "▁meryton": 830,
  "▁occasion": 831,
  "over": 832,
  "▁whe": 833,
  "ondon": 834,
  "▁dire": 835,
  "▁life": 836,
  "fferent": 837,
  "mberley": 838,
  "▁london": 839,
  "▁whether": 840,
  "▁pemberley": 841,
  "▁conversation": 842,
  "lig": 843,
  "reh": 844,
  "▁gr": 845,
  "▁eas": 846,
  "▁get": 847,
  "▁mee": 848,
  "▁min": 849,
  "▁sat": 850,
  "▁ste": 851,
  "ssion": 852,
  "▁cous": 853,
  "▁prom": 854,
  "▁rest": 855,
  "▁side": 856,
  "▁temp": 857,
  "ctions": 858,
  "▁neigh": 859,
  "▁quest": 860,
  "▁whose": 861,
  "▁circum": 862,
  "▁others": 863,
  "▁passed": 864,
  "▁neighbour": 865,
  "ali": 866,
  "ana": 867,
  "ual": 868,
  "aged": 869,
  "ople": 870,
  "giana": 871,
  "viour": 872,
  "▁comm": 873,
  "▁conf": 874,
  "▁else": 875,
  "▁near": 876,
  "▁people": 877,
  "▁comfort": 878,
  "▁concern": 879,
  "▁general": 880,
  "▁behaviour": 881,
  "▁georgiana": 882,
  "te": 883,
  "its": 884,
  "les": 885,
  "lish": 886,
  "ower": 887,
  "▁ins": 888,
  "▁door": 889,
  "▁gave": 890,
  "▁idea": 891,
  "▁indi": 892,
  "▁carri": 893,
  "▁conne": 894,
  "▁ought": 895,
  "▁persu": 896,
  "itation": 897,
  "▁settled": 898,
  "▁circumst": 899,
  "▁daughters": 900,
  "eep": 901,
  "▁gu": 902,
  "ties": 903,
  "▁bus": 904,
  "▁fre": 905,
  "▁ser": 906,
  "▁arri": 907,
  "▁fear": 908,
  "▁inqu": 909,
  "▁pain": 910,
  "▁prob": 911,
  "▁scar": 912,
  "▁spir": 913,
  "▁took": 914,
  "▁wond": 915,
  "▁girls": 916,
  "▁minut": 917,
  "▁point": 918,
  "▁compan": 919,
  "▁course": 920,
  "▁hardly": 921,
  "▁manners": 922,
  "▁perfectly": 923,
  "omp": 924,
  "▁gl": 925,
  "iled": 926,
  "term": 927,
  "▁back": 928,
  "▁impo": 929,
  "▁grati": 930,
  "▁former": 931,
  "arm": 932,
  "ill": 933,
  "▁ask": 934,
  "▁def": 935,
  "▁lau": 936,
  "▁beau": 937,
  "▁eyes": 938,
  "▁over": 939,
  "▁doubt": 940,
  "▁heart": 941,
  "▁offic": 942,
  "▁determ": 943,
  "▁suppose": 944,
  "▁interest": 945,
  "▁gentleman": 946,
  "▁impossible": 947,
  "ew": 948,
  "ib": 949,
  "if": 950,
  "hood": 951,
  "know": 952,
  "sequ": 953,
  "▁ros": 954,
  "antly": 955,
  "ating": 956,
  "ented": 957,
  "ressed": 958,
  "▁laugh": 959,
  "▁party": 960,
  "▁right": 961,
  "▁assure": 962,
  "▁scarce": 963,
  "▁business": 964,
  "▁expected": 965,
  "▁understand": 966,
  "jo": 967,
  "eek": 968,
  "eng": 969,
  "▁ph": 970,
  "▁bre": 971,
  "▁bri": 972,
  "▁obs": 973,
  "▁tri": 974,
  "atter": 975,
  "ition": 976,
  "▁acce": 977,
  "▁sens": 978,
  "▁admir": 979,
  "▁advant": 980,
  "▁called": 981,
  "▁compli": 982,
  "▁convin": 983,
  "▁necess": 984,
  "▁rosings": 985,
  "▁ladyship": 986,
  "▁scarcely": 987,
  "act": 988,
  "ase": 989,
  "raw": 990,
  "rew": 991,
  "val": 992,
  "▁fe": 993,
  "ange": 994,
  "olle": 995,
  "ston": 996,
  "▁exc": 997,
  "▁suc": 998,
  "ished": 999,
  "owing": 1000,
  "▁head": 1001,
  "▁mist": 1002,
  "▁poss": 1003,
  "▁serv": 1004,
  "▁wife": 1005,
  "▁aston": 1006,
  "▁power": 1007,
  "▁walked": 1008,
  "▁wished": 1009,
  "▁consequ": 1010,
  "▁recolle": 1011,
  "▁civility": 1012,
  "▁surprise": 1013,
  "▁gentlemen": 1014,
  "vo": 1015,
  "ford": 1016,
  "iece": 1017,
  "raid": 1018,
  "▁anx": 1019,
  "iable": 1020,
  "spect": 1021,
  "▁decl": 1022,
  "▁live": 1023,
  "▁open": 1024,
  "▁reme": 1025,
  "▁week": 1026,
  "ountry": 1027,
  "▁pride": 1028,
  "▁spoke": 1029,
  "ination": 1030,
  "▁disapp": 1031,
  "▁matter": 1032,
  "▁proper": 1033,
  "▁country": 1034,
  "ild": 1035,
  "oud": 1036,
  "olly": 1037,
  "ster": 1038,
  "▁care": 1039,
  "▁hert": 1040,
  "▁imag": 1041,
  "▁list": 1042,
  "▁afraid": 1043,
  "▁cousin": 1044,
  "▁import": 1045,
  "▁turned": 1046,
  "▁fortune": 1047,
  "▁pleased": 1048,
  "fordshire": 1049,
  "▁carriage": 1050,
  "▁handsome": 1051,
  "▁agreeable": 1052,
  "▁everybody": 1053,
  "▁hertfordshire": 1054,
  "iew": 1055,
  "rud": 1056,
  "▁fl": 1057,
  "▁wa": 1058,
  "▁ind": 1059,
  "▁met": 1060,
  "▁ten": 1061,
  "ength": 1062,
  "▁ball": 1063,
  "▁coun": 1064,
  "▁dare": 1065,
  "▁mary": 1066,
  "▁prop": 1067,
  "ending": 1068,
  "▁conce": 1069,
  "▁offer": 1070,
  "▁amiable": 1071,
  "▁serious": 1072,
  "▁convinced": 1073,
  "im": 1074,
  "elp": 1075,
  "old": 1076,
  "ory": 1077,
  "▁aw": 1078,
  "▁la": 1079,
  "ceed": 1080,
  "▁enc": 1081,
  "ached": 1082,
  "times": 1083,
  "▁four": 1084,
  "▁help": 1085,
  "▁incl": 1086,
  "▁pass": 1087,
  "▁poor": 1088,
  "erence": 1089,
  "▁appro": 1090,
  "▁endea": 1091,
  "▁night": 1092,
  "▁table": 1093,
  "agement": 1094,
  "▁likely": 1095,
  "▁longer": 1096,
  "▁talked": 1097,
  "▁engaged": 1098,
  "▁william": 1099,
  "▁sometimes": 1100,
  "ts": 1101,
  "zw": 1102,
  "fit": 1103,
  "ause": 1104,
  "wise": 1105,
  "▁lib": 1106,
  "▁men": 1107,
  "▁smi": 1108,
  "▁draw": 1109,
  "▁situ": 1110,
  "▁among": 1111,
  "▁child": 1112,
  "▁write": 1113,
  "osition": 1114,
  "▁within": 1115,
  "▁wonder": 1116,
  "zwilliam": 1117,
  "▁entered": 1118,
  "▁forster": 1119,
  "▁minutes": 1120,
  "▁spirits": 1121,
  "▁advantage": 1122,
  "▁different": 1123,
  "▁endeavour": 1124,
  "ven": 1125,
  "▁fi": 1126,
  "ents": 1127,
  "oler": 1128,
  "▁eff": 1129,
  "▁jud": 1130,
  "▁soc": 1131,
  "fully": 1132,
  "iting": 1133,
  "▁requ": 1134,
  "▁sort": 1135,
  "▁equal": 1136,
  "knowled": 1137,
  "▁accomp": 1138,
  "▁dinner": 1139,
  "▁humour": 1140,
  "▁making": 1141,
  "▁account": 1142,
  "▁brought": 1143,
  "▁disappo": 1144,
  "▁feeling": 1145,
  "▁talking": 1146,
  "▁acknowled": 1147,
  "ck": 1148,
  "cip": 1149,
  "par": 1150,
  "rie": 1151,
  "ided": 1152,
  "oice": 1153,
  "yond": 1154,
  "▁air": 1155,
  "▁der": 1156,
  "▁eld": 1157,
  "▁sor": 1158,
  "ilips": 1159,
  "ounds": 1160,
  "▁desc": 1161,
  "▁forg": 1162,
  "▁sent": 1163,
  "action": 1164,
  "▁sense": 1165,
  "ishment": 1166,
  "▁beyond": 1167,
  "▁inform": 1168,
  "▁merely": 1169,
  "▁saying": 1170,
  "▁strong": 1171,
  "▁philips": 1172,
  "▁society": 1173,
  "▁believed": 1174,
  "▁speaking": 1175,
  "▁surprised": 1176,
  "▁appearance": 1177,
  "arn": 1178,
  "uri": 1179,
  "ager": 1180,
  "atch": 1181,
  "ffic": 1182,
  "like": 1183,
  "sand": 1184,
  "tude": 1185,
  "ying": 1186,
  "▁ang": 1187,
  "▁den": 1188,
  "▁lar": 1189,
  "▁pra": 1190,
  "anger": 1191,
  "ident": 1192,
  "usion": 1193,
  "▁disg": 1194,
  "▁fine": 1195,
  "▁five": 1196,
  "▁keep": 1197,
  "▁name": 1198,
  "▁obli": 1199,
  "▁view": 1200,
  "▁allow": 1201,
  "▁eager": 1202,
  "▁exact": 1203,
  "▁frequ": 1204,
  "▁intro": 1205,
  "▁natur": 1206,
  "▁usual": 1207,
  "jection": 1208,
  "▁length": 1209,
  "▁collins": 1210,
  "▁neither": 1211,
  "▁appeared": 1212,
  "▁officers": 1213,
  "▁thousand": 1214,
  "▁invitation": 1215,
  "▁consequence": 1216,
  "▁satisfaction": 1217,
  "ma": 1218,
  "up": 1219,
  "▁tr": 1220,
  "▁sum": 1221,
  "▁une": 1222,
  "ption": 1223,
  "redit": 1224,
  "wards": 1225,
  "▁days": 1226,
  "▁news": 1227,
  "▁after": 1228,
  "▁hurst": 1229,
  "▁impro": 1230,
  "▁sorry": 1231,
  "▁taken": 1232,
  "▁toler": 1233,
  "▁years": 1234,
  "▁exceed": 1235,
  "▁observ": 1236,
  "▁wishes": 1237,
  "▁arrival": 1238,
  "▁exactly": 1239,
  "▁receive": 1240,
  "▁situation": 1241,
  "fitzwilliam": 1242,
  "▁circumstances": 1243,
  "by": 1244,
  "so": 1245,
  "ark": 1246,
  "rib": 1247,
  "ult": 1248,
  "▁si": 1249,
  "airs": 1250,
  "cing": 1251,
  "empt": 1252,
  "erve": 1253,
  "ient": 1254,
  "rary": 1255,
  "▁bec": 1256,
  "▁dan": 1257,
  "▁sel": 1258,
  "aster": 1259,
  "ellig": 1260,
  "ortun": 1261,
  "▁book": 1262,
  "▁conc": 1263,
  "▁curi": 1264,
  "▁deal": 1265,
  "▁face": 1266,
  "▁glad": 1267,
  "▁hast": 1268,
  "▁just": 1269,
  "▁meet": 1270,
  "▁charm": 1271,
  "▁dance": 1272,
  "▁niece": 1273,
  "▁sever": 1274,
  "▁words": 1275,
  "▁credit": 1276,
  "▁depend": 1277,
  "▁encour": 1278,
  "▁joined": 1279,
  "▁forward": 1280,
  "▁servant": 1281,
  "▁silence": 1282,
  "▁younger": 1283,
  "▁kindness": 1284,
  "▁opportun": 1285,
  "▁sensible": 1286,
  "▁afterwards": 1287,
  "▁determined": 1288,
  "▁astonishment": 1289,
  "dd": 1290,
  "ior": 1291,
  "ney": 1292,
  "omm": 1293,
  "ors": 1294,
  "xed": 1295,
  "enti": 1296,
  "oney": 1297,
  "▁val": 1298,
  "ality": 1299,
  "ected": 1300,
  "▁also": 1301,
  "▁bear": 1302,
  "▁lost": 1303,
  "▁play": 1304,
  "▁real": 1305,
  "▁self": 1306,
  "▁begin": 1307,
  "▁money": 1308,
  "▁assist": 1309,
  "▁recomm": 1310,
  "▁slight": 1311,
  "▁things": 1312,
  "▁intellig": 1313,
  "▁instantly": 1314,
  "▁mentioned": 1315,
  "▁necessary": 1316,
  "▁satisfied": 1317,
  "▁opportunity": 1318,
  "▁particularly": 1319,
  "▁neighbourhood": 1320,
  "che": 1321,
  "ere": 1322,
  "ief": 1323,
  "mes": 1324,
  "ows": 1325,
  "▁bo": 1326,
  "▁ve": 1327,
  "alth": 1328,
  "ancy": 1329,
  "ures": 1330,
  "▁cap": 1331,
  "▁emp": 1332,
  "▁mon": 1333,
  "▁put": 1334,
  "▁ter": 1335,
  "▁use": 1336,
  "ready": 1337,
  "▁noti": 1338,
  "▁alone": 1339,
  "▁assur": 1340,
  "▁bring": 1341,
  "▁desir": 1342,
  "▁intim": 1343,
  "▁meant": 1344,
  "▁reply": 1345,
  "tenance": 1346,
  "▁highly": 1347,
  "▁master": 1348,
  "▁remark": 1349,
  "▁second": 1350,
  "fference": 1351,
  "▁already": 1352,
  "▁remember": 1353,
  "▁resolved": 1354,
  "▁objection": 1355,
  "▁compliment": 1356,
  "▁countenance": 1357,
  "ati": 1358,
  "ial": 1359,
  "res": 1360,
  "uce": 1361,
  "aded": 1362,
  "▁cor": 1363,
  "▁hun": 1364,
  "▁unw": 1365,
  "ising": 1366,
  "iving": 1367,
  "ourgh": 1368,
  "utely": 1369,
  "ution": 1370,
  "▁case": 1371,
  "▁enti": 1372,
  "▁park": 1373,
  "▁quit": 1374,
  "▁thus": 1375,
  "▁derby": 1376,
  "▁early": 1377,
  "▁learn": 1378,
  "▁month": 1379,
  "▁refle": 1380,
  "▁stand": 1381,
  "▁thing": 1382,
  "▁accept": 1383,
  "▁attach": 1384,
  "▁bourgh": 1385,
  "▁bright": 1386,
  "▁direct": 1387,
  "▁suffer": 1388,
  "▁wholly": 1389,
  "▁absence": 1390,
  "▁allowed": 1391,
  "▁anxious": 1392,
  "▁anybody": 1393,
  "▁compreh": 1394,
  "▁knowing": 1395,
  "▁obliged": 1396,
  "▁success": 1397,
  "▁expressed": 1398,
  "▁acquainted": 1399,
  "▁derbyshire": 1400,
  "▁importance": 1401,
  "▁disposition": 1402,
  "▁exceedingly": 1403,
  "gr": 1404,
  "ph": 1405,
  "ze": 1406,
  "ull": 1407,
  "▁we": 1408,
  "fast": 1409,
  "fess": 1410,
  "gnor": 1411,
  "phew": 1412,
  "▁gre": 1413,
  "▁set": 1414,
  "▁wed": 1415,
  "ailed": 1416,
  "ative": 1417,
  "ually": 1418,
  "▁choo": 1419,
  "▁expl": 1420,
  "▁fair": 1421,
  "▁remo": 1422,
  "▁sche": 1423,
  "▁sing": 1424,
  "atever": 1425,
  "▁break": 1426,
  "▁hours": 1427,
  "▁ignor": 1428,
  "▁large": 1429,
  "▁occur": 1430,
  "▁perce": 1431,
  "▁smile": 1432,
  "▁trust": 1433,
  "▁beauty": 1434,
  "▁easily": 1435,
  "▁giving": 1436,
  "▁health": 1437,
  "▁nephew": 1438,
  "▁resent": 1439,
  "▁assured": 1440,
  "▁looking": 1441,
  "▁intended": 1442,
  "▁marrying": 1443,
  "▁question": 1444,
  "▁supposed": 1445,
  "▁whatever": 1446,
  "wh": 1447,
  "ead": 1448,
  "own": 1449,
  "ren": 1450,
  "son": 1451,
  "tty": 1452,
  "ves": 1453,
  "atul": 1454,
  "gree": 1455,
  "void": 1456,
  "▁dro": 1457,
  "▁ele": 1458,
  "▁got": 1459,
  "▁van": 1460,
  "▁var": 1461,
  "▁wel": 1462,
  "ardon": 1463,
  "duced": 1464,
  "eness": 1465,
  "ering": 1466,
  "iment": 1467,
  "▁dece": 1468,
  "▁lett": 1469,
  "▁pray": 1470,
  "▁purp": 1471,
  "▁sake": 1472,
  "▁amuse": 1473,
  "▁chief": 1474,
  "▁extra": 1475,
  "▁forge": 1476,
  "▁match": 1477,
  "▁proud": 1478,
  "▁seems": 1479,
  "▁spent": 1480,
  "▁super": 1481,
  "▁anyone": 1482,
  "▁curios": 1483,
  "▁degree": 1484,
  "▁design": 1485,
  "▁effect": 1486,
  "▁nature": 1487,
  "▁pounds": 1488,
  "▁pretty": 1489,
  "▁silent": 1490,
  "▁sincer": 1491,
  "▁temper": 1492,
  "▁wanted": 1493,
  "▁company": 1494,
  "▁conceal": 1495,
  "▁drawing": 1496,
  "▁imagine": 1497,
  "▁instead": 1498,
  "▁probably": 1499,
  "▁regiment": 1500,
  "▁gratitude": 1501,
  "▁persuaded": 1502,
  "▁admiration": 1503,
  "▁attentions": 1504,
  "▁information": 1505,
  "loy": 1506,
  "luc": 1507,
  "adam": 1508,
  "dden": 1509,
  "fied": 1510,
  "gest": 1511,
  "race": 1512,
  "rely": 1513,
  "rote": 1514,
  "used": 1515,
  "▁beh": 1516,
  "▁cle": 1517,
  "▁fin": 1518,
  "▁law": 1519,
  "▁ord": 1520,
  "▁son": 1521,
  "▁tea": 1522,
  "atest": 1523,
  "ially": 1524,
  "osure": 1525,
  "unate": 1526,
  "▁easy": 1527,
  "▁enjo": 1528,
  "▁evil": 1529,
  "▁grie": 1530,
  "▁need": 1531,
  "▁poli": 1532,
  "▁pref": 1533,
  "▁quar": 1534,
  "▁wind": 1535,
  "lished": 1536,
  "rehens": 1537,
  "▁const": 1538,
  "▁creat": 1539,
  "▁dread": 1540,
  "▁event": 1541,
  "▁guard": 1542,
  "▁liked": 1543,
  "▁madam": 1544,
  "▁small": 1545,
  "▁terms": 1546,
  "▁truth": 1547,
  "▁voice": 1548,
  "▁worth": 1549,
  "▁wrote": 1550,
  "tention": 1551,
  "▁admire": 1552,
  "▁compar": 1553,
  "▁conduc": 1554,
  "▁desire": 1555,
  "▁eldest": 1556,
  "▁employ": 1557,
  "▁praise": 1558,
  "▁remain": 1559,
  "▁sudden": 1560,
  "▁address": 1561,
  "▁hearing": 1562,
  "▁natural": 1563,
  "▁walking": 1564,
  "▁attended": 1565,
  "▁brighton": 1566,
  "▁children": 1567,
  "▁mistaken": 1568,
  "▁pleasant": 1569,
  "▁breakfast": 1570,
  "▁curiosity": 1571,
  "iri": 1572,
  "ple": 1573,
  "ron": 1574,
  "ses": 1575,
  "ute": 1576,
  "alse": 1577,
  "educ": 1578,
  "long": 1579,
  "nest": 1580,
  "▁ago": 1581,
  "▁che": 1582,
  "▁emb": 1583,
  "▁lam": 1584,
  "eeper": 1585,
  "iling": 1586,
  "inary": 1587,
  "incip": 1588,
  "inter": 1589,
  "iries": 1590,
  "▁cold": 1591,
  "▁deli": 1592,
  "▁desp": 1593,
  "▁join": 1594,
  "▁jour": 1595,
  "▁repe": 1596,
  "▁susp": 1597,
  "▁true": 1598,
  "▁warm": 1599,
  "▁writ": 1600,
  "gratul": 1601,
  "▁absol": 1602,
  "▁avoid": 1603,
  "▁false": 1604,
  "▁incre": 1605,
  "▁plain": 1606,
  "▁state": 1607,
  "▁common": 1608,
  "▁possib": 1609,
  "▁earnest": 1610,
  "▁greater": 1611,
  "▁journey": 1612,
  "▁proceed": 1613,
  "▁purpose": 1614,
  "▁charming": 1615,
  "▁directly": 1616,
  "▁discover": 1617,
  "▁distress": 1618,
  "▁entirely": 1619,
  "▁greatest": 1620,
  "▁promised": 1621,
  "▁relation": 1622,
  "▁thoughts": 1623,
  "▁congratul": 1624,
  "▁following": 1625,
  "▁inquiries": 1626,
  "▁relations": 1627,
  "▁attachment": 1628,
  "▁comprehend": 1629,
  "▁inclination": 1630,
  "gy": 1631,
  "ia": 1632,
  "lu": 1633,
  "ken": 1634,
  "lay": 1635,
  "▁au": 1636,
  "▁pu": 1637,
  "ages": 1638,
  "akes": 1639,
  "ides": 1640,
  "rown": 1641,
  "test": 1642,
  "▁ben": 1643,
  "▁cla": 1644,
  "▁neg": 1645,
  "▁run": 1646,
  "inted": 1647,
  "night": 1648,
  "osing": 1649,
  "▁paid": 1650,
  "▁stru": 1651,
  "▁used": 1652,
  "licity": 1653,
  "▁civil": 1654,
  "▁light": 1655,
  "▁maria": 1656,
  "▁miser": 1657,
  "▁sight": 1658,
  "▁spite": 1659,
  "▁treat": 1660,
  "▁watch": 1661,
  "ability": 1662,
  "▁change": 1663,
  "▁comple": 1664,
  "▁forced": 1665,
  "▁forget": 1666,
  "▁housek": 1667,
  "▁imprud": 1668,
  "▁instru": 1669,
  "▁latter": 1670,
  "▁regret": 1671,
  "▁vanity": 1672,
  "▁conduct": 1673,
  "▁flatter": 1674,
  "▁library": 1675,
  "▁meeting": 1676,
  "▁princip": 1677,
  "▁reached": 1678,
  "▁sitting": 1679,
  "▁followed": 1680,
  "▁happened": 1681,
  "▁pleasing": 1682,
  "▁thinking": 1683,
  "▁favourite": 1684,
  "▁intention": 1685,
  "▁prevented": 1686,
  "▁considered": 1687,
  "▁engagement": 1688,
  "▁frequently": 1689,
  "▁intelligence": 1690,
  "gu": 1691,
  "als": 1692,
  "cap": 1693,
  "eas": 1694,
  "ict": 1695,
  "▁ap": 1696,
  "▁du": 1697,
  "▁sw": 1698,
  "▁vi": 1699,
  "amed": 1700,
  "arra": 1701,
  "ched": 1702,
  "come": 1703,
  "ding": 1704,
  "king": 1705,
  "spec": 1706,
  "unic": 1707,
  "▁ama": 1708,
  "▁lea": 1709,
  "▁unp": 1710,
  "cious": 1711,
  "erved": 1712,
  "itted": 1713,
  "ously": 1714,
  "sford": 1715,
  "▁eleg": 1716,
  "▁exam": 1717,
  "▁exer": 1718,
  "▁full": 1719,
  "▁rejo": 1720,
  "▁seem": 1721,
  "▁when": 1722,
  "sonage": 1723,
  "▁cause": 1724,
  "▁compl": 1725,
  "▁enjoy": 1726,
  "▁fancy": 1727,
  "▁fixed": 1728,
  "▁hoped": 1729,
  "▁ready": 1730,
  "▁relie": 1731,
  "▁separ": 1732,
  "▁times": 1733,
  "▁uncom": 1734,
  "▁colour": 1735,
  "▁estate": 1736,
  "▁living": 1737,
  "▁morrow": 1738,
  "▁opened": 1739,
  "▁pardon": 1740,
  "▁unless": 1741,
  "▁dancing": 1742,
  "▁readily": 1743,
  "▁several": 1744,
  "▁written": 1745,
  "▁affected": 1746,
  "▁communic": 1747,
  "▁hunsford": 1748,
  "▁prospect": 1749,
  "▁whenever": 1750,
  "▁parsonage": 1751,
  "▁receiving": 1752,
  "▁disappoint": 1753,
  "▁expectation": 1754,
  "▁particulars": 1755,
  "▁acknowledged": 1756,
  "ky": 1757,
  "ber": 1758,
  "ept": 1759,
  "mer": 1760,
  "ling": 1761,
  "orth": 1762,
  "reme": 1763,
  "▁clo": 1764,
  "▁hea": 1765,
  "▁pay": 1766,
  "▁unh": 1767,
  "gment": 1768,
  "ledge": 1769,
  "lling": 1770,
  "ormed": 1771,
  "ouble": 1772,
  "rance": 1773,
  "tiful": 1774,
  "▁cond": 1775,
  "▁late": 1776,
  "▁plan": 1777,
  "▁prep": 1778,
  "▁pret": 1779,
  "▁scen": 1780,
  "▁step": 1781,
  "▁vain": 1782,
  "▁viol": 1783,
  "▁wait": 1784,
  "▁work": 1785,
  "idence": 1786,
  "ission": 1787,
  "teness": 1788,
  "▁alarm": 1789,
  "▁alter": 1790,
  "▁angry": 1791,
  "▁cheer": 1792,
  "▁compa": 1793,
  "▁concl": 1794,
  "▁espec": 1795,
  "▁estee": 1796,
  "▁senti": 1797,
  "▁stead": 1798,
  "fulness": 1799,
  "▁affair": 1800,
  "▁afford": 1801,
  "▁chance": 1802,
  "▁danger": 1803,
  "▁impati": 1804,
  "▁notice": 1805,
  "▁report": 1806,
  "▁attempt": 1807,
  "▁confess": 1808,
  "▁dislike": 1809,
  "▁extreme": 1810,
  "▁leaving": 1811,
  "▁letters": 1812,
  "▁possess": 1813,
  "▁recover": 1814,
  "▁removed": 1815,
  "▁approach": 1816,
  "▁declared": 1817,
  "▁felicity": 1818,
  "▁likewise": 1819,
  "▁listened": 1820,
  "▁remained": 1821,
  "▁addressed": 1822,
  "▁concerned": 1823,
  "▁delighted": 1824,
  "▁entertain": 1825,
  "▁fortnight": 1826,
  "▁knowledge": 1827,
  "▁questions": 1828,
  "▁absolutely": 1829,
  "▁connection": 1830,
  "▁especially": 1831,
  "▁expression": 1832,
  "▁resolution": 1833,
  "▁housekeeper": 1834,
  "▁circumstance": 1835,
  "▁indifference": 1836,
  "oc": 1837,
  "art": 1838,
  "ope": 1839,
  "tic": 1840,
  "ump": 1841,
  "zed": 1842,
  "duce": 1843,
  "enew": 1844,
  "lied": 1845,
  "mony": 1846,
  "omin": 1847,
  "ross": 1848,
  "uded": 1849,
  "▁ash": 1850,
  "▁eye": 1851,
  "▁fut": 1852,
  "▁hor": 1853,
  "▁try": 1854,
  "▁unf": 1855,
  "licit": 1856,
  "using": 1857,
  "▁drew": 1858,
  "▁hint": 1859,
  "▁kept": 1860,
  "▁loss": 1861,
  "▁none": 1862,
  "▁purs": 1863,
  "▁quie": 1864,
  "▁send": 1865,
  "iction": 1866,
  "▁accep": 1867,
  "▁blame": 1868,
  "▁chose": 1869,
  "▁comes": 1870,
  "▁estab": 1871,
  "▁hopes": 1872,
  "▁influ": 1873,
  "▁mater": 1874,
  "▁oblig": 1875,
  "▁pause": 1876,
  "▁renew": 1877,
  "▁round": 1878,
  "▁weeks": 1879,
  "▁women": 1880,
  "▁advice": 1881,
  "▁choose": 1882,
  "▁contin": 1883,
  "▁dining": 1884,
  "▁engage": 1885,
  "▁excell": 1886,
  "▁except": 1887,
  "▁formed": 1888,
  "▁future": 1889,
  "▁listen": 1890,
  "▁months": 1891,
  "▁proved": 1892,
  "▁scheme": 1893,
  "▁summer": 1894,
  "▁taking": 1895,
  "▁thanks": 1896,
  "▁unhapp": 1897,
  "▁unwill": 1898,
  "▁winter": 1899,
  "▁describ": 1900,
  "▁embarra": 1901,
  "▁equally": 1902,
  "▁evident": 1903,
  "▁increas": 1904,
  "▁interru": 1905,
  "▁ignorant": 1906,
  "▁persuade": 1907,
  "▁suddenly": 1908,
  "▁superior": 1909,
  "▁visitors": 1910,
  "▁apprehens": 1911,
  "▁composure": 1912,
  "▁generally": 1913,
  "▁otherwise": 1914,
  "▁recommend": 1915,
  "▁compassion": 1916,
  "▁politeness": 1917,
  "▁resentment": 1918,
  "▁connections": 1919,
  "▁indifferent": 1920,
  "▁understanding": 1921,
  "acy": 1922,
  "ath": 1923,
  "dge": 1924,
  "emb": 1925,
  "man": 1926,
  "olo": 1927,
  "ons": 1928,
  "orn": 1929,
  "▁es": 1930,
  "▁ir": 1931,
  "▁sy": 1932,
  "ency": 1933,
  "enty": 1934,
  "ergy": 1935,
  "ired": 1936,
  "ison": 1937,
  "lest": 1938,
  "pped": 1939,
  "sday": 1940,
  "urch": 1941,
  "uted": 1942,
  "▁cal": 1943,
  "▁det": 1944,
  "▁foo": 1945,
  "▁inj": 1946,
  "▁mus": 1947,
  "▁old": 1948,
  "▁pun": 1949,
  "▁tra": 1950,
  "▁vex": 1951,
  "agree": 1952,
  "arest": 1953,
  "cting": 1954,
  "ively": 1955,
  "urday": 1956,
  "▁actu": 1957,
  "▁dine": 1958,
  "▁educ": 1959,
  "▁fond": 1960,
  "▁forb": 1961,
  "▁says": 1962,
  "▁tone": 1963,
  "▁valu": 1964,
  "dition": 1965,
  "stairs": 1966,
  "▁apolo": 1967,
  "▁hurry": 1968,
  "▁liber": 1969,
  "▁morti": 1970,
  "▁quick": 1971,
  "▁": 1972,
  "e": 1973,
  "n": 1974,
  "t": 1975,
  "i": 1976,
  "a": 1977,
  "r": 1978,
  "s": 1979,
  "o": 1980,
  "l": 1981,
  "d": 1982,
  "c": 1983,
  "u": 1984,
  "m": 1985,
  "h": 1986,
  "g": 1987,
  "p": 1988,
  "y": 1989,
  "b": 1990,
  "f": 1991,
  "w": 1992,
  "v": 1993,
  "k": 1994,
  "_": 1995,
  "z": 1996,
  "x": 1997,
  "j": 1998,
  "q": 1999
}