{
  "<unk>": 0,
  "<s>": 1,
  "</s>": 2,
  "in": 3,
  "er": 4,
  "en": 5,
  "▁s": 6,
  "▁m": 7,
  "on": 8,
  "ed": 9,
  "re": 10,
  "▁c": 11,
  "ou": 12,
  "th": 13,
  "ing": 14,
  "ar": 15,
  "▁a": 16,
  "▁p": 17,
  "le": 18,
  "ne": 19,
  "▁e": 20,
  "▁w": 21,
  "st": 22,
  "▁d": 23,
  "an": 24,
  "ti": 25,
  "▁f": 26,
  "li": 27,
  "ly": 28,
  "▁g": 29,
  "▁h": 30,
  "or": 31,
  "ce": 32,
  "ss": 33,
  "▁b": 34,
  "▁re": 35,
  "al": 36,
  "▁l": 37,
  "ent": 38,
  "▁t": 39,
  "gh": 40,
  "om": 41,
  "ld": 42,
  "net": 43,
  "ennet": 44,
  "tion": 45,
  "ab": 46,
  "bennet": 47,
  "at": 48,
  "it": 49,
  "is": 50,
  "▁mr": 51,
  "ay": 52,
  "ver": 53,
  "ow": 54,
  "es": 55,
  "ll": 56,
  "ther": 57,
  "▁in": 58,
  "ould": 59,
  "▁o": 60,
  "ri": 61,
  "ec": 62,
  "ght": 63,
  "▁th": 64,
  "tt": 65,
  "ve": 66,
  "ad": 67,
  "ro": 68,
  "▁u": 69,
  "se": 70,
  "eth": 71,
  "▁con": 72,
  "am": 73,
  "▁eli": 74,
  "ge": 75,
  "zab": 76,
  "zabeth": 77,
  "▁elizabeth": 78,
  "ir": 79,
  "our": 80,
  "pp": 81,
  "ee": 82,
  "▁ne": 83,
  "▁k": 84,
  "▁su": 85,
  "ation": 86,
  "ear": 87,
  "ch": 88,
  "one": 89,
  "▁mu": 90,
  "oo": 91,
  "▁be": 92,
  "as": 93,
  "▁li": 94,
  "qu": 95,
  "end": 96,
  "▁le": 97,
  "ak": 98,
  "▁ex": 99,
  "id": 100,
  "▁com": 101,
  "▁mi": 102,
  "ur": 103,
  "▁n": 104,
  "ect": 105,
  "ain": 106,
  "▁could": 107,
  "ff": 108,
  "oun": 109,
  "cy": 110,
  "ic": 111,
  "ist": 112,
  "▁un": 113,
  "▁ch": 114,
  "▁j": 115,
  "ard": 116,
  "ance": 117,
  "▁i": 118,
  "▁de": 119,
  "▁would": 120,
  "ion": 121,
  "ment": 122,
  "ty": 123,
  "ul": 124,
  "▁y": 125,
  "ter": 126,
  "able": 127,
  "▁man": 128,
  "▁st": 129,
  "dar": 130,
  "▁thou": 131,
  "darcy": 132,
  "ra": 133,
  "▁ever": 134,
  "ine": 135,
  "ers": 136,
  "ate": 137,
  "now": 138,
  "ol": 139,
  "mp": 140,
  "ant": 141,
  "ley": 142,
  "ort": 143,
  "▁ac": 144,
  "▁an": 145,
  "▁sh": 146,
  "all": 147,
  "ence": 148,
  "▁al": 149,
  "ong": 150,
  "▁sp": 151,
  "ure": 152,
  "ell": 153,
  "▁know": 154,
  "▁v": 155,
  "▁par": 156,
  "ish": 157,
  "▁mrs": 158,
  "ast": 159,
  "il": 160,
  "▁ti": 161,
  "▁much": 162,
  "ingley": 163,
  "▁en": 164,
  "thing": 165,
  "▁see": 166,
  "ous": 167,
  "▁so": 168,
  "▁pro": 169,
  "iv": 170,
  "▁se": 171,
  "▁dis": 172,
  "▁ge": 173,
  "▁lad": 174,
  "▁pre": 175,
  "au": 176,
  "▁fa": 177,
  "ood": 178,
  "▁must": 179,
  "ie": 180,
  "ind": 181,
  "me": 182,
  "and": 183,
  "▁sist": 184,
  "▁wh": 185,
  "ane": 186,
  "ake": 187,
  "▁mar": 188,
  "app": 189,
  "▁wi": 190,
  "▁one": 191,
  "▁for": 192,
  "ac": 193,
  "un": 194,
  "ble": 195,
  "▁jane": 196,
  "op": 197,
  "▁no": 198,
  "▁every": 199,
  "di": 200,
  "ook": 201,
  "ted": 202,
  "▁exp": 203,
  "age": 204,
  "est": 205,
  "▁ad": 206,
  "ive": 207,
  "▁miss": 208,
  "el": 209,
  "▁po": 210,
  "ily": 211,
  "ally": 212,
  "▁geor": 213,
  "ke": 214,
  "us": 215,
  "▁comp": 216,
  "way": 217,
  "ink": 218,
  "▁qu": 219,
  "▁att": 220,
  "oll": 221,
  "▁well": 222,
  "de": 223,
  "ru": 224,
  "▁ev": 225,
  "ry": 226,
  "tter": 227,
  "sh": 228,
  "reat": 229,
  "▁per": 230,
  "ick": 231,
  "▁hear": 232,
  "▁never": 233,
  "ress": 234,
  "▁though": 235,
  "os": 236,
  "ert": 237,
  "ord": 238,
  "▁lady": 239,
  "▁long": 240,
  "▁soon": 241,
  "▁imp": 242,
  "alk": 243,
  "▁think": 244,
  "▁sister": 245,
  "ved": 246,
  "▁ro": 247,
  "ity": 248,
  "▁happ": 249,
  "▁with": 250,
  "bingley": 251,
  "ful": 252,
  "▁lo": 253,
  "▁app": 254,
  "uc": 255,
  "ham": 256,
  "▁fri": 257,
  "ome": 258,
  "▁go": 259,
  "leas": 260,
  "▁char": 261,
  "ire": 262,
  "ten": 263,
  "ins": 264,
  "med": 265,
  "▁good": 266,
  "ite": 267,
  "▁me": 268,
  "▁ob": 269,
  "▁sa": 270,
  "wick": 271,
  "▁george": 272,
  "ond": 273,
  "▁might": 274,
  "wickham": 275,
  "▁time": 276,
  "▁res": 277,
  "▁friend": 278,
  "ag": 279,
  "▁say": 280,
  "ness": 281,
  "▁mo": 282,
  "ings": 283,
  "▁r": 284,
  "▁wish": 285,
  "▁pleas": 286,
  "ttle": 287,
  "ose": 288,
  "▁may": 289,
  "out": 290,
  "▁tw": 291,
  "▁us": 292,
  "▁youn": 293,
  "▁nothing": 294,
  "▁pl": 295,
  "ollins": 296,
  "▁little": 297,
  "ame": 298,
  "ili": 299,
  "ree": 300,
  "▁day": 301,
  "▁great": 302,
  "ot": 303,
  "dia": 304,
  "ible": 305,
  "mb": 306,
  "ise": 307,
  "ject": 308,
  "urn": 309,
  "▁aff": 310,
  "▁ass": 311,
  "▁look": 312,
  "▁ly": 313,
  "▁lydia": 314,
  "eel": 315,
  "▁hop": 316,
  "lie": 317,
  "ea": 318,
  "▁make": 319,
  "▁without": 320,
  "ut": 321,
  "ound": 322,
  "▁des": 323,
  "▁even": 324,
  "▁young": 325,
  "▁feel": 326,
  "ertain": 327,
  "▁shall": 328,
  "ever": 329,
  "▁fam": 330,
  "ention": 331,
  "are": 332,
  "ner": 333,
  "ade": 334,
  "ffer": 335,
  "▁dear": 336,
  "▁fir": 337,
  "▁cons": 338,
  "fe": 339,
  "led": 340,
  "▁pa": 341,
  "iness": 342,
  "ca": 343,
  "aught": 344,
  "▁room": 345,
  "▁first": 346,
  "▁thought": 347,
  "▁family": 348,
  "lo": 349,
  "▁two": 350,
  "collins": 351,
  "▁belie": 352,
  "▁am": 353,
  "▁op": 354,
  "▁like": 355,
  "um": 356,
  "▁pr": 357,
  "▁rep": 358,
  "ha": 359,
  "bour": 360,
  "ouse": 361,
  "▁house": 362,
  "▁certain": 363,
  "ps": 364,
  "▁acc": 365,
  "▁any": 366,
  "▁last": 367,
  "ways": 368,
  "▁always": 369,
  "▁wor": 370,
  "▁supp": 371,
  "▁to": 372,
  "▁spe": 373,
  "▁marri": 374,
  "▁give": 375,
  "▁made": 376,
  "ection": 377,
  "▁daught": 378,
  "▁ar": 379,
  "ious": 380,
  "▁beg": 381,
  "▁how": 382,
  "▁tow": 383,
  "▁hope": 384,
  "therine": 385,
  "ach": 386,
  "ice": 387,
  "▁father": 388,
  "▁mother": 389,
  "▁however": 390,
  "ann": 391,
  "▁rec": 392,
  "▁reg": 393,
  "▁ab": 394,
  "▁im": 395,
  "ction": 396,
  "igh": 397,
  "per": 398,
  "▁int": 399,
  "▁pers": 400,
  "▁rece": 401,
  "et": 402,
  "ip": 403,
  "ave": 404,
  "ting": 405,
  "▁ent": 406,
  "▁mor": 407,
  "annot": 408,
  "▁cannot": 409,
  "▁walk": 410,
  "elt": 411,
  "▁mer": 412,
  "▁away": 413,
  "catherine": 414,
  "ough": 415,
  "▁sure": 416,
  "sp": 417,
  "ary": 418,
  "▁many": 419,
  "▁parti": 420,
  "▁expect": 421,
  "▁letter": 422,
  "ced": 423,
  "ning": 424,
  "▁inc": 425,
  "▁gard": 426,
  "ens": 427,
  "▁di": 428,
  "ight": 429,
  "ined": 430,
  "▁unc": 431,
  "▁inde": 432,
  "▁talk": 433,
  "ated": 434,
  "ither": 435,
  "ssible": 436,
  "▁bingley": 437,
  "gn": 438,
  "▁pe": 439,
  "ered": 440,
  "▁rem": 441,
  "ended": 442,
  "▁mean": 443,
  "od": 444,
  "▁sc": 445,
  "▁felt": 446,
  "erv": 447,
  "▁love": 448,
  "▁pres": 449,
  "▁appear": 450,
  "sf": 451,
  "ide": 452,
  "▁ag": 453,
  "▁acqu": 454,
  "▁speak": 455,
  "cc": 456,
  "▁sm": 457,
  "ssed": 458,
  "vour": 459,
  "▁sub": 460,
  "▁way": 461,
  "light": 462,
  "▁gent": 463,
  "▁occ": 464,
  "▁saw": 465,
  "▁kind": 466,
  "▁better": 467,
  "▁enough": 468,
  "▁manner": 469,
  "ied": 470,
  "ies": 471,
  "lem": 472,
  "unt": 473,
  "ften": 474,
  "▁inst": 475,
  "cer": 476,
  "ore": 477,
  "iner": 478,
  "▁inf": 479,
  "▁read": 480,
  "ged": 481,
  "▁oh": 482,
  "ards": 483,
  "cess": 484,
  "▁inter": 485,
  "▁acquain": 486,
  "▁attention": 487,
  "emp": 488,
  "▁mat": 489,
  "ility": 490,
  "▁cont": 491,
  "▁done": 492,
  "mber": 493,
  "▁col": 494,
  "▁eng": 495,
  "▁vis": 496,
  "ately": 497,
  "ought": 498,
  "▁come": 499,
  "▁indeed": 500,
  "int": 501,
  "tte": 502,
  "ener": 503,
  "ations": 504,
  "▁often": 505,
  "▁really": 506,
  "▁express": 507,
  "▁pleasure": 508,
  "ef": 509,
  "▁he": 510,
  "▁giv": 511,
  "▁luc": 512,
  "▁sur": 513,
  "▁quite": 514,
  "▁visit": 515,
  "pt": 516,
  "ace": 517,
  "ived": 518,
  "▁sin": 519,
  "▁till": 520,
  "▁want": 521,
  "▁consid": 522,
  "▁subject": 523,
  "▁gardiner": 524,
  "ened": 525,
  "▁bro": 526,
  "▁mom": 527,
  "▁und": 528,
  "▁call": 529,
  "▁perf": 530,
  "▁moment": 531,
  "▁gentlem": 532,
  "ct": 533,
  "ole": 534,
  "▁ra": 535,
  "fort": 536,
  "ions": 537,
  "ular": 538,
  "▁adm": 539,
  "lotte": 540,
  "▁aunt": 541,
  "▁came": 542,
  "▁dist": 543,
  "▁less": 544,
  "▁happy": 545,
  "▁charlotte": 546,
  "irl": 547,
  "ason": 548,
  "▁girl": 549,
  "ody": 550,
  "ably": 551,
  "ount": 552,
  "▁adv": 553,
  "▁rel": 554,
  "bourn": 555,
  "▁hand": 556,
  "▁turn": 557,
  "▁longbourn": 558,
  "ely": 559,
  "ost": 560,
  "red": 561,
  "▁ri": 562,
  "body": 563,
  "ield": 564,
  "less": 565,
  "tisf": 566,
  "▁take": 567,
  "▁place": 568,
  "xt": 569,
  "▁up": 570,
  "▁wr": 571,
  "▁ret": 572,
  "▁gener": 573,
  "lic": 574,
  "vers": 575,
  "▁gra": 576,
  "▁off": 577,
  "▁part": 578,
  "▁feelings": 579,
  "ving": 580,
  "▁all": 581,
  "▁ill": 582,
  "▁yes": 583,
  "▁opin": 584,
  "▁believe": 585,
  "▁brother": 586,
  "▁affection": 587,
  "illi": 588,
  "▁dec": 589,
  "▁tru": 590,
  "▁wom": 591,
  "▁cour": 592,
  "▁surp": 593,
  "▁tell": 594,
  "▁ladies": 595,
  "▁satisf": 596,
  "ank": 597,
  "owed": 598,
  "▁inv": 599,
  "▁bennet": 600,
  "▁anything": 601,
  "▁happiness": 602,
  "▁br": 603,
  "▁far": 604,
  "▁fort": 605,
  "▁seen": 606,
  "▁surpr": 607,
  "▁whole": 608,
  "▁looked": 609,
  "▁partic": 610,
  "▁daughter": 611,
  "medi": 612,
  "▁let": 613,
  "▁yet": 614,
  "▁form": 615,
  "▁ther": 616,
  "▁word": 617,
  "▁reason": 618,
  "▁present": 619,
  "▁particular": 620,
  "ud": 621,
  "osed": 622,
  "tive": 623,
  "▁sit": 624,
  "▁disp": 625,
  "▁find": 626,
  "illiam": 627,
  "▁morning": 628,
  "mon": 629,
  "row": 630,
  "ton": 631,
  "▁af": 632,
  "ised": 633,
  "itty": 634,
  "most": 635,
  "ship": 636,
  "▁car": 637,
  "▁end": 638,
  "▁ref": 639,
  "▁som": 640,
  "▁sti": 641,
  "▁exce": 642,
  "ething": 643,
  "▁lucas": 644,
  "▁marry": 645,
  "▁immedi": 646,
  "▁evening": 647,
  "▁sisters": 648,
  "▁something": 649,
  "ft": 650,
  "alf": 651,
  "▁jo": 652,
  "▁sil": 653,
  "efore": 654,
  "field": 655,
  "▁heard": 656,
  "▁kitty": 657,
  "▁therefore": 658,
  "ack": 659,
  "ess": 660,
  "▁ca": 661,
  "▁nat": 662,
  "▁str": 663,
  "acter": 664,
  "▁next": 665,
  "gether": 666,
  "▁found": 667,
  "▁nether": 668,
  "▁opinion": 669,
  "▁character": 670,
  "▁netherfield": 671,
  "sw": 672,
  "oub": 673,
  "pect": 674,
  "▁civ": 675,
  "▁est": 676,
  "▁half": 677,
  "▁other": 678,
  "▁consider": 679,
  "▁certainly": 680,
  "tim": 681,
  "▁el": 682,
  "erst": 683,
  "▁sec": 684,
  "▁sir": 685,
  "ained": 686,
  "tance": 687,
  "▁disc": 688,
  "▁town": 689,
  "▁still": 690,
  "▁uncle": 691,
  "▁delight": 692,
  "tu": 693,
  "day": 694,
  "haps": 695,
  "swer": 696,
  "ured": 697,
  "▁pri": 698,
  "ments": 699,
  "shire": 700,
  "▁upon": 701,
  "▁coming": 702,
  "▁perhaps": 703,
  "▁acquaintance": 704,
  "air": 705,
  "ust": 706,
  "▁co": 707,
  "onel": 708,
  "▁conv": 709,
  "▁went": 710,
  "▁since": 711,
  "▁answer": 712,
  "▁return": 713,
  "▁colonel": 714,
  "▁perfect": 715,
  "▁ey": 716,
  "ently": 717,
  "▁beha": 718,
  "▁hard": 719,
  "▁occas": 720,
  "▁married": 721,
  "gi": 722,
  "ms": 723,
  "irc": 724,
  "ances": 725,
  "▁circ": 726,
  "▁hour": 727,
  "▁prev": 728,
  "▁told": 729,
  "▁world": 730,
  "▁person": 731,
  "cern": 732,
  "▁ear": 733,
  "▁hum": 734,
  "▁hur": 735,
  "▁new": 736,
  "▁high": 737,
  "▁home": 738,
  "▁began": 739,
  "▁leave": 740,
  "▁woman": 741,
  "▁favour": 742,
  "▁marriage": 743,
  "▁possible": 744,
  "▁together": 745,
  "duc": 746,
  "une": 747,
  "▁cl": 748,
  "▁id": 749,
  "aken": 750,
  "ared": 751,
  "read": 752,
  "▁foll": 753,
  "▁left": 754,
  "▁mind": 755,
  "▁almost": 756,
  "▁either": 757,
  "▁regard": 758,
  "▁mention": 759,
  "▁underst": 760,
  "▁immediately": 761,
  "vi": 762,
  "ign": 763,
  "orm": 764,
  "▁as": 765,
  "▁gone": 766,
  "▁stay": 767,
  "▁year": 768,
  "▁least": 769,
  "▁friends": 770,
  "▁received": 771,
  "new": 772,
  "cted": 773,
  "▁abs": 774,
  "▁add": 775,
  "▁mis": 776,
  "▁opp": 777,
  "▁spo": 778,
  "ingly": 779,
  "onour": 780,
  "▁doub": 781,
  "▁some": 782,
  "▁seeing": 783,
  "▁seemed": 784,
  "▁convers": 785,
  "▁respect": 786,
  "ked": 787,
  "use": 788,
  "▁do": 789,
  "ited": 790,
  "▁equ": 791,
  "aking": 792,
  "▁best": 793,
  "▁knew": 794,
  "▁given": 795,
  "▁going": 796,
  "▁known": 797,
  "▁resol": 798,
  "▁short": 799,
  "▁object": 800,
  "▁rather": 801,
  "▁towards": 802,
  "▁everything": 803,
  "ang": 804,
  "ense": 805,
  "iety": 806,
  "ward": 807,
  "▁din": 808,
  "▁hus": 809,
  "▁able": 810,
  "▁thank": 811,
  "▁honour": 812,
  "ue": 813,
  "ret": 814,
  "▁bl": 815,
  "band": 816,
  "ners": 817,
  "yton": 818,
  "▁ano": 819,
  "▁dep": 820,
  "▁ext": 821,
  "▁pur": 822,
  "▁sett": 823,
  "▁agree": 824,
  "▁hands": 825,
  "▁means": 826,
  "▁three": 827,
  "▁another": 828,
  "▁husband": 829,
  "▁meryton": 830,
  "▁occasion": 831,
  "over": 832,
  "▁whe": 833,
  "ondon": 834,
  "▁dire": 835,
  "▁life": 836,
  "fferent": 837,
  "mberley": 838,
  "▁london": 839,
  "▁whether": 840,
  "▁pemberley": 841,
  "▁conversation": 842,
  "lig": 843,
  "reh": 844,
  "▁gr": 845,
  "▁eas": 846,
  "▁get": 847,
  "▁mee": 848,
  "▁min": 849,
  "▁sat": 850,
  "▁ste": 851,
  "ssion": 852,
  "▁cous": 853,
  "▁prom": 854,
  "▁rest": 855,
  "▁side": 856,
  "▁temp": 857,
  "ctions": 858,
  "▁neigh": 859,
  "▁quest": 860,
  "▁whose": 861,
  "▁circum": 862,
  "▁others": 863,
  "▁passed": 864,
  "▁neighbour": 865,
  "ali": 866,
  "ana": 867,
  "ual": 868,
  "aged": 869,
  "ople": 870,
  "giana": 871,
  "viour": 872,
  "▁comm": 873,
  "▁conf": 874,
  "▁else": 875,
  "▁near": 876,
  "▁people": 877,
  "▁comfort": 878,
  "▁concern": 879,
  "▁general": 880,
  "▁behaviour": 881,
  "▁georgiana": 882,
  "te": 883,
  "its": 884,
  "les": 885,
  "lish": 886,
  "ower": 887,
  "▁ins": 888,
  "▁door": 889,
  "▁gave": 890,
  "▁idea": 891,
  "▁indi": 892,
  "▁carri": 893,
  "▁conne": 894,
  "▁ought": 895,
  "▁persu": 896,
  "itation": 897,
  "▁settled": 898,
  "▁circumst": 899,
  "▁daughters": 900,
  "eep": 901,
  "▁gu": 902,
  "ties": 903,
  "▁bus": 904,
  "▁fre": 905,
  "▁ser": 906,
  "▁arri": 907,
  "▁fear": 908,
  "▁inqu": 909,
  "▁pain": 910,
  "▁prob": 911,
  "▁scar": 912,
  "▁spir": 913,
  "▁took": 914,
  "▁wond": 915,
  "▁girls": 916,
  "▁minut": 917,
  "▁point": 918,
  "▁compan": 919,
  "▁course": 920,
  "▁hardly": 921,
  "▁manners": 922,
  "▁perfectly": 923,
  "omp": 924,
  "▁gl": 925,
  "iled": 926,
  "term": 927,
  "▁back": 928,
  "▁impo": 929,
  "▁grati": 930,
  "▁former": 931,
  "arm": 932,
  "ill": 933,
  "▁ask": 934,
  "▁def": 935,
  "▁lau": 936,
  "▁beau": 937,
  "▁eyes": 938,
  "▁over": 939,
  "▁doubt": 940,
  "▁heart": 941,
  "▁offic": 942,
  "▁determ": 943,
  "▁suppose": 944,
  "▁interest": 945,
  "▁gentleman": 946,
  "▁impossible": 947,
  "ew": 948,
  "ib": 949,
  "if": 950,
  "hood": 951,
  "know": 952,
  "sequ": 953,
  "▁ros": 954,
  "antly": 955,
  "ating": 956,
  "ented": 957,
  "ressed": 958,
  "▁laugh": 959,
  "▁party": 960,
  "▁right": 961,
  "▁assure": 962,
  "▁scarce": 963,
  "▁business": 964,
  "▁expected": 965,
  "▁understand": 966,
  "jo": 967,
  "eek": 968,
  "eng": 969,
  "▁ph": 970,
  "▁bre": 971,
  "▁bri": 972,
  "▁obs": 973,
  "▁tri": 974,
  "atter": 975,
  "ition": 976,
  "▁acce": 977,
  "▁sens": 978,
  "▁admir": 979,
  "▁advant": 980,
  "▁called": 981,
  "▁compli": 982,
  "▁convin": 983,
  "▁necess": 984,
  "▁rosings": 985,
  "▁ladyship": 986,
  "▁scarcely": 987,
  "act": 988,
  "ase": 989,
  "raw": 990,
  "rew": 991,
  "val": 992,
  "▁fe": 993,
  "ange": 994,
  "olle": 995,
  "ston": 996,
  "▁exc": 997,
  "▁suc": 998,
  "ished": 999,
  "owing": 1000,
  "▁head": 1001,
  "▁mist": 1002,
  "▁poss": 1003,
  "▁serv": 1004,
  "▁wife": 1005,
  "▁aston": 1006,
  "▁power": 1007,
  "▁walked": 1008,
  "▁wished": 1009,
  "▁consequ": 1010,
  "▁recolle": 1011,
  "▁civility": 1012,
  "▁surprise": 1013,
  "▁gentlemen": 1014,
  "vo": 1015,
  "ford": 1016,
  "iece": 1017,
  "raid": 1018,
  "▁anx": 1019,
  "iable": 1020,
  "spect": 1021,
  "▁decl": 1022,
  "▁live": 1023,
  "▁open": 1024,
  "▁reme": 1025,
  "▁week": 1026,
  "ountry": 1027,
  "▁pride": 1028,
  "▁spoke": 1029,
  "ination": 1030,
  "▁disapp": 1031,
  "▁matter": 1032,
  "▁proper": 1033,
  "▁country": 1034,
  "ild": 1035,
  "oud": 1036,
  "olly": 1037,
  "ster": 1038,
  "▁care": 1039,
  "▁hert": 1040,
  "▁imag": 1041,
  "▁list": 1042,
  "▁afraid": 1043,
  "▁cousin": 1044,
  "▁import": 1045,
  "▁turned": 1046,
  "▁fortune": 1047,
  "▁pleased": 1048,
  "fordshire": 1049,
  "▁carriage": 1050,
  "▁handsome": 1051,
  "▁agreeable": 1052,
  "▁everybody": 1053,
  "▁hertfordshire": 1054,
  "iew": 1055,
  "rud": 1056,
  "▁fl": 1057,
  "▁wa": 1058,
  "▁ind": 1059,
  "▁met": 1060,
  "▁ten": 1061,
  "ength": 1062,
  "▁ball": 1063,
  "▁coun": 1064,
  "▁dare": 1065,
  "▁mary": 1066,
  "▁prop": 1067,
  "ending": 1068,
  "▁conce": 1069,
  "▁offer": 1070,
  "▁amiable": 1071,
  "▁serious": 1072,
  "▁convinced": 1073,
  "im": 1074,
  "elp": 1075,
  "old": 1076,
  "ory": 1077,
  "▁aw": 1078,
  "▁la": 1079,
  "ceed": 1080,
  "▁enc": 1081,
  "ached": 1082,
  "times": 1083,
  "▁four": 1084,
  "▁help": 1085,
  "▁incl": 1086,
  "▁pass": 1087,
  "▁poor": 1088,
  "erence": 1089,
  "▁appro": 1090,
  "▁endea": 1091,
  "▁night": 1092,
  "▁table": 1093,
  "agement": 1094,
  "▁likely": 1095,
  "▁longer": 1096,
  "▁talked": 1097,
  "▁engaged": 1098,
  "▁william": 1099,
  "▁sometimes": 1100,
  "ts": 1101,
  "zw": 1102,
  "fit": 1103,
  "ause": 1104,
  "wise": 1105,
  "▁lib": 1106,
  "▁men": 1107,
  "▁smi": 1108,
  "▁draw": 1109,
  "▁situ": 1110,
  "▁among": 1111,
  "▁child": 1112,
  "▁write": 1113,
  "osition": 1114,
  "▁within": 1115,
  "▁wonder": 1116,
  "zwilliam": 1117,
  "▁entered": 1118,
  "▁forster": 1119,
  "▁minutes": 1120,
  "▁spirits": 1121,
  "▁advantage": 1122,
  "▁different": 1123,
  "▁endeavour": 1124,
  "ven": 1125,
  "▁fi": 1126,
  "ents": 1127,
  "oler": 1128,
  "▁eff": 1129,
  "▁jud": 1130,
  "▁soc": 1131,
  "fully": 1132,
  "iting": 1133,
  "▁requ": 1134,
  "▁sort": 1135,
  "▁equal": 1136,
  "knowled": 1137,
  "▁accomp": 1138,
  "▁dinner": 1139,
  "▁humour": 1140,
  "▁making": 1141,
  "▁account": 1142,
  "▁brought": 1143,
  "▁disappo": 1144,
  "▁feeling": 1145,
  "▁talking": 1146,
  "▁acknowled": 1147,
  "ck": 1148,
  "cip": 1149,
  "par": 1150,
  "rie": 1151,
  "ided": 1152,
  "oice": 1153,
  "yond": 1154,
  "▁air": 1155,
  "▁der": 1156,
  "▁eld": 1157,
  "▁sor": 1158,
  "ilips": 1159,
  "ounds": 1160,
  "▁desc": 1161,
  "▁forg": 1162,
  "▁sent": 1163,
  "action": 1164,
  "▁sense": 1165,
  "ishment": 1166,
  "▁beyond": 1167,
  "▁inform": 1168,
  "▁merely": 1169,
  "▁saying": 1170,
  "▁strong": 1171,
  "▁philips": 1172,
  "▁society": 1173,
  "▁believed": 1174,
  "▁speaking": 1175,
  "▁surprised": 1176,
  "▁appearance": 1177,
  "arn": 1178,
  "uri": 1179,
  "ager": 1180,
  "atch": 1181,
  "ffic": 1182,
  "like": 1183,
  "sand": 1184,
  "tude": 1185,
  "ying": 1186,
  "▁ang": 1187,
  "▁den": 1188,
  "▁lar": 1189,
  "▁pra": 1190,
  "anger": 1191,
  "ident": 1192,
  "usion": 1193,
  "▁disg": 1194,
  "▁fine": 1195,
  "▁five": 1196,
  "▁keep": 1197,
  "▁name": 1198,
  "▁obli": 1199,
  "▁view": 1200,
  "▁allow": 1201,
  "▁eager": 1202,
  "▁exact": 1203,
  "▁frequ": 1204,
  "▁intro": 1205,
  "▁natur": 1206,
  "▁usual": 1207,
  "jection": 1208,
  "▁length": 1209,
  "▁collins": 1210,
  "▁neither": 1211,
  "▁appeared": 1212,
  "▁officers": 1213,
  "▁thousand": 1214,
  "▁invitation": 1215,
  "▁consequence": 1216,
  "▁satisfaction": 1217,
  "ma": 1218,
  "up": 1219,
  "▁tr": 1220,
  "▁sum": 1221,
  "▁une": 1222,
  "ption": 1223,
  "redit": 1224,
  "wards": 1225,
  "▁days": 1226,
  "▁news": 1227,
  "▁after": 1228,
  "▁hurst": 1229,
  "▁impro": 1230,
  "▁sorry": 1231,
  "▁taken": 1232,
  "▁toler": 1233,
  "▁years": 1234,
  "▁exceed": 1235,
  "▁observ": 1236,
  "▁wishes": 1237,
  "▁arrival": 1238,
  "▁exactly": 1239,
  "▁receive": 1240,
  "▁situation": 1241,
  "fitzwilliam": 1242,
  "▁circumstances": 1243,
  "by": 1244,
  "so": 1245,
  "ark": 1246,
  "rib": 1247,
  "ult": 1248,
  "▁si": 1249,
  "airs": 1250,
  "cing": 1251,
  "empt": 1252,
  "erve": 1253,
  "ient": 1254,
  "rary": 1255,
  "▁bec": 1256,
  "▁dan": 1257,
  "▁sel": 1258,
  "aster": 1259,
  "ellig": 1260,
  "ortun": 1261,
  "▁book": 1262,
  "▁conc": 1263,
  "▁curi": 1264,
  "▁deal": 1265,
  "▁face": 1266,
  "▁glad": 1267,
  "▁hast": 1268,
  "▁just": 1269,
  "▁meet": 1270,
  "▁charm": 1271,
  "▁dance": 1272,
  "▁niece": 1273,
  "▁sever": 1274,
  "▁words": 1275,
  "▁credit": 1276,
  "▁depend": 1277,
  "▁encour": 1278,
  "▁joined": 1279,
  "▁forward": 1280,
  "▁servant": 1281,
  "▁silence": 1282,
  "▁younger": 1283,
  "▁kindness": 1284,
  "▁opportun": 1285,
  "▁sensible": 1286,
  "▁afterwards": 1287,
  "▁determined": 1288,
  "▁astonishment": 1289,
  "dd": 1290,
  "ior": 1291,
  "ney": 1292,
  "omm": 1293,
  "ors": 1294,
  "xed": 1295,
  "enti": 1296,
  "oney": 1297,
  "▁val": 1298,
  "ality": 1299,
  "ected": 1300,
  "▁also": 1301,
  "▁bear": 1302,
  "▁lost": 1303,
  "▁play": 1304,
  "▁real": 1305,
  "▁self": 1306,
  "▁begin": 1307,
  "▁money": 1308,
  "▁assist": 1309,
  "▁recomm": 1310,
  "▁slight": 1311,
  "▁things": 1312,
  "▁intellig": 1313,
  "▁instantly": 1314,
  "▁mentioned": 1315,
  "▁necessary": 1316,
  "▁satisfied": 1317,
  "▁opportunity": 1318,
  "▁particularly": 1319,
  "▁neighbourhood": 1320,
  "che": 1321,
  "ere": 1322,
  "ief": 1323,
  "mes": 1324,
  "ows": 1325,
  "▁bo": 1326,
  "▁ve": 1327,
  "alth": 1328,
  "ancy": 1329,
  "ures": 1330,
  "▁cap": 1331,
  "▁emp": 1332,
  "▁mon": 1333,
  "▁put": 1334,
  "▁ter": 1335,
  "▁use": 1336,
  "ready": 1337,
  "▁noti": 1338,
  "▁alone": 1339,
  "▁assur": 1340,
  "▁bring": 1341,
  "▁desir": 1342,
  "▁intim": 1343,
  "▁meant": 1344,
  "▁reply": 1345,
  "tenance": 1346,
  "▁highly": 1347,
  "▁master": 1348,
  "▁remark": 1349,
  "▁second": 1350,
  "fference": 1351,
  "▁already": 1352,
  "▁remember": 1353,
  "▁resolved": 1354,
  "▁objection": 1355,
  "▁compliment": 1356,
  "▁countenance": 1357,
  "ati": 1358,
  "ial": 1359,
  "res": 1360,
  "uce": 1361,
  "aded": 1362,
  "▁cor": 1363,
  "▁hun": 1364,
  "▁unw": 1365,
  "ising": 1366,
  "iving": 1367,
  "ourgh": 1368,
  "utely": 1369,
  "ution": 1370,
  "▁case": 1371,
  "▁enti": 1372,
  "▁park": 1373,
  "▁quit": 1374,
  "▁thus": 1375,
  "▁derby": 1376,
  "▁early": 1377,
  "▁learn": 1378,
  "▁month": 1379,
  "▁refle": 1380,
  "▁stand": 1381,
  "▁thing": 1382,
  "▁accept": 1383,
  "▁attach": 1384,
  "▁bourgh": 1385,
  "▁bright": 1386,
  "▁direct": 1387,
  "▁suffer": 1388,
  "▁wholly": 1389,
  "▁absence": 1390,
  "▁allowed": 1391,
  "▁anxious": 1392,
  "▁anybody": 1393,
  "▁compreh": 1394,
  "▁knowing": 1395,
  "▁obliged": 1396,
  "▁success": 1397,
  "▁expressed": 1398,
  "▁acquainted": 1399,
  "▁derbyshire": 1400,
  "▁importance": 1401,
  "▁disposition": 1402,
  "▁exceedingly": 1403,
  "gr": 1404,
  "ph": 1405,
  "ze": 1406,
  "ull": 1407,
  "▁we": 1408,
  "fast": 1409,
  "fess": 1410,
  "gnor": 1411,
  "phew": 1412,
  "▁gre": 1413,
  "▁set": 1414,
  "▁wed": 1415,
  "ailed": 1416,
  "ative": 1417,
  "ually": 1418,
  "▁choo": 1419,
  "▁expl": 1420,
  "▁fair": 1421,
  "▁remo": 1422,
  "▁sche": 1423,
  "▁sing": 1424,
  "atever": 1425,
  "▁break": 1426,
  "▁hours": 1427,
  "▁ignor": 1428,
  "▁large": 1429,
  "▁occur": 1430,
  "▁perce": 1431,
  "▁smile": 1432,
  "▁trust": 1433,
  "▁beauty": 1434,
  "▁easily": 1435,
  "▁giving": 1436,
  "▁health": 1437,
  "▁nephew": 1438,
  "▁resent": 1439,
  "▁assured": 1440,
  "▁looking": 1441,
  "▁intended": 1442,
  "▁marrying": 1443,
  "▁question": 1444,
  "▁supposed": 1445,
  "▁whatever": 1446,
  "wh": 1447,
  "ead": 1448,
  "own": 1449,
  "ren": 1450,
  "son": 1451,
  "tty": 1452,
  "ves": 1453,
  "atul": 1454,
  "gree": 1455,
  "void": 1456,
  "▁dro": 1457,
  "▁ele": 1458,
  "▁got": 1459,
  "▁van": 1460,
  "▁var": 1461,
  "▁wel": 1462,
  "ardon": 1463,
  "duced": 1464,
  "eness": 1465,
  "ering": 1466,
  "iment": 1467,
  "▁dece": 1468,
  "▁lett": 1469,
  "▁pray": 1470,
  "▁purp": 1471,
  "▁sake": 1472,
  "▁amuse": 1473,
  "▁chief": 1474,
  "▁extra": 1475,
  "▁forge": 1476,
  "▁match": 1477,
  "▁proud": 1478,
  "▁seems": 1479,
  "▁spent": 1480,
  "▁super": 1481,
  "▁anyone": 1482,
  "▁curios": 1483,
  "▁degree": 1484,
  "▁design": 1485,
  "▁effect": 1486,
  "▁nature": 1487,
  "▁pounds": 1488,
  "▁pretty": 1489,
  "▁silent": 1490,
  "▁sincer": 1491,
  "▁temper": 1492,
  "▁wanted": 1493,
  "▁company": 1494,
  "▁conceal": 1495,
  "▁drawing": 1496,
  "▁imagine": 1497,
  "▁instead": 1498,
  "▁probably": 1499,
  "▁regiment": 1500,
  "▁gratitude": 1501,
  "▁persuaded": 1502,
  "▁admiration": 1503,
  "▁attentions": 1504,
  "▁information": 1505,
  "loy": 1506,
  "luc": 1507,
  "adam": 1508,
  "dden": 1509,
  "fied": 1510,
  "gest": 1511,
  "race": 1512,
  "rely": 1513,
  "rote": 1514,
  "used": 1515,
  "▁beh": 1516,
  "▁cle": 1517,
  "▁fin": 1518,
  "▁law": 1519,
  "▁ord": 1520,
  "▁son": 1521,
  "▁tea": 1522,
  "atest": 1523,
  "ially": 1524,
  "osure": 1525,
  "unate": 1526,
  "▁easy": 1527,
  "▁enjo": 1528,
  "▁evil": 1529,
  "▁grie": 1530,
  "▁need": 1531,
  "▁poli": 1532,
  "▁pref": 1533,
  "▁quar": 1534,
  "▁wind": 1535,
  "lished": 1536,
  "rehens": 1537,
  "▁const": 1538,
  "▁creat": 1539,
  "▁dread": 1540,
  "▁event": 1541,
  "▁guard": 1542,
  "▁liked": 1543,
  "▁madam": 1544,
  "▁small": 1545,
  "▁terms": 1546,
  "▁truth": 1547,
  "▁voice": 1548,
  "▁worth": 1549,
  "▁wrote": 1550,
  "tention": 1551,
  "▁admire": 1552,
  "▁compar": 1553,
  "▁conduc": 1554,
  "▁desire": 1555,
  "▁eldest": 1556,
  "▁employ": 1557,
  "▁praise": 1558,
  "▁remain": 1559,
  "▁sudden": 1560,
  "▁address": 1561,
  "▁hearing": 1562,
  "▁natural": 1563,
  "▁walking": 1564,
  "▁attended": 1565,
  "▁brighton": 1566,
  "▁children": 1567,
  "▁mistaken": 1568,
  "▁pleasant": 1569,
  "▁breakfast": 1570,
  "▁curiosity": 1571,
  "iri": 1572,
  "ple": 1573,
  "ron": 1574,
  "ses": 1575,
  "ute": 1576,
  "alse": 1577,
  "educ": 1578,
  "long": 1579,
  "nest": 1580,
  "▁ago": 1581,
  "▁che": 1582,
  "▁emb": 1583,
  "▁lam": 1584,
  "eeper": 1585,
  "iling": 1586,
  "inary": 1587,
  "incip": 1588,
  "inter": 1589,
  "iries": 1590,
  "▁cold": 1591,
  "▁deli": 1592,
  "▁desp": 1593,
  "▁join": 1594,
  "▁jour": 1595,
  "▁repe": 1596,
  "▁susp": 1597,
  "▁true": 1598,
  "▁warm": 1599,
  "▁writ": 1600,
  "gratul": 1601,
  "▁absol": 1602,
  "▁avoid": 1603,
  "▁false": 1604,
  "▁incre": 1605,
  "▁plain": 1606,
  "▁state": 1607,
  "▁common": 1608,
  "▁possib": 1609,
  "▁earnest": 1610,
  "▁greater": 1611,
  "▁journey": 1612,
  "▁proceed": 1613,
  "▁purpose": 1614,
  "▁charming": 1615,
  "▁directly": 1616,
  "▁discover": 1617,
  "▁distress": 1618,
  "▁entirely": 1619,
  "▁greatest": 1620,
  "▁promised": 1621,
  "▁relation": 1622,
  "▁thoughts": 1623,
  "▁congratul": 1624,
  "▁following": 1625,
  "▁inquiries": 1626,
  "▁relations": 1627,
  "▁attachment": 1628,
  "▁comprehend": 1629,
  "▁inclination": 1630,
  "gy": 1631,
  "ia": 1632,
  "lu": 1633,
  "ken": 1634,
  "lay": 1635,
  "▁au": 1636,
  "▁pu": 1637,
  "ages": 1638,
  "akes": 1639,
  "ides": 1640,
  "rown": 1641,
  "test": 1642,
  "▁ben": 1643,
  "▁cla": 1644,
  "▁neg": 1645,
  "▁run": 1646,
  "inted": 1647,
  "night": 1648,
  "osing": 1649,
  "▁paid": 1650,
  "▁stru": 1651,
  "▁used": 1652,
  "licity": 1653,
  "▁civil": 1654,
  "▁light": 1655,
  "▁maria": 1656,
  "▁miser": 1657,
  "▁sight": 1658,
  "▁spite": 1659,
  "▁treat": 1660,
  "▁watch": 1661,
  "ability": 1662,
  "▁change": 1663,
  "▁comple": 1664,
  "▁forced": 1665,
  "▁forget": 1666,
  "▁housek": 1667,
  "▁imprud": 1668,
  "▁instru": 1669,
  "▁latter": 1670,
  "▁regret": 1671,
  "▁vanity": 1672,
  "▁conduct": 1673,
  "▁flatter": 1674,
  "▁library": 1675,
  "▁meeting": 1676,
  "▁princip": 1677,
  "▁reached": 1678,
  "▁sitting": 1679,
  "▁followed": 1680,
  "▁happened": 1681,
  "▁pleasing": 1682,
  "▁thinking": 1683,
  "▁favourite": 1684,
  "▁intention": 1685,
  "▁prevented": 1686,
  "▁considered": 1687,
  "▁engagement": 1688,
  "▁frequently": 1689,
  "▁intelligence": 1690,
  "gu": 1691,
  "als": 1692,
  "cap": 1693,
  "eas": 1694,
  "ict": 1695,
  "▁ap": 1696,
  "▁du": 1697,
  "▁sw": 1698,
  "▁vi": 1699,
  "amed": 1700,
  "arra": 1701,
  "ched": 1702,
  "come": 1703,
  "ding": 1704,
  "king": 1705,
  "spec": 1706,
  "unic": 1707,
  "▁ama": 1708,
  "▁lea": 1709,
  "▁unp": 1710,
  "cious": 1711,
  "erved": 1712,
  "itted": 1713,
  "ously": 1714,
  "sford": 1715,
  "▁eleg": 1716,
  "▁exam": 1717,
  "▁exer": 1718,
  "▁full": 1719,
  "▁rejo": 1720,
  "▁seem": 1721,
  "▁when": 1722,
  "sonage": 1723,
  "▁cause": 1724,
  "▁compl": 1725,
  "▁enjoy": 1726,
  "▁fancy": 1727,
  "▁fixed": 1728,
  "▁hoped": 1729,
  "▁ready": 1730,
  "▁relie": 1731,
  "▁separ": 1732,
  "▁times": 1733,
  "▁uncom": 1734,
  "▁colour": 1735,
  "▁estate": 1736,
  "▁living": 1737,
  "▁morrow": 1738,
  "▁opened": 1739,
  "▁pardon": 1740,
  "▁unless": 1741,
  "▁dancing": 1742,
  "▁readily": 1743,
  "▁several": 1744,
  "▁written": 1745,
  "▁affected": 1746,
  "▁communic": 1747,
  "▁hunsford": 1748,
  "▁prospect": 1749,
  "▁whenever": 1750,
  "▁parsonage": 1751,
  "▁receiving": 1752,
  "▁disappoint": 1753,
  "▁expectation": 1754,
  "▁particulars": 1755,
  "▁acknowledged": 1756,
  "ky": 1757,
  "ber": 1758,
  "ept": 1759,
  "mer": 1760,
  "ling": 1761,
  "orth": 1762,
  "reme": 1763,
  "▁clo": 1764,
  "▁hea": 1765,
  "▁pay": 1766,
  "▁unh": 1767,
  "gment": 1768,
  "ledge": 1769,
  "lling": 1770,
  "ormed": 1771,
  "ouble": 1772,
  "rance": 1773,
  "tiful": 1774,
  "▁cond": 1775,
  "▁late": 1776,
  "▁plan": 1777,
  "▁prep": 1778,
  "▁pret": 1779,
  "▁scen": 1780,
  "▁step": 1781,
  "▁vain": 1782,
  "▁viol": 1783,
  "▁wait": 1784,
  "▁work": 1785,
  "idence": 1786,
  "ission": 1787,
  "teness": 1788,
  "▁alarm": 1789,
  "▁alter": 1790,
  "▁angry": 1791,
  "▁cheer": 1792,
  "▁compa": 1793,
  "▁concl": 1794,
  "▁espec": 1795,
  "▁estee": 1796,
  "▁senti": 1797,
  "▁stead": 1798,
  "fulness": 1799,
  "▁affair": 1800,
  "▁afford": 1801,
  "▁chance": 1802,
  "▁danger": 1803,
  "▁impati": 1804,
  "▁notice": 1805,
  "▁report": 1806,
  "▁attempt": 1807,
  "▁confess": 1808,
  "▁dislike": 1809,
  "▁extreme": 1810,
  "▁leaving": 1811,
  "▁letters": 1812,
  "▁possess": 1813,
  "▁recover": 1814,
  "▁removed": 1815,
  "▁approach": 1816,
  "▁declared": 1817,
  "▁felicity": 1818,
  "▁likewise": 1819,
  "▁listened": 1820,
  "▁remained": 1821,
  "▁addressed": 1822,
  "▁concerned": 1823,
  "▁delighted": 1824,
  "▁entertain": 1825,
  "▁fortnight": 1826,
  "▁knowledge": 1827,
  "▁questions": 1828,
  "▁absolutely": 1829,
  "▁connection": 1830,
  "▁especially": 1831,
  "▁expression": 1832,
  "▁resolution": 1833,
  "▁housekeeper": 1834,
  "▁circumstance": 1835,
  "▁indifference": 1836,
  "oc": 1837,
  "art": 1838,
  "ope": 1839,
  "tic": 1840,
  "ump": 1841,
  "zed": 1842,
  "duce": 1843,
  "enew": 1844,
  "lied": 1845,
  "mony": 1846,
  "omin": 1847,
  "ross": 1848,
  "uded": 1849,
  "▁ash": 1850,
  "▁eye": 1851,
  "▁fut": 1852,
  "▁hor": 1853,
  "▁try": 1854,
  "▁unf": 1855,
  "licit": 1856,
  "using": 1857,
  "▁drew": 1858,
  "▁hint": 1859,
  "▁kept": 1860,
  "▁loss": 1861,
  "▁none": 1862,
  "▁purs": 1863,
  "▁quie": 1864,
  "▁send": 1865,
  "iction": 1866,
  "▁accep": 1867,
  "▁blame": 1868,
  "▁chose": 1869,
  "▁comes": 1870,
  "▁estab": 1871,
  "▁hopes": 1872,
  "▁influ": 1873,
  "▁mater": 1874,
  "▁oblig": 1875,
  "▁pause": 1876,
  "▁renew": 1877,
  "▁round": 1878,
  "▁weeks": 1879,
  "▁women": 1880,
  "▁advice": 1881,
  "▁choose": 1882,
  "▁contin": 1883,
  "▁dining": 1884,
  "▁engage": 1885,
  "▁excell": 1886,
  "▁except": 1887,
  "▁formed": 1888,
  "▁future": 1889,
  "▁listen": 1890,
  "▁months": 1891,
  "▁proved": 1892,
  "▁scheme": 1893,
  "▁summer": 1894,
  "▁taking": 1895,
  "▁thanks": 1896,
  "▁unhapp": 1897,
  "▁unwill": 1898,
  "▁winter": 1899,
  "▁describ": 1900,
  "▁embarra": 1901,
  "▁equally": 1902,
  "▁evident": 1903,
  "▁increas": 1904,
  "▁interru": 1905,
  "▁ignorant": 1906,
  "▁persuade": 1907,
  "▁suddenly": 1908,
  "▁superior": 1909,
  "▁visitors": 1910,
  "▁apprehens": 1911,
  "▁composure": 1912,
  "▁generally": 1913,
  "▁otherwise": 1914,
  "▁recommend": 1915,
  "▁compassion": 1916,
  "▁politeness": 1917,
  "▁resentment": 1918,
  "▁connections": 1919,
  "▁indifferent": 1920,
  "▁understanding": 1921,
  "acy": 1922,
  "ath": 1923,
  "dge": 1924,
  "emb": 1925,
  "man": 1926,
  "olo": 1927,
  "ons": 1928,
  "orn": 1929,
  "▁es": 1930,
  "▁ir": 1931,
  "▁sy": 1932,
  "ency": 1933,
  "enty": 1934,
  "ergy": 1935,
  "ired": 1936,
  "ison": 1937,
  "lest": 1938,
  "pped": 1939,
  "sday": 1940,
  "urch": 1941,
  "uted": 1942,
  "▁cal": 1943,
  "▁det": 1944,
  "▁foo": 1945,
  "▁inj": 1946,
  "▁mus": 1947,
  "▁old": 1948,
  "▁pun": 1949,
  "▁tra": 1950,
  "▁vex": 1951,
  "agree": 1952,
  "arest": 1953,
  "cting": 1954,
  "ively": 1955,
  "urday": 1956,
  "▁actu": 1957,
  "▁dine": 1958,
  "▁educ": 1959,
  "▁fond": 1960,
  "▁forb": 1961,
  "▁says": 1962,
  "▁tone": 1963,
  "▁valu": 1964,
  "dition": 1965,
  "stairs": 1966,
  "▁apolo": 1967,
  "▁hurry": 1968,
  "▁liber": 1969,
  "▁morti": 1970,
  "▁quick": 1971,
  "▁repro": 1972,
  "▁scene": 1973,
  "fortune": 1974,
  "ilities": 1975,
  "▁assemb": 1976,
  "▁belief": 1977,
  "▁consol": 1978,
  "▁diffic": 1979,
  "▁excess": 1980,
  "▁inquir": 1981,
  "▁repres": 1982,
  "▁smiled": 1983,
  "▁spoken": 1984,
  "▁twenty": 1985,
  "▁ashamed": 1986,
  "▁capable": 1987,
  "▁greatly": 1988,
  "▁lucases": 1989,
  "▁painful": 1990,
  "▁partner": 1991,
  "▁perform": 1992,
  "▁prevent": 1993,
  "▁quarter": 1994,
  "▁request": 1995,
  "▁succeed": 1996,
  "▁trouble": 1997,
  "▁disagree": 1998,
  "▁disgrace": 1999,
  "▁distance": 2000,
  "▁saturday": 2001,
  "▁companion": 2002,
  "▁extremely": 2003,
  "▁fortunate": 2004,
  "▁prevailed": 2005,
  "▁tolerable": 2006,
  "▁tolerably": 2007,
  "▁conviction": 2008,
  "▁delightful": 2009,
  "▁misfortune": 2010,
  "▁reasonable": 2011,
  "▁understood": 2012,
  "▁affectionate": 2013,
  "▁disappointment": 2014,
  "tc": 2015,
  "ash": 2016,
  "ech": 2017,
  "eet": 2018,
  "esc": 2019,
  "iod": 2020,
  "uli": 2021,
  "ush": 2022,
  "vel": 2023,
  "▁pi": 2024,
  "ates": 2025,
  "thor": 2026,
  "▁bes": 2027,
  "▁etc": 2028,
  "▁ide": 2029,
  "▁led": 2030,
  "▁mod": 2031,
  "▁pat": 2032,
  "▁ple": 2033,
  "▁rid": 2034,
  "▁sun": 2035,
  "arily": 2036,
  "ience": 2037,
  "isper": 2038,
  "isure": 2039,
  "tting": 2040,
  "▁ease": 2041,
  "▁furn": 2042,
  "▁hill": 2043,
  "▁lead": 2044,
  "▁lord": 2045,
  "▁pict": 2046,
  "▁prov": 2047,
  "▁road": 2048,
  "▁stri": 2049,
  "▁suit": 2050,
  "▁thir": 2051,
  "▁wood": 2052,
  "bation": 2053,
  "▁books": 2054,
  "▁close": 2055,
  "▁escap": 2056,
  "▁ideas": 2057,
  "▁lived": 2058,
  "▁looks": 2059,
  "▁miles": 2060,
  "▁negle": 2061,
  "▁quiet": 2062,
  "▁stood": 2063,
  "▁tempt": 2064,
  "▁uneas": 2065,
  "▁unluc": 2066,
  "▁accord": 2067,
  "▁asking": 2068,
  "▁author": 2069,
  "▁behind": 2070,
  "▁excuse": 2071,
  "▁ground": 2072,
  "▁justif": 2073,
  "▁period": 2074,
  "▁propos": 2075,
  "▁seated": 2076,
  "▁somewh": 2077,
  "▁speech": 2078,
  "ordinary": 2079,
  "▁anxiety": 2080,
  "▁calling": 2081,
  "▁condesc": 2082,
  "▁decided": 2083,
  "▁leisure": 2084,
  "▁promise": 2085,
  "▁related": 2086,
  "▁turning": 2087,
  "▁wedding": 2088,
  "▁whisper": 2089,
  "▁wishing": 2090,
  "▁intimate": 2091,
  "▁occurred": 2092,
  "▁standing": 2093,
  "▁youngest": 2094,
  "▁amusement": 2095,
  "▁assurance": 2096,
  "▁beautiful": 2097,
  "▁beginning": 2098,
  "▁gratified": 2099,
  "▁influence": 2100,
  "▁seriously": 2101,
  "▁supposing": 2102,
  "▁assistance": 2103,
  "▁distressed": 2104,
  "▁expressions": 2105,
  "▁observation": 2106,
  "▁accomplished": 2107,
  "▁consideration": 2108,
  "▁extraordinary": 2109,
  "ny": 2110,
  "een": 2111,
  "fic": 2112,
  "ott": 2113,
  "aint": 2114,
  "outh": 2115,
  "thes": 2116,
  "▁arr": 2117,
  "▁bad": 2118,
  "▁bit": 2119,
  "▁cau": 2120,
  "▁deb": 2121,
  "▁pub": 2122,
  "▁ran": 2123,
  "▁rev": 2124,
  "▁tre": 2125,
  "▁una": 2126,
  "▁vol": 2127,
  "▁wit": 2128,
  "ender": 2129,
  "erday": 2130,
  "ertin": 2131,
  "otten": 2132,
  "▁chec": 2133,
  "▁fact": 2134,
  "▁fall": 2135,
  "▁fell": 2136,
  "▁gall": 2137,
  "▁insu": 2138,
  "▁kent": 2139,
  "▁mine": 2140,
  "▁rank": 2141,
  "▁yest": 2142,
  "entive": 2143,
  "▁aware": 2144,
  "▁clear": 2145,
  "▁denny": 2146,
  "▁dress": 2147,
  "▁drove": 2148,
  "▁folly": 2149,
  "▁indul": 2150,
  "▁music": 2151,
  "▁provo": 2152,
  "▁tried": 2153,
  "▁utter": 2154,
  "▁views": 2155,
  "▁wrong": 2156,
  "▁abomin": 2157,
  "▁applic": 2158,
  "▁became": 2159,
  "▁dances": 2160,
  "▁happen": 2161,
  "▁heaven": 2162,
  "▁motive": 2163,
  "▁parted": 2164,
  "▁ration": 2165,
  "▁rejoic": 2166,
  "▁rememb": 2167,
  "▁single": 2168,
  "▁sooner": 2169,
  "▁struck": 2170,
  "▁suspic": 2171,
  "▁unable": 2172,
  "▁arrived": 2173,
  "▁besides": 2174,
  "▁consent": 2175,
  "▁dearest": 2176,
  "▁entreat": 2177,
  "▁farther": 2178,
  "▁justice": 2179,
  "▁natured": 2180,
  "▁parties": 2181,
  "▁shortly": 2182,
  "▁suspect": 2183,
  "▁bringing": 2184,
  "▁creature": 2185,
  "▁deceived": 2186,
  "▁disposed": 2187,
  "▁dreadful": 2188,
  "▁finished": 2189,
  "▁impertin": 2190,
  "▁informed": 2191,
  "▁judgment": 2192,
  "▁laughing": 2193,
  "▁probable": 2194,
  "▁servants": 2195,
  "▁stranger": 2196,
  "▁upstairs": 2197,
  "▁attentive": 2198,
  "▁connected": 2199,
  "▁excellent": 2200,
  "▁forgotten": 2201,
  "▁observing": 2202,
  "▁unwilling": 2203,
  "▁yesterday": 2204,
  "▁comparison": 2205,
  "▁neighbours": 2206,
  "▁application": 2207,
  "▁engagements": 2208,
  "▁interesting": 2209,
  "▁apprehension": 2210,
  "▁disagreeable": 2211,
  "▁disappointed": 2212,
  "▁occasionally": 2213,
  "ig": 2214,
  "of": 2215,
  "err": 2216,
  "ude": 2217,
  "udi": 2218,
  "ues": 2219,
  "umb": 2220,
  "▁bu": 2221,
  "▁dw": 2222,
  "amma": 2223,
  "bton": 2224,
  "ging": 2225,
  "iest": 2226,
  "lour": 2227,
  "reed": 2228,
  "reet": 2229,
  "ring": 2230,
  "tily": 2231,
  "umph": 2232,
  "▁age": 2233,
  "▁awk": 2234,
  "▁cou": 2235,
  "▁dri": 2236,
  "▁due": 2237,
  "▁err": 2238,
  "▁joy": 2239,
  "idity": 2240,
  "igned": 2241,
  "isted": 2242,
  "omest": 2243,
  "osite": 2244,
  "ourse": 2245,
  "▁argu": 2246,
  "▁diss": 2247,
  "▁duty": 2248,
  "▁lane": 2249,
  "▁more": 2250,
  "▁priv": 2251,
  "▁prud": 2252,
  "▁sour": 2253,
  "▁stud": 2254,
  "▁tast": 2255,
  "▁tear": 2256,
  "aining": 2257,
  "allest": 2258,
  "itated": 2259,
  "rossed": 2260,
  "▁aloud": 2261,
  "▁anger": 2262,
  "▁benef": 2263,
  "▁blush": 2264,
  "▁boast": 2265,
  "▁coach": 2266,
  "▁court": 2267,
  "▁dared": 2268,
  "▁enter": 2269,
  "▁grate": 2270,
  "▁grave": 2271,
  "▁judge": 2272,
  "▁loved": 2273,
  "▁mamma": 2274,
  "▁noble": 2275,
  "▁profe": 2276,
  "▁pursu": 2277,
  "▁silly": 2278,
  "▁trave": 2279,
  "▁agreed": 2280,
  "▁explan": 2281,
  "▁famili": 2282,
  "▁garden": 2283,
  "▁height": 2284,
  "▁income": 2285,
  "▁indign": 2286,
  "▁interf": 2287,
  "▁lately": 2288,
  "▁learnt": 2289,
  "▁marked": 2290,
  "▁nobody": 2291,
  "▁please": 2292,
  "▁public": 2293,
  "▁relate": 2294,
  "▁supper": 2295,
  "▁window": 2296,
  "fficient": 2297,
  "▁awkward": 2298,
  "▁clothes": 2299,
  "▁cousins": 2300,
  "▁eagerly": 2301,
  "▁elegant": 2302,
  "▁finding": 2303,
  "▁grieved": 2304,
  "▁improve": 2305,
  "▁lambton": 2306,
  "▁meaning": 2307,
  "▁moments": 2308,
  "▁opening": 2309,
  "▁parlour": 2310,
  "▁passing": 2311,
  "▁protest": 2312,
  "▁reading": 2313,
  "▁triumph": 2314,
  "▁visitor": 2315,
  "▁accepted": 2316,
  "▁accident": 2317,
  "▁accompan": 2318,
  "▁actually": 2319,
  "▁constant": 2320,
  "▁contempt": 2321,
  "▁displeas": 2322,
  "▁entrance": 2323,
  "▁frequent": 2324,
  "▁heartily": 2325,
  "▁introduc": 2326,
  "▁moreover": 2327,
  "▁opposite": 2328,
  "▁produced": 2329,
  "▁believing": 2330,
  "▁desirable": 2331,
  "▁education": 2332,
  "▁immediate": 2333,
  "▁returning": 2334,
  "▁favourable": 2335,
  "▁partiality": 2336,
  "▁preference": 2337,
  "▁possibility": 2338,
  "▁recollection": 2339,
  "▁relationship": 2340,
  "▁encouragement": 2341,
  "to": 2342,
  "ail": 2343,
  "kes": 2344,
  "ool": 2345,
  "ule": 2346,
  "und": 2347,
  "▁ga": 2348,
  "▁ru": 2349,
  "▁ut": 2350,
  "aced": 2351,
  "ames": 2352,
  "cacy": 2353,
  "ines": 2354,
  "ises": 2355,
  "land": 2356,
  "ldom": 2357,
  "ried": 2358,
  "ront": 2359,
  "ruel": 2360,
  "usal": 2361,
  "▁ann": 2362,
  "▁hab": 2363,
  "▁low": 2364,
  "▁med": 2365,
  "▁nay": 2366,
  "▁pec": 2367,
  "▁sho": 2368,
  "▁six": 2369,
  "▁tot": 2370,
  "anged": 2371,
  "fying": 2372,
  "ignif": 2373,
  "inson": 2374,
  "lying": 2375,
  "onoun": 2376,
  "tions": 2377,
  "uliar": 2378,
  "ulous": 2379,
  "xpect": 2380,
  "▁deep": 2381,
  "▁fast": 2382,
  "▁feat": 2383,
  "▁fema": 2384,
  "▁fish": 2385,
  "▁free": 2386,
  "▁hall": 2387,
  "▁hold": 2388,
  "▁lose": 2389,
  "▁luck": 2390,
  "▁post": 2391,
  "▁rich": 2392,
  "▁sick": 2393,
  "▁stup": 2394,
  "▁teas": 2395,
  "▁tues": 2396,
  "▁weak": 2397,
  "▁wild": 2398,
  "leness": 2399,
  "nesday": 2400,
  "ssment": 2401,
  "zement": 2402,
  "▁cruel": 2403,
  "▁elder": 2404,
  "▁elope": 2405,
  "▁fresh": 2406,
  "▁incon": 2407,
  "▁invol": 2408,
  "▁occup": 2409,
  "▁piece": 2410,
  "▁press": 2411,
  "▁quali": 2412,
  "▁reach": 2413,
  "▁ridic": 2414,
  "▁shame": 2415,
  "▁share": 2416,
  "▁shire": 2417,
  "▁spend": 2418,
  "▁sweet": 2419,
  "▁taste": 2420,
  "▁twice": 2421,
  "▁wants": 2422,
  "▁withd": 2423,
  "▁worse": 2424,
  "imation": 2425,
  "retched": 2426,
  "xpected": 2427,
  "▁caught": 2428,
  "▁choice": 2429,
  "▁church": 2430,
  "▁danced": 2431,
  "▁depart": 2432,
  "▁feared": 2433,
  "▁incred": 2434,
  "▁lively": 2435,
  "▁misery": 2436,
  "▁nieces": 2437,
  "▁prefer": 2438,
  "▁relief": 2439,
  "▁seldom": 2440,
  "▁smiles": 2441,
  "▁source": 2442,
  "▁spirit": 2443,
  "▁steady": 2444,
  "▁street": 2445,
  "▁utmost": 2446,
  "▁admired": 2447,
  "▁amongst": 2448,
  "▁apologi": 2449,
  "▁applied": 2450,
  "▁arrange": 2451,
  "▁chiefly": 2452,
  "▁commend": 2453,
  "▁conject": 2454,
  "▁courage": 2455,
  "▁display": 2456,
  "▁gallant": 2457,
  "▁hurried": 2458,
  "▁impress": 2459,
  "▁inquire": 2460,
  "▁invited": 2461,
  "▁laughed": 2462,
  "▁neglect": 2463,
  "▁picture": 2464,
  "▁pronoun": 2465,
  "▁staying": 2466,
  "▁support": 2467,
  "▁tuesday": 2468,
  "▁unhappy": 2469,
  "▁unlucky": 2470,
  "▁waiting": 2471,
  "▁writing": 2472,
  "▁goodness": 2473,
  "▁grateful": 2474,
  "▁offended": 2475,
  "▁peculiar": 2476,
  "▁rational": 2477,
  "▁required": 2478,
  "▁smallest": 2479,
  "▁uncommon": 2480,
  "▁vexation": 2481,
  "▁amazement": 2482,
  "▁catherine": 2483,
  "▁enjoyment": 2484,
  "▁introduce": 2485,
  "▁proceeded": 2486,
  "▁sincerely": 2487,
  "▁wednesday": 2488,
  "▁imprudence": 2489,
  "▁instrument": 2490,
  "▁objections": 2491,
  "▁remarkably": 2492,
  "▁sentiments": 2493,
  "▁unexpected": 2494,
  "▁comfortable": 2495,
  "▁compliments": 2496,
  "▁endeavoured": 2497,
  "▁excessively": 2498,
  "▁recollected": 2499,
  "▁recommended": 2500,
  "▁respectable": 2501,
  "▁interference": 2502,
  "▁interruption": 2503,
  "▁embarrassment": 2504,
  "yn": 2505,
  "com": 2506,
  "ger": 2507,
  "tue": 2508,
  "yed": 2509,
  "▁ow": 2510,
  "▁sl": 2511,
  "▁ur": 2512,
  "elve": 2513,
  "ingu": 2514,
  "just": 2515,
  "lemn": 2516,
  "olds": 2517,
  "ones": 2518,
  "recy": 2519,
  "resh": 2520,
  "resp": 2521,
  "rink": 2522,
  "rist": 2523,
  "tens": 2524,
  "tyle": 2525,
  "ulty": 2526,
  "zing": 2527,
  "▁bow": 2528,
  "▁cha": 2529,
  "▁fit": 2530,
  "▁hes": 2531,
  "▁inn": 2532,
  "▁rap": 2533,
  "▁sto": 2534,
  "▁ung": 2535,
  "▁vir": 2536,
  "▁wis": 2537,
  "aging": 2538,
  "erior": 2539,
  "erves": 2540,
  "iture": 2541,
  "liest": 2542,
  "uring": 2543,
  "vered": 2544,
  "▁alar": 2545,
  "▁calm": 2546,
  "▁disd": 2547,
  "▁excl": 2548,
  "▁fash": 2549,
  "▁hate": 2550,
  "▁king": 2551,
  "▁pati": 2552,
  "▁pity": 2553,
  "▁proc": 2554,
  "▁rend": 2555,
  "▁reyn": 2556,
  "▁scru": 2557,
  "▁show": 2558,
  "▁tall": 2559,
  "▁vent": 2560,
  "eather": 2561,
  "oubted": 2562,
  "▁admit": 2563,
  "▁along": 2564,
  "▁blind": 2565,
  "▁dined": 2566,
  "▁discu": 2567,
  "▁doors": 2568,
  "▁gover": 2569,
  "▁knows": 2570,
  "▁lines": 2571,
  "▁purch": 2572,
  "▁shook": 2573,
  "▁speed": 2574,
  "▁style": 2575,
  "▁tears": 2576,
  "▁third": 2577,
  "▁uncon": 2578,
  "▁yield": 2579,
  "▁youth": 2580,
  "respond": 2581,
  "▁attrib": 2582,
  "▁belong": 2583,
  "▁bitter": 2584,
  "▁christ": 2585,
  "▁clergy": 2586,
  "▁couple": 2587,
  "▁escape": 2588,
  "▁esteem": 2589,
  "▁fellow": 2590,
  "▁female": 2591,
  "▁follow": 2592,
  "▁gained": 2593,
  "▁humble": 2594,
  "▁induce": 2595,
  "▁insist": 2596,
  "▁longed": 2597,
  "▁remind": 2598,
  "▁secret": 2599,
  "▁secure": 2600,
  "▁solemn": 2601,
  "▁stayed": 2602,
  "▁sunday": 2603,
  "▁tender": 2604,
  "▁thrown": 2605,
  "▁twelve": 2606,
  "▁unfort": 2607,
  "▁unknow": 2608,
  "▁virtue": 2609,
  "▁volunt": 2610,
  "lishment": 2611,
  "▁deserve": 2612,
  "▁disgust": 2613,
  "▁forgive": 2614,
  "▁guarded": 2615,
  "▁hastily": 2616,
  "▁inquiry": 2617,
  "▁matters": 2618,
  "▁observe": 2619,
  "▁officer": 2620,
  "▁partial": 2621,
  "▁running": 2622,
  "▁secrecy": 2623,
  "▁service": 2624,
  "▁sincere": 2625,
  "▁smiling": 2626,
  "▁solicit": 2627,
  "▁totally": 2628,
  "▁various": 2629,
  "▁violent": 2630,
  "▁welcome": 2631,
  "▁admitted": 2632,
  "▁attached": 2633,
  "▁contrary": 2634,
  "▁delicacy": 2635,
  "▁directed": 2636,
  "▁distingu": 2637,
  "▁dressing": 2638,
  "▁employed": 2639,
  "▁exertion": 2640,
  "▁features": 2641,
  "▁generous": 2642,
  "▁happiest": 2643,
  "▁inferior": 2644,
  "▁material": 2645,
  "▁mistress": 2646,
  "▁opinions": 2647,
  "▁perceive": 2648,
  "▁prepared": 2649,
  "▁properly": 2650,
  "▁quitting": 2651,
  "▁reynolds": 2652,
  "▁sentence": 2653,
  "▁somewhat": 2654,
  "▁subjects": 2655,
  "▁valuable": 2656,
  "▁wretched": 2657,
  "▁confusion": 2658,
  "▁determine": 2659,
  "▁difficult": 2660,
  "▁elopement": 2661,
  "▁furniture": 2662,
  "▁gallantry": 2663,
  "▁important": 2664,
  "▁imprudent": 2665,
  "▁naturally": 2666,
  "▁necessity": 2667,
  "▁occasions": 2668,
  "▁perceived": 2669,
  "▁principal": 2670,
  "▁undoubted": 2671,
  "▁astonished": 2672,
  "▁conclusion": 2673,
  "▁correspond": 2674,
  "▁difference": 2675,
  "▁friendship": 2676,
  "▁impatience": 2677,
  "▁introduced": 2678,
  "▁reflection": 2679,
  "▁remembered": 2680,
  "▁uncommonly": 2681,
  "▁approaching": 2682,
  "▁considering": 2683,
  "▁congratulations": 2684,
  "amp": 2685,
  "ass": 2686,
  "enk": 2687,
  "ian": 2688,
  "ilt": 2689,
  "inc": 2690,
  "lir": 2691,
  "ode": 2692,
  "oph": 2693,
  "ote": 2694,
  "oul": 2695,
  "ric": 2696,
  "▁ec": 2697,
  "▁fr": 2698,
  "▁ma": 2699,
  "char": 2700,
  "ends": 2701,
  "ilos": 2702,
  "lies": 2703,
  "osen": 2704,
  "part": 2705,
  "tely": 2706,
  "time": 2707,
  "tled": 2708,
  "umer": 2709,
  "▁act": 2710,
  "▁bir": 2711,
  "▁bor": 2712,
  "▁fig": 2713,
  "▁fun": 2714,
  "▁god": 2715,
  "▁ine": 2716,
  "▁pal": 2717,
  "▁pau": 2718,
  "▁pen": 2719,
  "▁uni": 2720,
  "arted": 2721,
  "ining": 2722,
  "itate": 2723,
  "lucas": 2724,
  "rence": 2725,
  "riety": 2726,
  "xteen": 2727,
  "▁adie": 2728,
  "▁alto": 2729,
  "▁bore": 2730,
  "▁card": 2731,
  "▁cere": 2732,
  "▁clai": 2733,
  "▁dest": 2734,
  "▁dish": 2735,
  "▁flir": 2736,
  "▁grow": 2737,
  "▁idle": 2738,
  "▁insp": 2739,
  "▁jenk": 2740,
  "▁laid": 2741,
  "▁lips": 2742,
  "▁meas": 2743,
  "▁mili": 2744,
  "▁nice": 2745,
  "▁obst": 2746,
  "▁past": 2747,
  "▁safe": 2748,
  "▁scot": 2749,
  "▁seek": 2750,
  "▁sole": 2751,
  "▁soli": 2752,
  "▁spot": 2753,
  "▁tran": 2754,
  "▁trif": 2755,
  "▁wide": 2756,
  "▁wise": 2757,
  "actory": 2758,
  "inting": 2759,
  "ortion": 2760,
  "racted": 2761,
  "rimony": 2762,
  "▁abode": 2763,
  "▁becom": 2764,
  "▁cared": 2765,
  "▁colle": 2766,
  "▁consc": 2767,
  "▁debts": 2768,
  "▁delay": 2769,
  "▁drink": 2770,
  "▁evils": 2771,
  "▁force": 2772,
  "▁gives": 2773,
  "▁grace": 2774,
  "▁haste": 2775,
  "▁human": 2776,
  "▁infam": 2777,
  "▁lodge": 2778,
  "▁north": 2779,
  "▁prove": 2780,
  "▁restr": 2781,
  "▁story": 2782,
  "▁study": 2783,
  "▁threw": 2784,
  "▁value": 2785,
  "▁worst": 2786,
  "▁wound": 2787,
  "ilosoph": 2788,
  "mission": 2789,
  "▁become": 2790,
  "▁chaise": 2791,
  "▁charge": 2792,
  "▁chosen": 2793,
  "▁confir": 2794,
  "▁extent": 2795,
  "▁fright": 2796,
  "▁insens": 2797,
  "▁lament": 2798,
  "▁minute": 2799,
  "▁modest": 2800,
  "▁nearly": 2801,
  "▁parish": 2802,
  "▁placed": 2803,
  "▁refuse": 2804,
  "▁reject": 2805,
  "▁rising": 2806,
  "▁severe": 2807,
  "▁showed": 2808,
  "▁stairs": 2809,
  "▁summon": 2810,
  "▁united": 2811,
  "▁unjust": 2812,
  "▁waited": 2813,
  "▁warmly": 2814,
  "▁weight": 2815,
  "▁welcom": 2816,
  "fortable": 2817,
  "lessness": 2818,
  "▁alarmed": 2819,
  "▁behaved": 2820,
  "▁bennets": 2821,
  "▁chooses": 2822,
  "▁declare": 2823,
  "▁dischar": 2824,
  "▁excited": 2825,
  "▁expense": 2826,
  "▁follows": 2827,
  "▁highest": 2828,
  "▁noticed": 2829,
  "▁offered": 2830,
  "▁persons": 2831,
  "▁persuas": 2832,
  "▁private": 2833,
  "▁quietly": 2834,
  "▁refresh": 2835,
  "▁schemes": 2836,
  "▁sixteen": 2837,
  "▁strange": 2838,
  "▁teasing": 2839,
  "▁telling": 2840,
  "▁thither": 2841,
  "▁trusted": 2842,
  "▁unknown": 2843,
  "▁unpleas": 2844,
  "▁willing": 2845,
  "▁witness": 2846,
  "▁cheerful": 2847,
  "▁describe": 2848,
  "▁entering": 2849,
  "▁esteemed": 2850,
  "▁formerly": 2851,
  "▁friendly": 2852,
  "▁honoured": 2853,
  "▁humoured": 2854,
  "▁inclined": 2855,
  "▁inconven": 2856,
  "▁instance": 2857,
  "▁intimacy": 2858,
  "▁patience": 2859,
  "▁possibly": 2860,
  "▁property": 2861,
  "▁rejoiced": 2862,
  "▁rendered": 2863,
  "▁reproach": 2864,
  "▁strongly": 2865,
  "▁wondered": 2866,
  "▁authority": 2867,
  "▁certainty": 2868,
  "▁clergyman": 2869,
  "▁condition": 2870,
  "▁eagerness": 2871,
  "▁earnestly": 2872,
  "▁explained": 2873,
  "▁falsehood": 2874,
  "▁ignorance": 2875,
  "▁increased": 2876,
  "▁intending": 2877,
  "▁jenkinson": 2878,
  "▁philosoph": 2879,
  "▁protested": 2880,
  "▁represent": 2881,
  "▁suspicion": 2882,
  "▁altogether": 2883,
  "▁assurances": 2884,
  "▁commission": 2885,
  "▁companions": 2886,
  "▁confidence": 2887,
  "▁heightened": 2888,
  "▁impression": 2889,
  "▁increasing": 2890,
  "▁possession": 2891,
  "▁solicitude": 2892,
  "▁temptation": 2893,
  "▁acknowledge": 2894,
  "▁arrangement": 2895,
  "▁consolation": 2896,
  "▁explanation": 2897,
  "▁improvement": 2898,
  "▁indignation": 2899,
  "▁probability": 2900,
  "▁reflections": 2901,
  "▁undoubtedly": 2902,
  "▁congratulate": 2903,
  "▁consequently": 2904,
  "▁insufficient": 2905,
  "▁satisfactory": 2906,
  "▁communication": 2907,
  "▁recollections": 2908,
  "▁uncomfortable": 2909,
  "aw": 2910,
  "dg": 2911,
  "gg": 2912,
  "mo": 2913,
  "tr": 2914,
  "vy": 2915,
  "cul": 2916,
  "eal": 2917,
  "ete": 2918,
  "isk": 2919,
  "ket": 2920,
  "lee": 2921,
  "mas": 2922,
  "mbl": 2923,
  "onc": 2924,
  "rep": 2925,
  "tia": 2926,
  "tiv": 2927,
  "try": 2928,
  "ume": 2929,
  "▁at": 2930,
  "▁av": 2931,
  "▁or": 2932,
  "acri": 2933,
  "angu": 2934,
  "ases": 2935,
  "dred": 2936,
  "ffee": 2937,
  "ibly": 2938,
  "igin": 2939,
  "mple": 2940,
  "orum": 2941,
  "pend": 2942,
  "rone": 2943,
  "tray": 2944,
  "▁asc": 2945,
  "▁ban": 2946,
  "▁div": 2947,
  "▁fif": 2948,
  "▁ful": 2949,
  "▁pea": 2950,
  "▁pos": 2951,
  "▁ram": 2952,
  "▁sug": 2953,
  "▁tal": 2954,
  "▁vac": 2955,
  "acity": 2956,
  "arded": 2957,
  "atory": 2958,
  "eased": 2959,
  "gence": 2960,
  "gible": 2961,
  "ision": 2962,
  "onday": 2963,
  "orses": 2964,
  "ticip": 2965,
  "where": 2966,
  "▁anne": 2967,
  "▁cens": 2968,
  "▁diff": 2969,
  "▁exec": 2970,
  "▁fail": 2971,
  "▁game": 2972,
  "▁gown": 2973,
  "▁line": 2974,
  "▁mark": 2975,
  "▁nons": 2976,
  "▁rapt": 2977,
  "▁rose": 2978,
  "▁seat": 2979,
  "▁shar": 2980,
  "▁symp": 2981,
  "▁tete": 2982,
  "▁unre": 2983,
  "▁wher": 2984,
  "ailing": 2985,
  "elling": 2986,
  "ension": 2987,
  "ftened": 2988,
  "itable": 2989,
  "licate": 2990,
  "liness": 2991,
  "roness": 2992,
  "tition": 2993,
  "▁acted": 2994,
  "▁apart": 2995,
  "▁asser": 2996,
  "▁balls": 2997,
  "▁bless": 2998,
  "▁carry": 2999,
  "▁death": 3000,
  "▁defic": 3001,
  "▁eight": 3002,
  "▁exerc": 3003,
  "▁exist": 3004,
  "▁fault": 3005,
  "▁flirt": 3006,
  "▁habit": 3007,
  "▁horse": 3008,
  "▁likes": 3009,
  "▁lucky": 3010,
  "▁makes": 3011,
  "▁order": 3012,
  "▁paper": 3013,
  "▁perse": 3014,
  "▁punct": 3015,
  "▁rooms": 3016,
  "▁sacri": 3017,
  "▁shock": 3018,
  "▁sound": 3019,
  "▁sport": 3020,
  "▁teach": 3021,
  "▁throw": 3022,
  "▁truly": 3023,
  "▁vexed": 3024,
  "▁woods": 3025,
  "ibility": 3026,
  "ignific": 3027,
  "omestic": 3028,
  "ription": 3029,
  "utation": 3030,
  "▁affect": 3031,
  "▁announ": 3032,
  "▁attack": 3033,
  "▁attemp": 3034,
  "▁attend": 3035,
  "▁begged": 3036,
  "▁bestow": 3037,
  "▁betray": 3038,
  "▁clever": 3039,
  "▁coffee": 3040,
  "▁contri": 3041,
  "▁defect": 3042,
  "▁denial": 3043,
  "▁figure": 3044,
  "▁fitted": 3045,
  "▁formal": 3046,
  "▁horses": 3047,
  "▁invite": 3048,
  "▁kindly": 3049,
  "▁larger": 3050,
  "▁monday": 3051,
  "▁moving": 3052,
  "▁notion": 3053,
  "▁openly": 3054,
  "▁origin": 3055,
  "▁patron": 3056,
  "▁quarre": 3057,
  "▁reconc": 3058,
  "▁resist": 3059,
  "▁strugg": 3060,
  "▁uneasy": 3061,
  "▁useful": 3062,
  "▁warmth": 3063,
  "▁wisest": 3064,
  "▁anticip": 3065,
  "▁blushed": 3066,
  "▁changed": 3067,
  "▁desired": 3068,
  "▁disdain": 3069,
  "▁doubted": 3070,
  "▁dropped": 3071,
  "▁fashion": 3072,
  "▁foolish": 3073,
  "▁forbear": 3074,
  "▁hundred": 3075,
  "▁instant": 3076,
  "▁justify": 3077,
  "▁liberty": 3078,
  "▁militia": 3079,
  "▁modesty": 3080,
  "▁parting": 3081,
  "▁plainly": 3082,
  "▁pretend": 3083,
  "▁profess": 3084,
  "▁refusal": 3085,
  "▁regular": 3086,
  "▁renewal": 3087,
  "▁renewed": 3088,
  "▁satisfy": 3089,
  "▁suggest": 3090,
  "▁thanked": 3091,
  "▁treated": 3092,
  "▁univers": 3093,
  "▁wanting": 3094,
  "▁watched": 3095,
  "▁weather": 3096,
  "▁windows": 3097,
  "▁addition": 3098,
  "▁allowing": 3099,
  "▁assembly": 3100,
  "▁bestowed": 3101,
  "▁complain": 3102,
  "▁complete": 3103,
  "▁concerns": 3104,
  "▁contents": 3105,
  "▁deserved": 3106,
  "▁desirous": 3107,
  "▁domestic": 3108,
  "▁elegance": 3109,
  "▁eligible": 3110,
  "▁gracious": 3111,
  "▁hopeless": 3112,
  "▁improved": 3113,
  "▁independ": 3114,
  "▁occupied": 3115,
  "▁overcome": 3116,
  "▁presence": 3117,
  "▁proposal": 3118,
  "▁provided": 3119,
  "▁refusing": 3120,
  "▁relieved": 3121,
  "▁resigned": 3122,
  "▁respects": 3123,
  "▁softened": 3124,
  "▁speedily": 3125,
  "▁suffered": 3126,
  "▁thankful": 3127,
  "▁watching": 3128,
  "▁welcomed": 3129,
  "▁wherever": 3130,
  "▁abilities": 3131,
  "▁according": 3132,
  "▁assembled": 3133,
  "▁attending": 3134,
  "▁concluded": 3135,
  "▁contained": 3136,
  "▁deference": 3137,
  "▁direction": 3138,
  "▁discourse": 3139,
  "▁flattered": 3140,
  "▁governess": 3141,
  "▁listening": 3142,
  "▁matrimony": 3143,
  "▁patroness": 3144,
  "▁proposals": 3145,
  "▁reception": 3146,
  "▁repeating": 3147,
  "▁sentiment": 3148,
  "▁succeeded": 3149,
  "▁abominable": 3150,
  "▁acceptable": 3151,
  "▁advantages": 3152,
  "▁dependence": 3153,
  "▁directions": 3154,
  "▁discovered": 3155,
  "▁employment": 3156,
  "▁encouraged": 3157,
  "▁frightened": 3158,
  "▁interested": 3159,
  "▁persuasion": 3160,
  "▁profession": 3161,
  "▁pronounced": 3162,
  "▁remarkable": 3163,
  "▁separation": 3164,
  "▁uneasiness": 3165,
  "▁accompanied": 3166,
  "▁accordingly": 3167,
  "▁approbation": 3168,
  "▁comparative": 3169,
  "▁description": 3170,
  "▁displeasure": 3171,
  "▁established": 3172,
  "▁performance": 3173,
  "▁represented": 3174,
  "▁unfortunate": 3175,
  "▁cheerfulness": 3176,
  "▁commendation": 3177,
  "▁considerable": 3178,
  "▁expectations": 3179,
  "▁impertinence": 3180,
  "▁introduction": 3181,
  "▁establishment": 3182,
  "mn": 3183,
  "ye": 3184,
  "adv": 3185,
  "aim": 3186,
  "alu": 3187,
  "anc": 3188,
  "cen": 3189,
  "cti": 3190,
  "eld": 3191,
  "enu": 3192,
  "ile": 3193,
  "ith": 3194,
  "min": 3195,
  "omy": 3196,
  "ror": 3197,
  "str": 3198,
  "tom": 3199,
  "vag": 3200,
  "vol": 3201,
  "▁ay": 3202,
  "ague": 3203,
  "ains": 3204,
  "anch": 3205,
  "ater": 3206,
  "bted": 3207,
  "demn": 3208,
  "eath": 3209,
  "fare": 3210,
  "fice": 3211,
  "gent": 3212,
  "ivil": 3213,
  "ized": 3214,
  "leep": 3215,
  "lier": 3216,
  "lity": 3217,
  "look": 3218,
  "maid": 3219,
  "mand": 3220,
  "mory": 3221,
  "rupt": 3222,
  "stly": 3223,
  "vile": 3224,
  "▁bar": 3225,
  "▁boy": 3226,
  "▁bye": 3227,
  "▁dar": 3228,
  "▁ess": 3229,
  "▁flu": 3230,
  "▁glo": 3231,
  "▁her": 3232,
  "▁hot": 3233,
  "▁inh": 3234,
  "▁irr": 3235,
  "▁lay": 3236,
  "▁obt": 3237,
  "▁odd": 3238,
  "▁out": 3239,
  "▁sal": 3240,
  "▁sex": 3241,
  "▁sly": 3242,
  "▁wil": 3243,
  "aired": 3244,
  "anced": 3245,
  "bable": 3246,
  "eding": 3247,
  "ening": 3248,
  "ethod": 3249,
  "iding": 3250,
  "iform": 3251,
  "iners": 3252,
  "ities": 3253,
  "itive": 3254,
  "ocked": 3255,
  "oused": 3256,
  "ouses": 3257,
  "sembl": 3258,
  "tives": 3259,
  "umber": 3260,
  "▁amid": 3261,
  "▁bell": 3262,
  "▁cher": 3263,
  "▁coat": 3264,
  "▁cool": 3265,
  "▁cost": 3266,
  "▁dead": 3267,
  "▁deny": 3268,
  "▁econ": 3269,
  "▁fati": 3270,
  "▁fire": 3271,
  "▁fore": 3272,
  "▁grad": 3273,
  "▁grew": 3274,
  "▁held": 3275,
  "▁hist": 3276,
  "▁humb": 3277,
  "▁lest": 3278,
  "▁lodg": 3279,
  "▁mile": 3280,
  "▁mutu": 3281,
  "▁note": 3282,
  "▁path": 3283,
  "▁paus": 3284,
  "▁piti": 3285,
  "▁prej": 3286,
  "▁rain": 3287,
  "▁ring": 3288,
  "▁risk": 3289,
  "▁sees": 3290,
  "▁song": 3291,
  "▁subs": 3292,
  "▁syll": 3293,
  "▁tour": 3294,
  "▁wand": 3295,
  "▁warn": 3296,
  "▁wear": 3297,
  "advant": 3298,
  "anging": 3299,
  "atched": 3300,
  "atedly": 3301,
  "cenary": 3302,
  "erving": 3303,
  "lihood": 3304,
  "olding": 3305,
  "▁absur": 3306,
  "▁adieu": 3307,
  "▁appar": 3308,
  "▁arise": 3309,
  "▁attra": 3310,
  "▁cards": 3311,
  "▁catch": 3312,
  "▁clock": 3313,
  "▁confe": 3314,
  "▁conve": 3315,
  "▁cross": 3316,
  "▁discl": 3317,
  "▁drawn": 3318,
  "▁fears": 3319,
  "▁fifty": 3320,
  "▁finer": 3321,
  "▁frank": 3322,
  "▁front": 3323,
  "▁griev": 3324,
  "▁guest": 3325,
  "▁hasty": 3326,
  "▁james": 3327,
  "▁langu": 3328,
  "▁merit": 3329,
  "▁moved": 3330,
  "▁peace": 3331,
  "▁plann": 3332,
  "▁sides": 3333,
  "▁steps": 3334,
  "▁studi": 3335,
  "▁subst": 3336,
  "▁trace": 3337,
  "▁unaff": 3338,
  "▁urged": 3339,
  "cerning": 3340,
  "ulation": 3341,
  "underst": 3342,
  "▁abrupt": 3343,
  "▁amends": 3344,
  "▁assert": 3345,
  "▁breath": 3346,
  "▁calcul": 3347,
  "▁ceased": 3348,
  "▁claims": 3349,
  "▁closed": 3350,
  "▁conven": 3351,
  "▁declar": 3352,
  "▁demand": 3353,
  "▁differ": 3354,
  "▁energy": 3355,
  "▁entail": 3356,
  "▁enumer": 3357,
  "▁expose": 3358,
  "▁forbid": 3359,
  "▁forgot": 3360,
  "▁gentle": 3361,
  "▁horror": 3362,
  "▁judged": 3363,
  "▁memory": 3364,
  "▁method": 3365,
  "▁oblige": 3366,
  "▁obstin": 3367,
  "▁office": 3368,
  "▁overth": 3369,
  "▁practi": 3370,
  "▁prepar": 3371,
  "▁raised": 3372,
  "▁repeat": 3373,
  "▁result": 3374,
  "▁roused": 3375,
  "▁settle": 3376,
  "▁spared": 3377,
  "▁spring": 3378,
  "▁stupid": 3379,
  "▁supply": 3380,
  "▁tables": 3381,
  "▁taught": 3382,
  "▁unlike": 3383,
  "▁vacant": 3384,
  "▁valued": 3385,
  "fication": 3386,
  "▁affairs": 3387,
  "▁alluded": 3388,
  "▁arising": 3389,
  "▁benefit": 3390,
  "▁charles": 3391,
  "▁checked": 3392,
  "▁command": 3393,
  "▁condemn": 3394,
  "▁console": 3395,
  "▁contain": 3396,
  "▁courtes": 3397,
  "▁created": 3398,
  "▁crossed": 3399,
  "▁curious": 3400,
  "▁decorum": 3401,
  "▁deliber": 3402,
  "▁discern": 3403,
  "▁discomp": 3404,
  "▁example": 3405,
  "▁fearful": 3406,
  "▁getting": 3407,
  "▁grounds": 3408,
  "▁happily": 3409,
  "▁leading": 3410,
  "▁letting": 3411,
  "▁mistake": 3412,
  "▁objects": 3413,
  "▁offence": 3414,
  "▁opposed": 3415,
  "▁parents": 3416,
  "▁playing": 3417,
  "▁pointed": 3418,
  "▁prepare": 3419,
  "▁privile": 3420,
  "▁produce": 3421,
  "▁provoke": 3422,
  "▁pursuit": 3423,
  "▁quitted": 3424,
  "▁reasons": 3425,
  "▁reflect": 3426,
  "▁refused": 3427,
  "▁rejoice": 3428,
  "▁remarks": 3429,
  "▁reproof": 3430,
  "▁resembl": 3431,
  "▁reserve": 3432,
  "▁selfish": 3433,
  "▁shocked": 3434,
  "▁steward": 3435,
  "▁stopped": 3436,
  "▁symptom": 3437,
  "▁talents": 3438,
  "▁tempted": 3439,
  "▁travell": 3440,
  "▁uncivil": 3441,
  "▁uniform": 3442,
  "▁useless": 3443,
  "▁usually": 3444,
  "▁uttered": 3445,
  "▁variety": 3446,
  "▁welfare": 3447,
  "lishments": 3448,
  "▁afforded": 3449,
  "▁alarming": 3450,
  "▁ceremony": 3451,
  "▁composed": 3452,
  "▁declined": 3453,
  "▁delicate": 3454,
  "▁disappro": 3455,
  "▁everyone": 3456,
  "▁extravag": 3457,
  "▁familiar": 3458,
  "▁families": 3459,
  "▁indebted": 3460,
  "▁nonsense": 3461,
  "▁obliging": 3462,
  "▁overlook": 3463,
  "▁persever": 3464,
  "▁pointing": 3465,
  "▁positive": 3466,
  "▁purchase": 3467,
  "▁relating": 3468,
  "▁reminded": 3469,
  "▁ridicule": 3470,
  "▁scotland": 3471,
  "▁shocking": 3472,
  "▁spending": 3473,
  "▁strength": 3474,
  "▁stronger": 3475,
  "▁suspense": 3476,
  "▁syllable": 3477,
  "▁tempered": 3478,
  "▁unreason": 3479,
  "▁visiting": 3480,
  "▁weakness": 3481,
  "▁withdrew": 3482,
  "rehensible": 3483,
  "▁addresses": 3484,
  "▁agitation": 3485,
  "▁appearing": 3486,
  "▁christmas": 3487,
  "▁concealed": 3488,
  "▁conceited": 3489,
  "▁departure": 3490,
  "▁described": 3491,
  "▁disadvant": 3492,
  "▁discovery": 3493,
  "▁encourage": 3494,
  "▁engrossed": 3495,
  "▁expecting": 3496,
  "▁gardiners": 3497,
  "▁impatient": 3498,
  "▁inquiring": 3499,
  "▁mercenary": 3500,
  "▁miserable": 3501,
  "▁pleasures": 3502,
  "▁qualities": 3503,
  "▁remaining": 3504,
  "▁restraint": 3505,
  "▁sacrifice": 3506,
  "▁suspected": 3507,
  "▁treatment": 3508,
  "▁alteration": 3509,
  "▁attributed": 3510,
  "▁civilities": 3511,
  "▁completely": 3512,
  "▁conjecture": 3513,
  "▁conscience": 3514,
  "▁difficulty": 3515,
  "▁estimation": 3516,
  "▁honourable": 3517,
  "▁improbable": 3518,
  "▁inducement": 3519,
  "▁indulgence": 3520,
  "▁likelihood": 3521,
  "▁mentioning": 3522,
  "▁misunderst": 3523,
  "▁mortifying": 3524,
  "▁obligation": 3525,
  "▁philosophy": 3526,
  "▁proceeding": 3527,
  "▁proportion": 3528,
  "▁repeatedly": 3529,
  "▁travelling": 3530,
  "▁unaffected": 3531,
  "▁unpleasant": 3532,
  "▁disgraceful": 3533,
  "▁embarrassed": 3534,
  "▁entertained": 3535,
  "▁forbearance": 3536,
  "▁impertinent": 3537,
  "▁misfortunes": 3538,
  "▁refreshment": 3539,
  "▁resemblance": 3540,
  "▁supposition": 3541,
  "▁voluntarily": 3542,
  "▁independence": 3543,
  "▁recollecting": 3544,
  "▁condescension": 3545,
  "▁entertainment": 3546,
  "▁gentlemanlike": 3547,
  "▁respectability": 3548,
  "▁accomplishments": 3549,
  "pa": 3550,
  "zz": 3551,
  "ais": 3552,
  "att": 3553,
  "ded": 3554,
  "etr": 3555,
  "gue": 3556,
  "isy": 3557,
  "ize": 3558,
  "oup": 3559,
  "pet": 3560,
  "que": 3561,
  "rad": 3562,
  "ril": 3563,
  "rob": 3564,
  "uct": 3565,
  "urb": 3566,
  "▁ah": 3567,
  "▁da": 3568,
  "▁ed": 3569,
  "▁hy": 3570,
  "ants": 3571,
  "bery": 3572,
  "edom": 3573,
  "eton": 3574,
  "hear": 3575,
  "ilar": 3576,
  "isen": 3577,
  "ital": 3578,
  "lend": 3579,
  "ming": 3580,
  "ouch": 3581,
  "pham": 3582,
  "qual": 3583,
  "ream": 3584,
  "rity": 3585,
  "road": 3586,
  "rust": 3587,
  "sper": 3588,
  "stib": 3589,
  "tial": 3590,
  "uise": 3591,
  "ults": 3592,
  "vity": 3593,
  "xion": 3594,
  "▁art": 3595,
  "▁bed": 3596,
  "▁bef": 3597,
  "▁bid": 3598,
  "▁buy": 3599,
  "▁die": 3600,
  "▁eat": 3601,
  "▁gro": 3602,
  "▁hat": 3603,
  "▁ing": 3604,
  "▁nar": 3605,
  "▁owe": 3606,
  "▁own": 3607,
  "▁pha": 3608,
  "▁pow": 3609,
  "▁red": 3610,
  "▁sad": 3611,
  "▁shy": 3612,
  "▁sim": 3613,
  "▁tou": 3614,
  "▁uns": 3615,
  "▁war": 3616,
  "amber": 3617,
  "aming": 3618,
  "atisf": 3619,
  "enced": 3620,
  "ested": 3621,
  "ffici": 3622,
  "gress": 3623,
  "iance": 3624,
  "issed": 3625,
  "month": 3626,
  "olded": 3627,
  "onies": 3628,
  "pping": 3629,
  "pting": 3630,
  "quest": 3631,
  "ritic": 3632,
  "uance": 3633,
  "udice": 3634,
  "uding": 3635,
  "ustom": 3636,
  "verse": 3637,
  "▁ange": 3638,
  "▁anim": 3639,
  "▁arch": 3640,
  "▁arts": 3641,
  "▁bord": 3642,
  "▁born": 3643,
  "▁bred": 3644,
  "▁camp": 3645,
  "▁cand": 3646,
  "▁crow": 3647,
  "▁debt": 3648,
  "▁defy": 3649,
  "▁dign": 3650,
  "▁dull": 3651,
  "▁evid": 3652,
  "▁fanc": 3653,
  "▁flow": 3654,
  "▁fret": 3655,
  "▁gate": 3656,
  "▁harm": 3657,
  "▁hone": 3658,
  "▁inat": 3659,
  "▁irre": 3660,
  "▁jeal": 3661,
  "▁kill": 3662,
  "▁land": 3663,
  "▁lawn": 3664,
  "▁maid": 3665,
  "▁meat": 3666,
  "▁mend": 3667,
  "▁mere": 3668,
  "▁mess": 3669,
  "▁nove": 3670,
  "▁ones": 3671,
  "▁owed": 3672,
  "▁papa": 3673,
  "▁rate": 3674,
  "▁rect": 3675,
  "▁reti": 3676,
  "▁ruin": 3677,
  "▁sele": 3678,
  "▁shoo": 3679,
  "▁shop": 3680,
  "▁shru": 3681,
  "▁sign": 3682,
  "▁slow": 3683,
  "▁sunk": 3684,
  "▁surm": 3685,
  "▁test": 3686,
  "▁thor": 3687,
  "▁thur": 3688,
  "▁tong": 3689,
  "▁unne": 3690,
  "▁vary": 3691,
  "▁vice": 3692,
  "acency": 3693,
  "aching": 3694,
  "church": 3695,
  "course": 3696,
  "educed": 3697,
  "ential": 3698,
  "lendid": 3699,
  "nected": 3700,
  "ounter": 3701,
  "retion": 3702,
  "strong": 3703,
  "titude": 3704,
  "velope": 3705,
  "verted": 3706,
  "▁abund": 3707,
  "▁accus": 3708,
  "▁arose": 3709,
  "▁aside": 3710,
  "▁atone": 3711,
  "▁birth": 3712,
  "▁borne": 3713,
  "▁bride": 3714,
  "▁cases": 3715,
  "▁chair": 3716,
  "▁check": 3717,
  "▁claim": 3718,
  "▁corps": 3719,
  "▁depri": 3720,
  "▁disli": 3721,
  "▁disre": 3722,
  "▁drive": 3723,
  "▁dwelt": 3724,
  "▁ended": 3725,
  "▁error": 3726,
  "▁exped": 3727,
  "▁faith": 3728,
  "▁fully": 3729,
  "▁grand": 3730,
  "▁grown": 3731,
  "▁guess": 3732,
  "▁hated": 3733,
  "▁heavy": 3734,
  "▁hints": 3735,
  "▁impul": 3736,
  "▁incap": 3737,
  "▁indis": 3738,
  "▁lakes": 3739,
  "▁lives": 3740,
  "▁lover": 3741,
  "▁lower": 3742,
  "▁medit": 3743,
  "▁moder": 3744,
  "▁mount": 3745,
  "▁names": 3746,
  "▁novel": 3747,
  "▁overp": 3748,
  "▁owing": 3749,
  "▁pains": 3750,
  "▁parts": 3751,
  "▁proof": 3752,
  "▁river": 3753,
  "▁score": 3754,
  "▁scrup": 3755,
  "▁sharp": 3756,
  "▁shown": 3757,
  "▁sleep": 3758,
  "▁spare": 3759,
  "▁trees": 3760,
  "▁undes": 3761,
  "▁ungra": 3762,
  "▁vouch": 3763,
  "▁whist": 3764,
  "inction": 3765,
  "oration": 3766,
  "stibule": 3767,
  "tensive": 3768,
  "unately": 3769,
  "▁abroad": 3770,
  "▁accent": 3771,
  "▁accuse": 3772,
  "▁across": 3773,
  "▁adding": 3774,
  "▁altern": 3775,
  "▁amazed": 3776,
  "▁amidst": 3777,
  "▁amused": 3778,
  "▁aspect": 3779,
  "▁bought": 3780,
  "▁broken": 3781,
  "▁circle": 3782,
  "▁county": 3783,
  "▁decide": 3784,
  "▁detest": 3785,
  "▁discon": 3786,
  "▁divers": 3787,
  "▁effort": 3788,
  "▁events": 3789,
  "▁exclam": 3790,
  "▁faults": 3791,
  "▁freely": 3792,
  "▁higher": 3793,
  "▁hither": 3794,
  "▁improp": 3795,
  "▁infamy": 3796,
  "▁lovers": 3797,
  "▁mutual": 3798,
  "▁narrow": 3799,
  "▁nearer": 3800,
  "▁number": 3801,
  "▁orders": 3802,
  "▁paying": 3803,
  "▁places": 3804,
  "▁powers": 3805,
  "▁preced": 3806,
  "▁precip": 3807,
  "▁pursue": 3808,
  "▁recall": 3809,
  "▁repine": 3810,
  "▁season": 3811,
  "▁sickly": 3812,
  "▁simple": 3813,
  "▁solely": 3814,
  "▁stared": 3815,
  "▁stream": 3816,
  "▁strike": 3817,
  "▁surely": 3818,
  "▁trying": 3819,
  "▁valley": 3820,
  "▁widely": 3821,
  "▁younge": 3822,
  "ableness": 3823,
  "atisfied": 3824,
  "iliation": 3825,
  "▁actions": 3826,
  "▁acutely": 3827,
  "▁affront": 3828,
  "▁altered": 3829,
  "▁approve": 3830,
  "▁becomes": 3831,
  "▁beneath": 3832,
  "▁careful": 3833,
  "▁carried": 3834,
  "▁caution": 3835,
  "▁chamber": 3836,
  "▁clapham": 3837,
  "▁conceit": 3838,
  "▁consist": 3839,
  "▁contemp": 3840,
  "▁cruelty": 3841,
  "▁defects": 3842,
  "▁discour": 3843,
  "▁distant": 3844,
  "▁disturb": 3845,
  "▁dressed": 3846,
  "▁economy": 3847,
  "▁england": 3848,
  "▁escaped": 3849,
  "▁estates": 3850,
  "▁fancied": 3851,
  "▁finally": 3852,
  "▁fishing": 3853,
  "▁flutter": 3854,
  "▁freedom": 3855,
  "▁history": 3856,
  "▁humbled": 3857,
  "▁imposed": 3858,
  "▁jealous": 3859,
  "▁joining": 3860,
  "▁keeping": 3861,
  "▁measure": 3862,
  "▁motives": 3863,
  "▁ordered": 3864,
  "▁persist": 3865,
  "▁phaeton": 3866,
  "▁preserv": 3867,
  "▁pretens": 3868,
  "▁promote": 3869,
  "▁prosper": 3870,
  "▁prudent": 3871,
  "▁remains": 3872,
  "▁secured": 3873,
  "▁seeking": 3874,
  "▁similar": 3875,
  "▁started": 3876,
  "▁station": 3877,
  "▁suffici": 3878,
  "▁touched": 3879,
  "▁unequal": 3880,
  "▁unworth": 3881,
  "▁venture": 3882,
  "▁visited": 3883,
  "ardonable": 3884,
  "▁advanced": 3885,
  "▁argument": 3886,
  "▁assisted": 3887,
  "▁assuring": 3888,
  "▁bingleys": 3889,
  "▁breeding": 3890,
  "▁calmness": 3891,
  "▁coloured": 3892,
  "▁complais": 3893,
  "▁complied": 3894,
  "▁confined": 3895,
  "▁confused": 3896,
  "▁continue": 3897,
  "▁convince": 3898,
  "▁courtesy": 3899,
  "▁deserves": 3900,
  "▁disguise": 3901,
  "▁disinter": 3902,
  "▁distrust": 3903,
  "▁dwelling": 3904,
  "▁earliest": 3905,
  "▁engaging": 3906,
  "▁entailed": 3907,
  "▁entitled": 3908,
  "▁evenings": 3909,
  "▁examined": 3910,
  "▁exercise": 3911,
  "▁guardian": 3912,
  "▁honestly": 3913,
  "▁humility": 3914,
  "▁husbands": 3915,
  "▁imagined": 3916,
  "▁increase": 3917,
  "▁interval": 3918,
  "▁language": 3919,
  "▁november": 3920,
  "▁original": 3921,
  "▁overhear": 3922,
  "▁pressing": 3923,
  "▁previous": 3924,
  "▁proposed": 3925,
  "▁prudence": 3926,
  "▁rapidity": 3927,
  "▁reserved": 3928,
  "▁separate": 3929,
  "▁situated": 3930,
  "▁somebody": 3931,
  "▁splendid": 3932,
  "▁thorough": 3933,
  "▁thursday": 3934,
  "▁trifling": 3935,
  "▁unlikely": 3936,
  "▁unnecess": 3937,
  "▁withdraw": 3938,
  "▁accepting": 3939,
  "▁animation": 3940,
  "▁apartment": 3941,
  "▁apologize": 3942,
  "▁arguments": 3943,
  "▁attempted": 3944,
  "▁carriages": 3945,
  "▁cherished": 3946,
  "▁collinses": 3947,
  "▁decidedly": 3948,
  "▁deficient": 3949,
  "▁delivered": 3950,
  "▁elsewhere": 3951,
  "▁encounter": 3952,
  "▁evidently": 3953,
  "▁execution": 3954,
  "▁extensive": 3955,
  "▁frankness": 3956,
  "▁gradually": 3957,
  "▁incapable": 3958,
  "▁justified": 3959,
  "▁performed": 3960,
  "▁prejudice": 3961,
  "▁preserved": 3962,
  "▁principle": 3963,
  "▁professed": 3964,
  "▁propriety": 3965,
  "▁prospects": 3966,
  "▁purposely": 3967,
  "▁recollect": 3968,
  "▁recovered": 3969,
  "▁rejoicing": 3970,
  "▁residence": 3971,
  "▁resolving": 3972,
  "▁solemnity": 3973,
  "▁somewhere": 3974,
  "▁stupidity": 3975,
  "▁supported": 3976,
  "▁unconcern": 3977,
  "▁vestibule": 3978,
  "▁abominably": 3979,
  "▁affections": 3980,
  "▁bitterness": 3981,
  "▁complexion": 3982,
  "▁concerning": 3983,
  "▁conference": 3984,
  "▁despatched": 3985,
  "▁dinnertime": 3986,
  "▁discretion": 3987,
  "▁discussion": 3988,
  "▁displeased": 3989,
  "▁expressing": 3990,
  "▁foundation": 3991,
  "▁gratifying": 3992,
  "▁handsomest": 3993,
  "▁headstrong": 3994,
  "▁insignific": 3995,
  "▁liveliness": 3996,
  "▁materially": 3997,
  "▁occasional": 3998,
  "▁perceiving": 3999,
  "▁permission": 4000,
  "▁pleasantly": 4001,
  "▁reasonably": 4002,
  "▁recovering": 4003,
  "▁succeeding": 4004,
  "▁travellers": 4005,
  "▁ungracious": 4006,
  "▁attractions": 4007,
  "▁complacency": 4008,
  "▁continually": 4009,
  "▁declaration": 4010,
  "▁differently": 4011,
  "▁distinction": 4012,
  "▁distinguish": 4013,
  "▁distressing": 4014,
  "▁encouraging": 4015,
  "▁enumerating": 4016,
  "▁fitzwilliam": 4017,
  "▁gracechurch": 4018,
  "▁imagination": 4019,
  "▁intelligent": 4020,
  "▁intercourse": 4021,
  "▁introducing": 4022,
  "▁necessarily": 4023,
  "▁principally": 4024,
  "▁professions": 4025,
  "▁twelvemonth": 4026,
  "▁unconnected": 4027,
  "▁condescended": 4028,
  "▁deliberation": 4029,
  "▁delightfully": 4030,
  "▁disadvantage": 4031,
  "▁dissatisfied": 4032,
  "▁presentation": 4033,
  "▁unpardonable": 4034,
  "▁unreasonable": 4035,
  "▁disinterested": 4036,
  "▁distinguished": 4037,
  "▁inconvenience": 4038,
  "▁insensibility": 4039,
  "▁mortification": 4040,
  "▁correspondence": 4041,
  "▁disapprobation": 4042,
  "▁recommendation": 4043,
  "▁representation": 4044,
  "ap": 4045,
  "ds": 4046,
  "em": 4047,
  "eu": 4048,
  "sg": 4049,
  "ub": 4050,
  "ug": 4051,
  "cke": 4052,
  "dom": 4053,
  "eaf": 4054,
  "ery": 4055,
  "gar": 4056,
  "hib": 4057,
  "hor": 4058,
  "ich": 4059,
  "ics": 4060,
  "idd": 4061,
  "isa": 4062,
  "lli": 4063,
  "ned": 4064,
  "oly": 4065,
  "opt": 4066,
  "poc": 4067,
  "rea": 4068,
  "rid": 4069,
  "tin": 4070,
  "wis": 4071,
  "▁ug": 4072,
  "ades": 4073,
  "cast": 4074,
  "dity": 4075,
  "ease": 4076,
  "efly": 4077,
  "etch": 4078,
  "etry": 4079,
  "held": 4080,
  "here": 4081,
  "idge": 4082,
  "ilst": 4083,
  "ivid": 4084,
  "kily": 4085,
  "lled": 4086,
  "loqu": 4087,
  "lude": 4088,
  "mest": 4089,
  "oman": 4090,
  "omer": 4091,
  "oute": 4092,
  "owal": 4093,
  "psom": 4094,
  "rast": 4095,
  "rice": 4096,
  "rief": 4097,
  "riet": 4098,
  "sley": 4099,
  "tary": 4100,
  "thly": 4101,
  "tier": 4102,
  "upti": 4103,
  "veal": 4104,
  "view": 4105,
  "▁ard": 4106,
  "▁arm": 4107,
  "▁bew": 4108,
  "▁ble": 4109,
  "▁bon": 4110,
  "▁box": 4111,
  "▁bur": 4112,
  "▁cop": 4113,
  "▁cry": 4114,
  "▁cur": 4115,
  "▁dev": 4116,
  "▁dir": 4117,
  "▁dup": 4118,
  "▁emo": 4119,
  "▁ens": 4120,
  "▁env": 4121,
  "▁fix": 4122,
  "▁fol": 4123,
  "▁gay": 4124,
  "▁gue": 4125,
  "▁har": 4126,
  "▁hau": 4127,
  "▁leg": 4128,
  "▁lic": 4129,
  "▁lou": 4130,
  "▁mel": 4131,
  "▁mir": 4132,
  "▁net": 4133,
  "▁obe": 4134,
  "▁odi": 4135,
  "▁orn": 4136,
  "▁san": 4137,
  "▁spr": 4138,
  "▁tis": 4139,
  "▁top": 4140,
  "▁ver": 4141,
  "▁vic": 4142,
  "▁vul": 4143,
  "▁yaw": 4144,
  "adril": 4145,
  "anter": 4146,
  "bbery": 4147,
  "chief": 4148,
  "ckets": 4149,
  "elled": 4150,
  "enity": 4151,
  "fteen": 4152,
  "icked": 4153,
  "ified": 4154,
  "inite": 4155,
  "inity": 4156,
  "iring": 4157,
  "isely": 4158,
  "itute": 4159,
  "olent": 4160,
  "oping": 4161,
  "orned": 4162,
  "orney": 4163,
  "pport": 4164,
  "ptain": 4165,
  "rated": 4166,
  "sgate": 4167,
  "tious": 4168,
  "ttery": 4169,
  "ulity": 4170,
  "uming": 4171,
  "urity": 4172,
  "vable": 4173,
  "vance": 4174,
  "xture": 4175,
  "▁adds": 4176,
  "▁alac": 4177,
  "▁arre": 4178,
  "▁audi": 4179,
  "▁bare": 4180,
  "▁bent": 4181,
  "▁boun": 4182,
  "▁chea": 4183,
  "▁dict": 4184,
  "▁died": 4185,
  "▁dism": 4186,
  "▁down": 4187,
  "▁elev": 4188,
  "▁farm": 4189,
  "▁firm": 4190,
  "▁fool": 4191,
  "▁inev": 4192,
  "▁inex": 4193,
  "▁intr": 4194,
  "▁june": 4195,
  "▁lift": 4196,
  "▁mild": 4197,
  "▁mode": 4198,
  "▁move": 4199,
  "▁neat": 4200,
  "▁nerv": 4201,
  "▁pack": 4202,
  "▁pomp": 4203,
  "▁poul": 4204,
  "▁pour": 4205,
  "▁prec": 4206,
  "▁refr": 4207,
  "▁ride": 4208,
  "▁scre": 4209,
  "▁shel": 4210,
  "▁shut": 4211,
  "▁sink": 4212,
  "▁size": 4213,
  "▁spec": 4214,
  "▁stop": 4215,
  "▁stro": 4216,
  "▁surv": 4217,
  "▁swee": 4218,
  "▁tend": 4219,
  "▁term": 4220,
  "▁thin": 4221,
  "▁ungu": 4222,
  "▁vast": 4223,
  "▁vill": 4224,
  "▁ways": 4225,
  "▁wink": 4226,
  "aiming": 4227,
  "angers": 4228,
  "atious": 4229,
  "aughty": 4230,
  "castle": 4231,
  "certed": 4232,
  "dities": 4233,
  "eafter": 4234,
  "ensive": 4235,
  "ieties": 4236,
  "ignify": 4237,
  "isable": 4238,
  "lation": 4239,
  "liance": 4240,
  "olence": 4241,
  "racing": 4242,
  "rences": 4243,
  "repres": 4244,
  "rewell": 4245,
  "ronted": 4246,
  "spread": 4247,
  "usions": 4248,
  "vering": 4249,
  "volous": 4250,
  "▁abhor": 4251,
  "▁adopt": 4252,
  "▁angel": 4253,
  "▁apply": 4254,
  "▁artic": 4255,
  "▁bowed": 4256,
  "▁built": 4257,
  "▁cease": 4258,
  "▁coinc": 4259,
  "▁compe": 4260,
  "▁compr": 4261,
  "▁cordi": 4262,
  "▁cough": 4263,
  "▁daily": 4264,
  "▁decis": 4265,
  "▁dying": 4266,
  "▁eloqu": 4267,
  "▁epsom": 4268,
  "▁estim": 4269,
  "▁exert": 4270,
  "▁faces": 4271,
  "▁fetch": 4272,
  "▁fidge": 4273,
  "▁gloom": 4274,
  "▁gould": 4275,
  "▁green": 4276,
  "▁grief": 4277,
  "▁gross": 4278,
  "▁group": 4279,
  "▁grove": 4280,
  "▁guilt": 4281,
  "▁hills": 4282,
  "▁hypoc": 4283,
  "▁impar": 4284,
  "▁impud": 4285,
  "▁inciv": 4286,
  "▁inher": 4287,
  "▁innoc": 4288,
  "▁jones": 4289,
  "▁later": 4290,
  "▁lewis": 4291,
  "▁liver": 4292,
  "▁maint": 4293,
  "▁merry": 4294,
  "▁minds": 4295,
  "▁moral": 4296,
  "▁mouth": 4297,
  "▁noisy": 4298,
  "▁nupti": 4299,
  "▁ornam": 4300,
  "▁overt": 4301,
  "▁owned": 4302,
  "▁rapid": 4303,
  "▁regre": 4304,
  "▁revol": 4305,
  "▁route": 4306,
  "▁sheet": 4307,
  "▁shoot": 4308,
  "▁shows": 4309,
  "▁solic": 4310,
  "▁start": 4311,
  "▁stout": 4312,
  "▁takes": 4313,
  "▁there": 4314,
  "▁tired": 4315,
  "▁tires": 4316,
  "▁trans": 4317,
  "▁union": 4318,
  "▁walks": 4319,
  "▁which": 4320,
  "adrille": 4321,
  "aluable": 4322,
  "ancholy": 4323,
  "diality": 4324,
  "enerous": 4325,
  "engaged": 4326,
  "ication": 4327,
  "licious": 4328,
  "reaties": 4329,
  "ritical": 4330,
  "tiously": 4331,
  "▁absent": 4332,
  "▁advise": 4333,
  "▁arisen": 4334,
  "▁assume": 4335,
  "▁avowal": 4336,
  "▁banish": 4337,
  "▁bonnet": 4338,
  "▁breach": 4339,
  "▁bridge": 4340,
  "▁captiv": 4341,
  "▁carter": 4342,
  "▁causes": 4343,
  "▁confid": 4344,
  "▁dearly": 4345,
  "▁decent": 4346,
  "▁deeper": 4347,
  "▁denied": 4348,
  "▁driven": 4349,
  "▁excite": 4350,
  "▁failed": 4351,
  "▁faulty": 4352,
  "▁finish": 4353,
  "▁flight": 4354,
  "▁forese": 4355,
  "▁forgiv": 4356,
  "▁glance": 4357,
  "▁grieve": 4358,
  "▁habits": 4359,
  "▁hoping": 4360,
  "▁horrid": 4361,
  "▁houses": 4362,
  "▁incess": 4363,
  "▁indisp": 4364,
  "▁killed": 4365,
  "▁lasted": 4366,
  "▁lessen": 4367,
  "▁louisa": 4368,
  "▁lovely": 4369,
  "▁missed": 4370,
  "▁odious": 4371,
  "▁offers": 4372,
  "▁oppose": 4373,
  "▁paused": 4374,
  "▁perpet": 4375,
  "▁plague": 4376,
  "▁points": 4377,
  "▁ponies": 4378,
  "▁poorly": 4379,
  "▁punish": 4380,
  "▁recent": 4381,
  "▁rector": 4382,
  "▁resign": 4383,
  "▁reveal": 4384,
  "▁saving": 4385,
  "▁sermon": 4386,
  "▁shared": 4387,
  "▁slowly": 4388,
  "▁sought": 4389,
  "▁spread": 4390,
  "▁strict": 4391,
  "▁thirty": 4392,
  "▁tongue": 4393,
  "▁tranqu": 4394,
  "▁urgent": 4395,
  "▁varied": 4396,
  "▁visits": 4397,
  "▁vulgar": 4398,
  "▁whilst": 4399,
  "▁wicked": 4400,
  "▁wilful": 4401,
  "▁wisely": 4402,
  "▁worthy": 4403,
  "inations": 4404,
  "itations": 4405,
  "olerable": 4406,
  "spection": 4407,
  "▁abusing": 4408,
  "▁admirer": 4409,
  "▁adorned": 4410,
  "▁advance": 4411,
  "▁advised": 4412,
  "▁amusing": 4413,
  "▁bidding": 4414,
  "▁blaming": 4415,
  "▁blessed": 4416,
  "▁briefly": 4417,
  "▁candour": 4418,
  "▁caprice": 4419,
  "▁captain": 4420,
  "▁censure": 4421,
  "▁civilly": 4422,
  "▁concili": 4423,
  "▁constru": 4424,
  "▁contrad": 4425,
  "▁counter": 4426,
  "▁crowded": 4427,
  "▁deceive": 4428,
  "▁defence": 4429,
  "▁deigned": 4430,
  "▁delayed": 4431,
  "▁descent": 4432,
  "▁dignity": 4433,
  "▁divided": 4434,
  "▁dreaded": 4435,
  "▁earlier": 4436,
  "▁effects": 4437,
  "▁emotion": 4438,
  "▁existed": 4439,
  "▁explain": 4440,
  "▁fatigue": 4441,
  "▁fearing": 4442,
  "▁fifteen": 4443,
  "▁follies": 4444,
  "▁furnish": 4445,
  "▁gaining": 4446,
  "▁gravely": 4447,
  "▁growing": 4448,
  "▁guessed": 4449,
  "▁haughty": 4450,
  "▁impulse": 4451,
  "▁individ": 4452,
  "▁injured": 4453,
  "▁judging": 4454,
  "▁kingdom": 4455,
  "▁learned": 4456,
  "▁lottery": 4457,
  "▁luckily": 4458,
  "▁mixture": 4459,
  "▁nervous": 4460,
  "▁novelty": 4461,
  "▁oftener": 4462,
  "▁perusal": 4463,
  "▁pervers": 4464,
  "▁planned": 4465,
  "▁pompous": 4466,
  "▁poultry": 4467,
  "▁pressed": 4468,
  "▁propose": 4469,
  "▁provide": 4470,
  "▁putting": 4471,
  "▁reduced": 4472,
  "▁removal": 4473,
  "▁require": 4474,
  "▁retired": 4475,
  "▁revived": 4476,
  "▁scruple": 4477,
  "▁showing": 4478,
  "▁signify": 4479,
  "▁sources": 4480,
  "▁stately": 4481,
  "▁subsist": 4482,
  "▁summons": 4483,
  "▁tickets": 4484,
  "▁viewing": 4485,
  "▁wonders": 4486,
  "▁wounded": 4487,
  "fications": 4488,
  "pportable": 4489,
  "▁absolute": 4490,
  "▁agitated": 4491,
  "▁alacrity": 4492,
  "▁allusion": 4493,
  "▁animated": 4494,
  "▁annesley": 4495,
  "▁announce": 4496,
  "▁apparent": 4497,
  "▁applying": 4498,
  "▁approved": 4499,
  "▁ascended": 4500,
  "▁attorney": 4501,
  "▁banished": 4502,
  "▁beauties": 4503,
  "▁becoming": 4504,
  "▁betrayed": 4505,
  "▁blessing": 4506,
  "▁cautious": 4507,
  "▁changing": 4508,
  "▁comforts": 4509,
  "▁conceive": 4510,
  "▁contrast": 4511,
  "▁defiance": 4512,
  "▁depended": 4513,
  "▁deprived": 4514,
  "▁designed": 4515,
  "▁despised": 4516,
  "▁destined": 4517,
  "▁diverted": 4518,
  "▁easiness": 4519,
  "▁educated": 4520,
  "▁enjoying": 4521,
  "▁entreaty": 4522,
  "▁envelope": 4523,
  "▁explicit": 4524,
  "▁exposing": 4525,
  "▁faithful": 4526,
  "▁fancying": 4527,
  "▁farewell": 4528,
  "▁grievous": 4529,
  "▁hastened": 4530,
  "▁hurrying": 4531,
  "▁infamous": 4532,
  "▁infinite": 4533,
  "▁involved": 4534,
  "▁jealousy": 4535,
  "▁lodgings": 4536,
  "▁measures": 4537,
  "▁minutely": 4538,
  "▁needless": 4539,
  "▁negative": 4540,
  "▁nuptials": 4541,
  "▁obtained": 4542,
  "▁offering": 4543,
  "▁openness": 4544,
  "▁ordinary": 4545,
  "▁partners": 4546,
  "▁pitiable": 4547,
  "▁preserve": 4548,
  "▁procured": 4549,
  "▁progress": 4550,
  "▁promises": 4551,
  "▁provoked": 4552,
  "▁publicly": 4553,
  "▁punctual": 4554,
  "▁ramsgate": 4555,
  "▁relative": 4556,
  "▁resented": 4557,
  "▁sanction": 4558,
  "▁security": 4559,
  "▁selected": 4560,
  "▁serenity": 4561,
  "▁silently": 4562,
  "▁sisterly": 4563,
  "▁slighted": 4564,
  "▁slightly": 4565,
  "▁solitude": 4566,
  "▁steadily": 4567,
  "▁studying": 4568,
  "▁summoned": 4569,
  "▁superint": 4570,
  "▁sweetest": 4571,
  "▁thanking": 4572,
  "▁unfolded": 4573,
  "▁unworthy": 4574,
  "▁ventured": 4575,
  "▁violence": 4576,
  "▁withheld": 4577,
  "▁yielding": 4578,
  "▁advisable": 4579,
  "▁agreement": 4580,
  "▁announced": 4581,
  "▁answering": 4582,
  "▁ascertain": 4583,
  "▁assertion": 4584,
  "▁attribute": 4585,
  "▁beholding": 4586,
  "▁carefully": 4587,
  "▁collected": 4588,
  "▁colouring": 4589,
  "▁complying": 4590,
  "▁confessed": 4591,
  "▁conscious": 4592,
  "▁consoling": 4593,
  "▁contented": 4594,
  "▁creatures": 4595,
  "▁dejection": 4596,
  "▁dependent": 4597,
  "▁descended": 4598,
  "▁despaired": 4599,
  "▁displayed": 4600,
  "▁diversion": 4601,
  "▁examining": 4602,
  "▁excessive": 4603,
  "▁existence": 4604,
  "▁frivolous": 4605,
  "▁handsomer": 4606,
  "▁hereafter": 4607,
  "▁hesitated": 4608,
  "▁housemaid": 4609,
  "▁imaginary": 4610,
  "▁instances": 4611,
  "▁interrupt": 4612,
  "▁interview": 4613,
  "▁intrusion": 4614,
  "▁liveliest": 4615,
  "▁misrepres": 4616,
  "▁mortified": 4617,
  "▁newcastle": 4618,
  "▁objecting": 4619,
  "▁obstinate": 4620,
  "▁offending": 4621,
  "▁officious": 4622,
  "▁patronage": 4623,
  "▁preaching": 4624,
  "▁preceding": 4625,
  "▁preparing": 4626,
  "▁privately": 4627,
  "▁procuring": 4628,
  "▁promising": 4629,
  "▁quadrille": 4630,
  "▁quartered": 4631,
  "▁quickness": 4632,
  "▁respected": 4633,
  "▁separated": 4634,
  "▁shrubbery": 4635,
  "▁simpleton": 4636,
  "▁sincerity": 4637,
  "▁stationed": 4638,
  "▁strangers": 4639,
  "▁struggles": 4640,
  "▁suggested": 4641,
  "▁sweetness": 4642,
  "▁uncertain": 4643,
  "▁unguarded": 4644,
  "▁unhappily": 4645,
  "▁uniformly": 4646,
  "▁unluckily": 4647,
  "▁voluntary": 4648,
  "▁wandering": 4649,
  "▁whichever": 4650,
  "▁withdrawn": 4651,
  "▁witnessed": 4652,
  "▁abundantly": 4653,
  "▁accidental": 4654,
  "▁amusements": 4655,
  "▁approached": 4656,
  "▁authorized": 4657,
  "▁calculated": 4658,
  "▁complaints": 4659,
  "▁composedly": 4660,
  "▁consistent": 4661,
  "▁convenient": 4662,
  "▁cordiality": 4663,
  "▁diffidence": 4664,
  "▁discharged": 4665,
  "▁disengaged": 4666,
  "▁disrespect": 4667,
  "▁distracted": 4668,
  "▁entreaties": 4669,
  "▁excellence": 4670,
  "▁exclaiming": 4671,
  "▁flattering": 4672,
  "▁gentleness": 4673,
  "▁hesitation": 4674,
  "▁incivility": 4675,
  "▁incredible": 4676,
  "▁insensible": 4677,
  "▁intentions": 4678,
  "▁invaluable": 4679,
  "▁irritation": 4680,
  "▁management": 4681,
  "▁meditating": 4682,
  "▁melancholy": 4683,
  "▁occasioned": 4684,
  "▁overspread": 4685,
  "▁overthrown": 4686,
  "▁pleasanter": 4687,
  "▁pretending": 4688,
  "▁privileged": 4689,
  "▁protesting": 4690,
  "▁punishment": 4691,
  "▁questioned": 4692,
  "▁reputation": 4693,
  "▁resolutely": 4694,
  "▁respecting": 4695,
  "▁ridiculous": 4696,
  "▁salutation": 4697,
  "▁sensations": 4698,
  "▁successful": 4699,
  "▁sufficient": 4700,
  "▁suspicions": 4701,
  "▁tenderness": 4702,
  "▁ungenerous": 4703,
  "▁whispering": 4704,
  "▁accusations": 4705,
  "▁affectation": 4706,
  "▁alternative": 4707,
  "▁anticipated": 4708,
  "▁apologizing": 4709,
  "▁awkwardness": 4710,
  "▁communicate": 4711,
  "▁competition": 4712,
  "▁continuance": 4713,
  "▁contrivance": 4714,
  "▁effectually": 4715,
  "▁employments": 4716,
  "▁examination": 4717,
  "▁impropriety": 4718,
  "▁incredulity": 4719,
  "▁incredulous": 4720,
  "▁inferiority": 4721,
  "▁intolerable": 4722,
  "▁obligations": 4723,
  "▁occurrences": 4724,
  "▁pretensions": 4725,
  "▁quarrelling": 4726,
  "▁regimentals": 4727,
  "▁remembrance": 4728,
  "▁thoughtless": 4729,
  "▁undeserving": 4730,
  "▁universally": 4731,
  "▁unnecessary": 4732,
  "▁unwillingly": 4733,
  "▁complaisance": 4734,
  "▁comprehended": 4735,
  "▁disconcerted": 4736,
  "▁endeavouring": 4737,
  "▁extravagance": 4738,
  "▁guardianship": 4739,
  "▁inconvenient": 4740,
  "▁instructions": 4741,
  "▁intelligible": 4742,
  "▁lamentations": 4743,
  "▁perseverance": 4744,
  "▁perverseness": 4745,
  "▁pleasantness": 4746,
  "▁sufficiently": 4747,
  "▁suitableness": 4748,
  "▁unexpectedly": 4749,
  "▁comparatively": 4750,
  "▁contemplation": 4751,
  "▁determination": 4752,
  "▁insupportable": 4753,
  "▁misunderstood": 4754,
  "▁objectionable": 4755,
  "▁reprehensible": 4756,
  "▁acknowledgment": 4757,
  "▁affectionately": 4758,
  "▁insignificance": 4759,
  "▁thoughtlessness": 4760,
  "ax": 4761,
  "cd": 4762,
  "do": 4763,
  "fa": 4764,
  "fl": 4765,
  "fy": 4766,
  "go": 4767,
  "ks": 4768,
  "pi": 4769,
  "sc": 4770,
  "ys": 4771,
  "agg": 4772,
  "aid": 4773,
  "ale": 4774,
  "ano": 4775,
  "anv": 4776,
  "ari": 4777,
  "bar": 4778,
  "cal": 4779,
  "cks": 4780,
  "cts": 4781,
  "eat": 4782,
  "eev": 4783,
  "egr": 4784,
  "ele": 4785,
  "els": 4786,
  "erf": 4787,
  "erg": 4788,
  "eri": 4789,
  "eur": 4790,
  "gam": 4791,
  "ier": 4792,
  "ift": 4793,
  "ipt": 4794,
  "kon": 4795,
  "lac": 4796,
  "let": 4797,
  "mit": 4798,
  "nal": 4799,
  "nat": 4800,
  "ony": 4801,
  "oof": 4802,
  "na": 4803,
  "dig": 4804,
  "oon": 4805,
  "org": 4806,
  "ork": 4807,
  "osp": 4808,
  "oss": 4809,
  "ram": 4810,
  "say": 4811,
  "tel": 4812,
  "tle": 4813,
  "tur": 4814,
  "ugn": 4815,
  "zen": 4816,
  "zes": 4817,
  "▁ba": 4818,
  "▁kn": 4819,
  "▁sk": 4820,
  "alid": 4821,
  "anks": 4822,
  "ante": 4823,
  "areh": 4824,
  "asol": 4825,
  "back": 4826,
  "bare": 4827,
  "came": 4828,
  "case": 4829,
  "ches": 4830,
  "cili": 4831,
  "cond": 4832,
  "dary": 4833,
  "eded": 4834,
  "eeks": 4835,
  "eeps": 4836,
  "eleb": 4837,
  "fted": 4838,
  "gies": 4839,
  "gued": 4840,
  "ical": 4841,
  "idow": 4842,
  "imed": 4843,
  "incl": 4844,
  "irma": 4845,
  "ites": 4846,
  "ival": 4847,
  "ives": 4848,
  "kind": 4849,
  "lead": 4850,
  "levi": 4851,
  "limp": 4852,
  "live": 4853,
  "lock": 4854,
  "lord": 4855,
  "medy": 4856,
  "necd": 4857,
  "oral": 4858,
  "orms": 4859,
  "oser": 4860,
  "osom": 4861,
  "oted": 4862,
  "outs": 4863,
  "plex": 4864,
  "pper": 4865,
  "psed": 4866,
  "rect": 4867,
  "ript": 4868,
  "rude": 4869,
  "sett": 4870,
  "sted": 4871,
  "stri": 4872,
  "teur": 4873,
  "uing": 4874,
  "ural": 4875,
  "uses": 4876,
  "zzle": 4877,
  "▁adh": 4878,
  "▁anc": 4879,
  "▁ant": 4880,
  "▁ate": 4881,
  "▁awe": 4882,
  "▁daw": 4883,
  "▁dil": 4884,
  "▁duc": 4885,
  "▁dul": 4886,
  "▁eti": 4887,
  "▁fru": 4888,
  "▁inm": 4889,
  "▁lag": 4890,
  "▁lik": 4891,
  "▁loo": 4892,
  "▁lot": 4893,
  "▁nor": 4894,
  "▁oak": 4895,
  "▁ost": 4896,
  "▁pad": 4897,
  "▁pet": 4898,
  "▁poc": 4899,
  "▁rob": 4900,
  "▁rud": 4901,
  "▁sch": 4902,
  "evol": 4903,
  "▁sed": 4904,
  "▁sne": 4905,
  "▁sol": 4906,
  "▁tid": 4907,
  "▁tum": 4908,
  "▁unb": 4909,
  "▁wat": 4910,
  "acing": 4911,
  "acken": 4912,
  "acles": 4913,
  "agger": 4914,
  "alice": 4915,
  "alous": 4916,
  "anegy": 4917,
  "asted": 4918,
  "attle": 4919,
  "avour": 4920,
  "cibly": 4921,
  "edged": 4922,
  "enetr": 4923,
  "ensed": 4924,
  "enses": 4925,
  "ereab": 4926,
  "erity": 4927,
  "erver": 4928,
  "essed": 4929,
  "forte": 4930,
  "iency": 4931,
  "ienti": 4932,
  "ighed": 4933,
  "ighth": 4934,
  "ilial": 4935,
  "imony": 4936,
  "isite": 4937,
  "istic": 4938,
  "izing": 4939,
  "ketch": 4940,
  "onsid": 4941,
  "ories": 4942,
  "ortal": 4943,
  "ortra": 4944,
  "osted": 4945,
  "press": 4946,
  "pside": 4947,
  "raced": 4948,
  "retch": 4949,
  "ridge": 4950,
  "round": 4951,
  "royed": 4952,
  "teous": 4953,
  "tered": 4954,
  "thern": 4955,
  "ulted": 4956,
  "urous": 4957,
  "usive": 4958,
  "velop": 4959,
  "verty": 4960,
  "while": 4961,
  "woman": 4962,
  "worth": 4963,
  "▁army": 4964,
  "▁awak": 4965,
  "▁blue": 4966,
  "▁bold": 4967,
  "▁bows": 4968,
  "▁boys": 4969,
  "▁brit": 4970,
  "▁burn": 4971,
  "▁chat": 4972,
  "▁chin": 4973,
  "▁conj": 4974,
  "▁conn": 4975,
  "▁cook": 4976,
  "▁drop": 4977,
  "▁duti": 4978,
  "▁earl": 4979,
  "▁emin": 4980,
  "▁enab": 4981,
  "▁envy": 4982,
  "▁fain": 4983,
  "▁fare": 4984,
  "▁fate": 4985,
  "▁ferv": 4986,
  "▁fing": 4987,
  "▁foot": 4988,
  "▁gain": 4989,
  "▁genu": 4990,
  "▁glan": 4991,
  "▁glow": 4992,
  "▁gret": 4993,
  "▁guid": 4994,
  "▁hack": 4995,
  "▁hair": 4996,
  "▁hosp": 4997,
  "▁hurt": 4998,
  "▁immo": 4999,
  "▁joke": 5000,
  "▁jump": 5001,
  "▁lieu": 5002,
  "ape": 5003,
  "dock": 5004,
  "▁tax": 5005,
  "iddle": 5006,
  "▁canv": 5007,
  "▁curt": 5008,
  "▁enem": 5009,
  "▁loud": 5010,
  "▁mill": 5011,
  "▁ming": 5012,
  "▁musl": 5013,
  "▁nine": 5014,
  "▁noon": 5015,
  "▁owes": 5016,
  "▁pair": 5017,
  "▁pale": 5018,
  "▁peev": 5019,
  "▁piqu": 5020,
  "▁poll": 5021,
  "▁pred": 5022,
  "▁prof": 5023,
  "▁prot": 5024,
  "▁pure": 5025,
  "▁reel": 5026,
  "▁rise": 5027,
  "▁rude": 5028,
  "▁save": 5029,
  "▁secl": 5030,
  "▁smil": 5031,
  "▁sons": 5032,
  "▁soul": 5033,
  "▁stir": 5034,
  "▁tide": 5035,
  "▁trim": 5036,
  "▁ugly": 5037,
  "▁unab": 5038,
  "▁unac": 5039,
  "▁unal": 5040,
  "▁unav": 5041,
  "▁unde": 5042,
  "▁undo": 5043,
  "▁unsh": 5044,
  "▁unsu": 5045,
  "▁vari": 5046,
  "▁vind": 5047,
  "▁will": 5048,
  "▁wine": 5049,
  "▁wore": 5050,
  "▁worn": 5051,
  "antial": 5052,
  "atible": 5053,
  "eeling": 5054,
  "eeping": 5055,
  "egrity": 5056,
  "elcome": 5057,
  "enious": 5058,
  "enture": 5059,
  "ergone": 5060,
  "ervalu": 5061,
  "ession": 5062,
  "father": 5063,
  "ffness": 5064,
  "gammon": 5065,
  "gments": 5066,
  "idable": 5067,
  "idious": 5068,
  "igning": 5069,
  "ilding": 5070,
  "ilette": 5071,
  "illity": 5072,
  "iously": 5073,
  "itance": 5074,
  "itched": 5075,
  "limpse": 5076,
  "mation": 5077,
  "ounted": 5078,
  "owered": 5079,
  "perate": 5080,
  "quette": 5081,
  "ribute": 5082,
  "ricate": 5083,
  "rietor": 5084,
  "ruding": 5085,
  "script": 5086,
  "tively": 5087,
  "tivity": 5088,
  "uctant": 5089,
  "umbent": 5090,
  "urious": 5091,
  "urring": 5092,
  "ustice": 5093,
  "vedale": 5094,
  "warded": 5095,
  "▁abuse": 5096,
  "▁accur": 5097,
  "▁acute": 5098,
  "▁alike": 5099,
  "▁aloof": 5100,
  "▁ample": 5101,
  "▁anecd": 5102,
  "▁annum": 5103,
  "▁awful": 5104,
  "▁banks": 5105,
  "▁bears": 5106,
  "▁begun": 5107,
  "▁birds": 5108,
  "▁bosom": 5109,
  "▁bound": 5110,
  "▁brink": 5111,
  "▁broke": 5112,
  "▁burst": 5113,
  "▁celeb": 5114,
  "▁class": 5115,
  "▁conqu": 5116,
  "▁copse": 5117,
  "▁crown": 5118,
  "▁dated": 5119,
  "▁dirty": 5120,
  "▁dissu": 5121,
  "▁dozen": 5122,
  "▁dwell": 5123,
  "▁edged": 5124,
  "▁excel": 5125,
  "▁exhib": 5126,
  "▁faint": 5127,
  "▁feels": 5128,
  "▁fever": 5129,
  "▁fight": 5130,
  "▁forth": 5131,
  "▁gaily": 5132,
  "▁gates": 5133,
  "▁glass": 5134,
  "▁gowns": 5135,
  "▁guide": 5136,
  "▁hates": 5137,
  "▁hence": 5138,
  "▁incur": 5139,
  "▁indec": 5140,
  "▁infli": 5141,
  "▁injun": 5142,
  "▁insip": 5143,
  "▁keeps": 5144,
  "▁leads": 5145,
  "▁loves": 5146,
  "▁manor": 5147,
  "▁march": 5148,
  "▁marks": 5149,
  "▁mirth": 5150,
  "▁noise": 5151,
  "▁numer": 5152,
  "▁older": 5153,
  "▁owner": 5154,
  "▁pales": 5155,
  "▁piano": 5156,
  "▁plant": 5157,
  "▁pratt": 5158,
  "▁price": 5159,
  "▁prone": 5160,
  "▁range": 5161,
  "▁reali": 5162,
  "▁regul": 5163,
  "▁retro": 5164,
  "▁rever": 5165,
  "▁rival": 5166,
  "▁sakes": 5167,
  "▁satin": 5168,
  "▁saved": 5169,
  "▁scand": 5170,
  "▁seats": 5171,
  "▁serve": 5172,
  "▁seven": 5173,
  "▁shade": 5174,
  "▁shape": 5175,
  "▁skill": 5176,
  "▁slave": 5177,
  "▁smart": 5178,
  "▁spots": 5179,
  "▁stair": 5180,
  "▁stone": 5181,
  "▁storm": 5182,
  "▁tease": 5183,
  "▁theat": 5184,
  "▁trade": 5185,
  "▁treas": 5186,
  "▁tremb": 5187,
  "▁trial": 5188,
  "▁turns": 5189,
  "▁unass": 5190,
  "▁unfit": 5191,
  "▁unnat": 5192,
  "▁unpro": 5193,
  "▁unres": 5194,
  "▁upper": 5195,
  "▁usage": 5196,
  "▁vague": 5197,
  "▁wareh": 5198,
  "▁water": 5199,
  "▁white": 5200,
  "▁widow": 5201,
  "▁wiser": 5202,
  "▁woody": 5203,
  "adesman": 5204,
  "attered": 5205,
  "changed": 5206,
  "cilious": 5207,
  "ciously": 5208,
  "conduct": 5209,
  "entials": 5210,
  "entment": 5211,
  "ipation": 5212,
  "itality": 5213,
  "lliancy": 5214,
  "plexity": 5215,
  "settled": 5216,
  "tentive": 5217,
  "ularity": 5218,
  "umption": 5219,
  "urrence": 5220,
  "ustomed": 5221,
  "▁absurd": 5222,
  "▁abused": 5223,
  "▁active": 5224,
  "▁actual": 5225,
  "▁adieus": 5226,
  "▁allevi": 5227,
  "▁appeal": 5228,
  "▁appreh": 5229,
  "▁around": 5230,
  "▁arrive": 5231,
  "▁avowed": 5232,
  "▁barbar": 5233,
  "▁barnet": 5234,
  "▁befall": 5235,
  "▁begins": 5236,
  "▁behalf": 5237,
  "▁behave": 5238,
  "▁beheld": 5239,
  "▁borrow": 5240,
  "▁bottle": 5241,
  "▁branch": 5242,
  "▁busily": 5243,
  "▁caring": 5244,
  "▁charms": 5245,
  "▁cheeks": 5246,
  "▁coldly": 5247,
  "▁comply": 5248,
  "▁convey": 5249,
  "▁coolly": 5250,
  "▁corrob": 5251,
  "▁crying": 5252,
  "▁custom": 5253,
  "▁daring": 5254,
  "▁deeply": 5255,
  "▁derive": 5256,
  "▁desert": 5257,
  "▁despic": 5258,
  "▁disput": 5259,
  "▁divide": 5260,
  "▁doings": 5261,
  "▁double": 5262,
  "▁easter": 5263,
  "▁eating": 5264,
  "▁ensign": 5265,
  "▁errors": 5266,
  "▁expedi": 5267,
  "▁experi": 5268,
  "▁fairly": 5269,
  "▁fallen": 5270,
  "▁filial": 5271,
  "▁finest": 5272,
  "▁flying": 5273,
  "▁fonder": 5274,
  "▁fourth": 5275,
  "▁gather": 5276,
  "▁godson": 5277,
  "▁gratul": 5278,
  "▁gravel": 5279,
  "▁gretna": 5280,
  "▁guided": 5281,
  "▁handed": 5282,
  "▁hearty": 5283,
  "▁hereab": 5284,
  "▁illust": 5285,
  "▁imperf": 5286,
  "▁implac": 5287,
  "▁impose": 5288,
  "▁incomp": 5289,
  "▁injure": 5290,
  "▁insure": 5291,
  "▁intend": 5292,
  "▁interp": 5293,
  "▁invent": 5294,
  "▁joyful": 5295,
  "▁justly": 5296,
  "▁kissed": 5297,
  "▁lagged": 5298,
  "▁laying": 5299,
  "▁lesson": 5300,
  "▁liable": 5301,
  "▁lifted": 5302,
  "▁liking": 5303,
  "▁livery": 5304,
  "▁lodges": 5305,
  "▁malice": 5306,
  "▁manage": 5307,
  "▁mantel": 5308,
  "▁market": 5309,
  "▁merits": 5310,
  "▁middle": 5311,
  "▁modern": 5312,
  "▁mortal": 5313,
  "▁mouths": 5314,
  "▁needed": 5315,
  "▁neglig": 5316,
  "▁nerves": 5317,
  "▁nnight": 5318,
  "▁obeyed": 5319,
  "▁obsequ": 5320,
  "▁offend": 5321,
  "▁ostent": 5322,
  "▁overfl": 5323,
  "▁paling": 5324,
  "▁paltry": 5325,
  "▁panegy": 5326,
  "▁parade": 5327,
  "▁parent": 5328,
  "▁partly": 5329,
  "▁pauses": 5330,
  "▁penetr": 5331,
  "▁pertur": 5332,
  "▁pieces": 5333,
  "▁pitied": 5334,
  "▁pocket": 5335,
  "▁poetry": 5336,
  "▁polite": 5337,
  "▁portra": 5338,
  "▁premed": 5339,
  "▁prodig": 5340,
  "▁puzzle": 5341,
  "▁ramble": 5342,
  "▁rattle": 5343,
  "▁reckon": 5344,
  "▁remedy": 5345,
  "▁remove": 5346,
  "▁render": 5347,
  "▁repaid": 5348,
  "▁repugn": 5349,
  "▁restor": 5350,
  "▁review": 5351,
  "▁ruined": 5352,
  "▁scenes": 5353,
  "▁school": 5354,
  "▁scotch": 5355,
  "▁screen": 5356,
  "▁seized": 5357,
  "▁senses": 5358,
  "▁shaken": 5359,
  "▁sketch": 5360,
  "▁sorrow": 5361,
  "▁speaks": 5362,
  "▁sphere": 5363,
  "▁sports": 5364,
  "▁stated": 5365,
  "▁strenu": 5366,
  "▁stroke": 5367,
  "▁suited": 5368,
  "▁teased": 5369,
  "▁thread": 5370,
  "▁threat": 5371,
  "▁trifle": 5372,
  "▁tumult": 5373,
  "▁turnpi": 5374,
  "▁uncons": 5375,
  "▁undert": 5376,
  "▁unfelt": 5377,
  "▁unforg": 5378,
  "▁waiter": 5379,
  "▁walker": 5380,
  "▁wealth": 5381,
  "▁whence": 5382,
  "▁worked": 5383,
  "▁writer": 5384,
  "evolence": 5385,
  "ighthood": 5386,
  "irmative": 5387,
  "robinson": 5388,
  "untarily": 5389,
  "▁abusive": 5390,
  "▁accents": 5391,
  "▁accused": 5392,
  "▁acquies": 5393,
  "▁admires": 5394,
  "▁amazing": 5395,
  "▁apology": 5396,
  "▁article": 5397,
  "▁attacks": 5398,
  "▁bathing": 5399,
  "▁begging": 5400,
  "▁behaves": 5401,
  "▁belongs": 5402,
  "▁benefic": 5403,
  "▁blinded": 5404,
  "▁capital": 5405,
  "▁ceremon": 5406,
  "▁claimed": 5407,
  "▁cleared": 5408,
  "▁clearly": 5409,
  "▁closest": 5410,
  "▁compose": 5411,
  "▁condole": 5412,
  "▁consult": 5413,
  "▁courses": 5414,
  "▁courted": 5415,
  "▁covered": 5416,
  "▁cruelly": 5417,
  "▁daresay": 5418,
  "▁decease": 5419,
  "▁decline": 5420,
  "▁defined": 5421,
  "▁designs": 5422,
  "▁despise": 5423,
  "▁develop": 5424,
  "▁dinners": 5425,
  "▁discuss": 5426,
  "▁disincl": 5427,
  "▁dispute": 5428,
  "▁driving": 5429,
  "▁endless": 5430,
  "▁engross": 5431,
  "▁exagger": 5432,
  "▁excuses": 5433,
  "▁exerted": 5434,
  "▁failing": 5435,
  "▁fainter": 5436,
  "▁falling": 5437,
  "▁favours": 5438,
  "▁feather": 5439,
  "▁fellows": 5440,
  "▁fingers": 5441,
  "▁firmest": 5442,
  "▁footing": 5443,
  "▁forming": 5444,
  "▁gallery": 5445,
  "▁genteel": 5446,
  "▁genuine": 5447,
  "▁glimpse": 5448,
  "▁gratify": 5449,
  "▁gravity": 5450,
  "▁hackney": 5451,
  "▁happens": 5452,
  "▁happier": 5453,
  "▁hauteur": 5454,
  "▁holding": 5455,
  "▁illness": 5456,
  "▁imputed": 5457,
  "▁induced": 5458,
  "▁indulge": 5459,
  "▁infancy": 5460,
  "▁inspire": 5461,
  "▁instinc": 5462,
  "▁intrude": 5463,
  "▁involve": 5464,
  "▁liberal": 5465,
  "▁licence": 5466,
  "▁longing": 5467,
  "▁matlock": 5468,
  "▁merited": 5469,
  "▁message": 5470,
  "▁mislead": 5471,
  "▁nearest": 5472,
  "▁nephews": 5473,
  "▁notions": 5474,
  "▁outstri": 5475,
  "▁paddock": 5476,
  "▁parasol": 5477,
  "▁passage": 5478,
  "▁passion": 5479,
  "▁pausing": 5480,
  "▁peevish": 5481,
  "▁pitiful": 5482,
  "▁placing": 5483,
  "▁playful": 5484,
  "▁pledged": 5485,
  "▁portion": 5486,
  "▁poverty": 5487,
  "▁praises": 5488,
  "▁preposs": 5489,
  "▁prevail": 5490,
  "▁project": 5491,
  "▁purport": 5492,
  "▁pursued": 5493,
  "▁quality": 5494,
  "▁quarrel": 5495,
  "▁quickly": 5496,
  "▁raising": 5497,
  "▁rapidly": 5498,
  "▁rapture": 5499,
  "▁receipt": 5500,
  "▁recital": 5501,
  "▁refrain": 5502,
  "▁regrets": 5503,
  "▁repress": 5504,
  "▁reputed": 5505,
  "▁resolve": 5506,
  "▁retreat": 5507,
  "▁rightly": 5508,
  "▁scarlet": 5509,
  "▁seeming": 5510,
  "▁setting": 5511,
  "▁shaking": 5512,
  "▁sharing": 5513,
  "▁shyness": 5514,
  "▁singing": 5515,
  "▁singled": 5516,
  "▁special": 5517,
  "▁stretch": 5518,
  "▁studies": 5519,
  "▁surmise": 5520,
  "▁surpass": 5521,
  "▁tenants": 5522,
  "▁thereby": 5523,
  "▁thirdly": 5524,
  "▁tidings": 5525,
  "▁varying": 5526,
  "▁village": 5527,
  "▁visible": 5528,
  "▁winking": 5529,
  "▁worldly": 5530,
  "avourable": 5531,
  "enetrably": 5532,
  "onourable": 5533,
  "▁abruptly": 5534,
  "▁accosted": 5535,
  "▁accounts": 5536,
  "▁activity": 5537,
  "▁admiring": 5538,
  "▁affinity": 5539,
  "▁agreeing": 5540,
  "▁alliance": 5541,
  "▁anecdote": 5542,
  "▁ardently": 5543,
  "▁arrested": 5544,
  "▁assented": 5545,
  "▁astonish": 5546,
  "▁audience": 5547,
  "▁avoiding": 5548,
  "▁awakened": 5549,
  "▁belonged": 5550,
  "▁bordered": 5551,
  "▁boundary": 5552,
  "▁brothers": 5553,
  "▁building": 5554,
  "▁carrying": 5555,
  "▁censured": 5556,
  "▁checking": 5557,
  "▁compared": 5558,
  "▁conclude": 5559,
  "▁conquest": 5560,
  "▁consoled": 5561,
  "▁converse": 5562,
  "▁conveyed": 5563,
  "▁covering": 5564,
  "▁decisive": 5565,
  "▁derision": 5566,
  "▁detached": 5567,
  "▁detained": 5568,
  "▁detected": 5569,
  "▁dilatory": 5570,
  "▁disliked": 5571,
  "▁doubting": 5572,
  "▁dovedale": 5573,
  "▁effusion": 5574,
  "▁eloquent": 5575,
  "▁evenness": 5576,
  "▁existing": 5577,
  "▁expenses": 5578,
  "▁extended": 5579,
  "▁extracts": 5580,
  "▁fashions": 5581,
  "▁fatigued": 5582,
  "▁feverish": 5583,
  "▁forcibly": 5584,
  "▁foreseen": 5585,
  "▁gaieties": 5586,
  "▁gardener": 5587,
  "▁glancing": 5588,
  "▁governed": 5589,
  "▁grandeur": 5590,
  "▁guidance": 5591,
  "▁hesitate": 5592,
  "▁hitherto": 5593,
  "▁idleness": 5594,
  "▁implicit": 5595,
  "▁incensed": 5596,
  "▁indirect": 5597,
  "▁indulged": 5598,
  "▁innocent": 5599,
  "▁insolent": 5600,
  "▁inspired": 5601,
  "▁intently": 5602,
  "▁inviting": 5603,
  "▁landlord": 5604,
  "▁likeness": 5605,
  "▁listener": 5606,
  "▁maternal": 5607,
  "▁meantime": 5608,
  "▁meditate": 5609,
  "▁meetings": 5610,
  "▁mischief": 5611,
  "▁mistakes": 5612,
  "▁neatness": 5613,
  "▁northern": 5614,
  "▁numerous": 5615,
  "▁observer": 5616,
  "▁offences": 5617,
  "▁overcame": 5618,
  "▁passages": 5619,
  "▁pictures": 5620,
  "▁planning": 5621,
  "▁politely": 5622,
  "▁practice": 5623,
  "▁predomin": 5624,
  "▁presents": 5625,
  "▁pretence": 5626,
  "▁prettier": 5627,
  "▁pursuing": 5628,
  "▁quarters": 5629,
  "▁raptures": 5630,
  "▁reaching": 5631,
  "▁recalled": 5632,
  "▁recovery": 5633,
  "▁regarded": 5634,
  "▁regulars": 5635,
  "▁renewing": 5636,
  "▁repaired": 5637,
  "▁repining": 5638,
  "▁replying": 5639,
  "▁reserves": 5640,
  "▁retained": 5641,
  "▁revealed": 5642,
  "▁rewarded": 5643,
  "▁rudeness": 5644,
  "▁scruples": 5645,
  "▁secondly": 5646,
  "▁secretly": 5647,
  "▁sensibly": 5648,
  "▁settling": 5649,
  "▁signific": 5650,
  "▁singular": 5651,
  "▁solidity": 5652,
  "▁solitary": 5653,
  "▁speeches": 5654,
  "▁stopping": 5655,
  "▁striking": 5656,
  "▁striving": 5657,
  "▁suitable": 5658,
  "▁supplied": 5659,
  "▁surround": 5660,
  "▁symptoms": 5661,
  "▁tendency": 5662,
  "▁tenderly": 5663,
  "▁throwing": 5664,
  "▁tiresome": 5665,
  "▁toilette": 5666,
  "▁unjustly": 5667,
  "▁vanished": 5668,
  "▁veracity": 5669,
  "▁wilfully": 5670,
  "▁wounding": 5671,
  "▁accompany": 5672,
  "▁accounted": 5673,
  "▁admirable": 5674,
  "▁adventure": 5675,
  "▁affording": 5676,
  "▁affronted": 5677,
  "▁agreeably": 5678,
  "▁allowance": 5679,
  "▁anxiously": 5680,
  "▁apologies": 5681,
  "▁assisting": 5682,
  "▁atonement": 5683,
  "▁attracted": 5684,
  "▁bordering": 5685,
  "▁brotherly": 5686,
  "▁cheapside": 5687,
  "▁christian": 5688,
  "▁comparing": 5689,
  "▁concisely": 5690,
  "▁condemned": 5691,
  "▁conducted": 5692,
  "▁confident": 5693,
  "▁confirmed": 5694,
  "▁consented": 5695,
  "▁consisted": 5696,
  "▁continual": 5697,
  "▁contrived": 5698,
  "▁cordially": 5699,
  "▁courtship": 5700,
  "▁deception": 5701,
  "▁deserving": 5702,
  "▁despising": 5703,
  "▁destroyed": 5704,
  "▁directing": 5705,
  "▁discharge": 5706,
  "▁discussed": 5707,
  "▁disdained": 5708,
  "▁disgusted": 5709,
  "▁dismissed": 5710,
  "▁disturbed": 5711,
  "▁doubtless": 5712,
  "▁duplicity": 5713,
  "▁dutifully": 5714,
  "▁effusions": 5715,
  "▁embracing": 5716,
  "▁entreated": 5717,
  "▁essential": 5718,
  "▁establish": 5719,
  "▁estimable": 5720,
  "▁etiquette": 5721,
  "▁excepting": 5722,
  "▁exception": 5723,
  "▁expedient": 5724,
  "▁formality": 5725,
  "▁forwarded": 5726,
  "▁gouldings": 5727,
  "▁greatness": 5728,
  "▁hastening": 5729,
  "▁horseback": 5730,
  "▁immovable": 5731,
  "▁impartial": 5732,
  "▁impudence": 5733,
  "▁including": 5734,
  "▁incumbent": 5735,
  "▁indignity": 5736,
  "▁inexpress": 5737,
  "▁informing": 5738,
  "▁ingenious": 5739,
  "▁injurious": 5740,
  "▁injustice": 5741,
  "▁integrity": 5742,
  "▁intervals": 5743,
  "▁intricate": 5744,
  "▁intruding": 5745,
  "▁irritable": 5746,
  "▁liberally": 5747,
  "▁malicious": 5748,
  "▁meanwhile": 5749,
  "▁meditated": 5750,
  "▁momentary": 5751,
  "▁mountains": 5752,
  "▁northward": 5753,
  "▁obstacles": 5754,
  "▁obstinacy": 5755,
  "▁offensive": 5756,
  "▁oppressed": 5757,
  "▁ornaments": 5758,
  "▁overheard": 5759,
  "▁overpower": 5760,
  "▁overthrow": 5761,
  "▁panegyric": 5762,
  "▁performer": 5763,
  "▁persisted": 5764,
  "▁philipses": 5765,
  "▁possessed": 5766,
  "▁possessor": 5767,
  "▁preferred": 5768,
  "▁presented": 5769,
  "▁presently": 5770,
  "▁pretended": 5771,
  "▁privilege": 5772,
  "▁pronounce": 5773,
  "▁provision": 5774,
  "▁provoking": 5775,
  "▁purchases": 5776,
  "▁qualified": 5777,
  "▁rapturous": 5778,
  "▁readiness": 5779,
  "▁recurring": 5780,
  "▁rejecting": 5781,
  "▁reluctant": 5782,
  "▁requiring": 5783,
  "▁retaining": 5784,
  "▁scattered": 5785,
  "▁sensation": 5786,
  "▁sharpened": 5787,
  "▁sheltered": 5788,
  "▁smilingly": 5789,
  "▁staircase": 5790,
  "▁statement": 5791,
  "▁steadfast": 5792,
  "▁stiffness": 5793,
  "▁substance": 5794,
  "▁suffering": 5795,
  "▁testimony": 5796,
  "▁tradesman": 5797,
  "▁undergone": 5798,
  "▁undervalu": 5799,
  "▁unfeeling": 5800,
  "▁universal": 5801,
  "▁unnatural": 5802,
  "▁unsettled": 5803,
  "▁unwelcome": 5804,
  "▁variation": 5805,
  "▁vexatious": 5806,
  "▁violently": 5807,
  "▁willingly": 5808,
  "▁wonderful": 5809,
  "▁wondering": 5810,
  "▁worthless": 5811,
  "▁abhorrence": 5812,
  "▁abruptness": 5813,
  "▁acceptance": 5814,
  "▁accustomed": 5815,
  "▁additional": 5816,
  "▁affability": 5817,
  "▁answerable": 5818,
  "▁apartments": 5819,
  "▁apologized": 5820,
  "▁apparently": 5821,
  "▁assertions": 5822,
  "▁attempting": 5823,
  "▁attendance": 5824,
  "▁backgammon": 5825,
  "▁breathless": 5826,
  "▁brilliancy": 5827,
  "▁celebrated": 5828,
  "▁characters": 5829,
  "▁charmingly": 5830,
  "▁cheerfully": 5831,
  "▁collection": 5832,
  "▁compatible": 5833,
  "▁condescend": 5834,
  "▁confession": 5835,
  "▁confidante": 5836,
  "▁confirming": 5837,
  "▁conscienti": 5838,
  "▁constantly": 5839,
  "▁containing": 5840,
  "▁contracted": 5841,
  "▁conversing": 5842,
  "▁deficiency": 5843,
  "▁descending": 5844,
  "▁describing": 5845,
  "▁discourage": 5846,
  "▁displaying": 5847,
  "▁downstairs": 5848,
  "▁endeavours": 5849,
  "▁essentials": 5850,
  "▁exercising": 5851,
  "▁familiarly": 5852,
  "▁fastidious": 5853,
  "▁favourably": 5854,
  "▁flirtation": 5855,
  "▁forgetting": 5856,
  "▁formidable": 5857,
  "▁generality": 5858,
  "▁handsomely": 5859,
  "▁hereabouts": 5860,
  "▁indisposed": 5861,
  "▁individual": 5862,
  "▁inevitable": 5863,
  "▁inheriting": 5864,
  "▁inspection": 5865,
  "▁intimately": 5866,
  "▁knighthood": 5867,
  "▁laughingly": 5868,
  "▁liberality": 5869,
  "▁maintained": 5870,
  "▁misconduct": 5871,
  "▁neglecting": 5872,
  "▁obsequious": 5873,
  "▁opposition": 5874,
  "▁overlooked": 5875,
  "▁perplexity": 5876,
  "▁pianoforte": 5877,
  "▁pleasantry": 5878,
  "▁positively": 5879,
  "▁postscript": 5880,
  "▁preferment": 5881,
  "▁prejudices": 5882,
  "▁prevailing": 5883,
  "▁proprietor": 5884,
  "▁prosperity": 5885,
  "▁prosperous": 5886,
  "▁protection": 5887,
  "▁punctually": 5888,
  "▁rationally": 5889,
  "▁reconciled": 5890,
  "▁refreshing": 5891,
  "▁regardless": 5892,
  "▁regretting": 5893,
  "▁repetition": 5894,
  "▁requesting": 5895,
  "▁resistance": 5896,
  "▁sanctioned": 5897,
  "▁scandalous": 5898,
  "▁soliciting": 5899,
  "▁subsisting": 5900,
  "▁suppressed": 5901,
  "▁suspecting": 5902,
  "▁threadbare": 5903,
  "▁unavailing": 5904,
  "▁unsuitable": 5905,
  "▁warehouses": 5906,
  "▁wickedness": 5907,
  "▁absurdities": 5908,
  "▁affirmative": 5909,
  "▁attentively": 5910,
  "▁benevolence": 5911,
  "▁captivating": 5912,
  "▁chambermaid": 5913,
  "▁circulation": 5914,
  "▁comfortably": 5915,
  "▁concealment": 5916,
  "▁concurrence": 5917,
  "▁conjectured": 5918,
  "▁contentment": 5919,
  "▁convenience": 5920,
  "▁determining": 5921,
  "▁development": 5922,
  "▁discernment": 5923,
  "▁discharging": 5924,
  "▁discomposed": 5925,
  "▁exclamation": 5926,
  "▁experienced": 5927,
  "▁extravagant": 5928,
  "▁forgiveness": 5929,
  "▁fortunately": 5930,
  "▁gratulation": 5931,
  "▁hospitality": 5932,
  "▁humiliation": 5933,
  "▁impatiently": 5934,
  "▁inattention": 5935,
  "▁inattentive": 5936,
  "▁incessantly": 5937,
  "▁instruction": 5938,
  "▁overpowered": 5939,
  "▁penetration": 5940,
  "▁perpetually": 5941,
  "▁playfulness": 5942,
  "▁precipitate": 5943,
  "▁presumption": 5944,
  "▁remembering": 5945,
  "▁resentfully": 5946,
  "▁resignation": 5947,
  "▁restoration": 5948,
  "▁sensibility": 5949,
  "▁significant": 5950,
  "▁strenuously": 5951,
  "▁substantial": 5952,
  "▁temptations": 5953,
  "▁termination": 5954,
  "▁unconcerned": 5955,
  "▁unforgiving": 5956,
  "▁unhappiness": 5957,
  "▁vindication": 5958,
  "▁willingness": 5959,
  "▁wonderfully": 5960,
  "▁accidentally": 5961,
  "▁accompanying": 5962,
  "▁advantageous": 5963,
  "▁anticipating": 5964,
  "▁carelessness": 5965,
  "▁communicated": 5966,
  "▁confirmation": 5967,
  "▁consequences": 5968,
  "▁considerably": 5969,
  "▁discomposure": 5970,
  "▁exclamations": 5971,
  "▁explanations": 5972,
  "▁expressively": 5973,
  "▁housekeeping": 5974,
  "▁hypocritical": 5975,
  "▁impenetrably": 5976,
  "▁inclinations": 5977,
  "▁intermission": 5978,
  "▁interrupting": 5979,
  "▁neighbouring": 5980,
  "▁observations": 5981,
  "▁perturbation": 5982,
  "▁precipitance": 5983,
  "▁preservation": 5984,
  "▁preservative": 5985,
  "▁prodigiously": 5986,
  "▁supercilious": 5987,
  "▁tranquillity": 5988,
  "▁unfavourable": 5989,
  "▁watchfulness": 5990,
  "▁wretchedness": 5991,
  "▁apprehensions": 5992,
  "▁commendations": 5993,
  "▁compassionate": 5994,
  "▁conditionally": 5995,
  "▁congratulated": 5996,
  "▁correspondent": 5997,
  "▁disappointing": 5998,
  "▁dishonourable": 5999,
  "▁expeditiously": 6000,
  "▁instinctively": 6001,
  "▁involuntarily": 6002,
  "▁misunderstand": 6003,
  "▁prepossession": 6004,
  "▁unconsciously": 6005,
  "▁unfortunately": 6006,
  "▁unwillingness": 6007,
  "▁accomplishment": 6008,
  "▁advantageously": 6009,
  "▁characteristic": 6010,
  "▁circumspection": 6011,
  "▁communications": 6012,
  "▁disinclination": 6013,
  "▁distinguishing": 6014,
  "▁inconveniences": 6015,
  "▁misrepresented": 6016,
  "▁qualifications": 6017,
  "▁reconciliation": 6018,
  "▁thoughtfulness": 6019,
  "▁acknowledgments": 6020,
  "af": 6021,
  "ah": 6022,
  "az": 6023,
  "bb": 6024,
  "be": 6025,
  "bo": 6026,
  "bu": 6027,
  "dy": 6028,
  "gs": 6029,
  "he": 6030,
  "hn": 6031,
  "ls": 6032,
  "ob": 6033,
  "ox": 6034,
  "pe": 6035,
  "pl": 6036,
  "xy": 6037,
  "alm": 6038,
  "alo": 6039,
  "amb": 6040,
  "anu": 6041,
  "anz": 6042,
  "ars": 6043,
  "asp": 6044,
  "asy": 6045,
  "atu": 6046,
  "aye": 6047,
  "bag": 6048,
  "bbs": 6049,
  "cha": 6050,
  "cue": 6051,
  "der": 6052,
  "ede": 6053,
  "eni": 6054,
  "equ": 6055,
  "eti": 6056,
  "etu": 6057,
  "euv": 6058,
  "for": 6059,
  "gen": 6060,
  "gib": 6061,
  "gor": 6062,
  "gro": 6063,
  "has": 6064,
  "hau": 6065,
  "hed": 6066,
  "her": 6067,
  "how": 6068,
  "iat": 6069,
  "ids": 6070,
  "idu": 6071,
  "ino": 6072,
  "iqu": 6073,
  "irs": 6074,
  "iss": 6075,
  "ker": 6076,
  "lar": 6077,
  "ldi": 6078,
  "lew": 6079,
  "lex": 6080,
  "log": 6081,
  "men": 6082,
  "nch": 6083,
  "nit": 6084,
  "off": 6085,
  "ogn": 6086,
  "oid": 6087,
  "oke": 6088,
  "oth": 6089,
  "ots": 6090,
  "oxh": 6091,
  "ped": 6092,
  "pes": 6093,
  "pic": 6094,
  "pid": 6095,
  "pon": 6096,
  "pti": 6097,
  "rau": 6098,
  "rim": 6099,
  "ris": 6100,
  "rog": 6101,
  "ruc": 6102,
  "bru": 6103,
  "fil": 6104,
  "iev": 6105,
  "ips": 6106,
  "mme": 6107,
  "run": 6108,
  "saf": 6109,
  "sed": 6110,
  "set": 6111,
  "tes": 6112,
  "the": 6113,
  "uge": 6114,
  "uit": 6115,
  "ulf": 6116,
  "uls": 6117,
  "uly": 6118,
  "unk": 6119,
  "ury": 6120,
  "uss": 6121,
  "uts": 6122,
  "vey": 6123,
  "vis": 6124,
  "vor": 6125,
  "▁cr": 6126,
  "▁ep": 6127,
  "▁it": 6128,
  "▁my": 6129,
  "▁od": 6130,
  "▁om": 6131,
  "▁ox": 6132,
  "▁py": 6133,
  "▁sn": 6134,
  "▁te": 6135,
  "▁ul": 6136,
  "abit": 6137,
  "acit": 6138,
  "akew": 6139,
  "allo": 6140,
  "amor": 6141,
  "arel": 6142,
  "arse": 6143,
  "ased": 6144,
  "aucy": 6145,
  "ault": 6146,
  "bish": 6147,
  "bled": 6148,
  "cale": 6149,
  "ceiv": 6150,
  "cher": 6151,
  "dled": 6152,
  "done": 6153,
  "dure": 6154,
  "eard": 6155,
  "ecom": 6156,
  "edan": 6157,
  "eder": 6158,
  "edge": 6159,
  "enge": 6160,
  "enil": 6161,
  "erce": 6162,
  "erge": 6163,
  "ewer": 6164,
  "ffed": 6165,
  "ffin": 6166,
  "ghts": 6167,
  "gout": 6168,
  "grad": 6169,
  "gues": 6170,
  "hand": 6171,
  "iced": 6172,
  "ilty": 6173,
  "inct": 6174,
  "inea": 6175,
  "inel": 6176,
  "ingt": 6177,
  "inqu": 6178,
  "ints": 6179,
  "iser": 6180,
  "ivor": 6181,
  "leen": 6182,
  "lets": 6183,
  "lorn": 6184,
  "mean": 6185,
  "merg": 6186,
  "mits": 6187,
  "mply": 6188,
  "nees": 6189,
  "noon": 6190,
  "nuts": 6191,
  "ocal": 6192,
  "oeuv": 6193,
  "omic": 6194,
  "onic": 6195,
  "only": 6196,
  "onst": 6197,
  "onym": 6198,
  "orse": 6199,
  "orts": 6200,
  "pers": 6201,
  "pool": 6202,
  "saw": 6203,
  "arke": 6204,
  "city": 6205,
  "dies": 6206,
  "erto": 6207,
  "hold": 6208,
  "oped": 6209,
  "pted": 6210,
  "quel": 6211,
  "rant": 6212,
  "rent": 6213,
  "requ": 6214,
  "rier": 6215,
  "rily": 6216,
  "roar": 6217,
  "roop": 6218,
  "rost": 6219,
  "shly": 6220,
  "sing": 6221,
  "sion": 6222,
  "some": 6223,
  "ssip": 6224,
  "sven": 6225,
  "teen": 6226,
  "tenu": 6227,
  "tish": 6228,
  "tons": 6229,
  "tted": 6230,
  "uctu": 6231,
  "uish": 6232,
  "uled": 6233,
  "umed": 6234,
  "uned": 6235,
  "urel": 6236,
  "vest": 6237,
  "veys": 6238,
  "ware": 6239,
  "xing": 6240,
  "▁aid": 6241,
  "▁amb": 6242,
  "▁asp": 6243,
  "▁bat": 6244,
  "▁cas": 6245,
  "▁cel": 6246,
  "▁coa": 6247,
  "▁cre": 6248,
  "▁cuc": 6249,
  "▁cul": 6250,
  "▁cun": 6251,
  "▁cup": 6252,
  "▁dee": 6253,
  "▁dim": 6254,
  "▁dur": 6255,
  "▁ela": 6256,
  "▁enh": 6257,
  "▁ere": 6258,
  "▁exu": 6259,
  "▁fat": 6260,
  "▁ham": 6261,
  "▁haz": 6262,
  "▁hei": 6263,
  "▁hug": 6264,
  "▁jun": 6265,
  "▁lac": 6266,
  "▁lie": 6267,
  "▁lob": 6268,
  "▁lun": 6269,
  "▁lur": 6270,
  "▁mul": 6271,
  "▁now": 6272,
  "▁obv": 6273,
  "▁pin": 6274,
  "▁pli": 6275,
  "▁pop": 6276,
  "▁por": 6277,
  "▁sag": 6278,
  "▁sam": 6279,
  "▁sar": 6280,
  "▁sea": 6281,
  "▁sen": 6282,
  "▁sle": 6283,
  "▁soo": 6284,
  "▁thr": 6285,
  "▁thw": 6286,
  "▁tor": 6287,
  "▁unt": 6288,
  "▁unv": 6289,
  "▁upb": 6290,
  "▁ven": 6291,
  "▁viv": 6292,
  "▁vow": 6293,
  "▁win": 6294,
  "acted": 6295,
  "ading": 6296,
  "akest": 6297,
  "alian": 6298,
  "alled": 6299,
  "amish": 6300,
  "amped": 6301,
  "amper": 6302,
  "ets": 6303,
  "agon": 6304,
  "felt": 6305,
  "lore": 6306,
  "oton": 6307,
  "pets": 6308,
  "tiny": 6309,
  "uman": 6310,
  "▁apt": 6311,
  "▁but": 6312,
  "▁jot": 6313,
  "▁mag": 6314,
  "▁ral": 6315,
  "anest": 6316,
  "aning": 6317,
  "anish": 6318,
  "arder": 6319,
  "aries": 6320,
  "ashed": 6321,
  "ashes": 6322,
  "assed": 6323,
  "atage": 6324,
  "belie": 6325,
  "ccent": 6326,
  "ceive": 6327,
  "cence": 6328,
  "count": 6329,
  "dable": 6330,
  "dimin": 6331,
  "earch": 6332,
  "eared": 6333,
  "ecary": 6334,
  "echam": 6335,
  "ectly": 6336,
  "ewels": 6337,
  "ffect": 6338,
  "ffers": 6339,
  "groom": 6340,
  "hatic": 6341,
  "icken": 6342,
  "icted": 6343,
  "idate": 6344,
  "ipage": 6345,
  "irest": 6346,
  "ishes": 6347,
  "isome": 6348,
  "ister": 6349,
  "itent": 6350,
  "itful": 6351,
  "itous": 6352,
  "lived": 6353,
  "loved": 6354,
  "moved": 6355,
  "mport": 6356,
  "nable": 6357,
  "nings": 6358,
  "nonym": 6359,
  "oblig": 6360,
  "olved": 6361,
  "omley": 6362,
  "onest": 6363,
  "oried": 6364,
  "oting": 6365,
  "pence": 6366,
  "peron": 6367,
  "quain": 6368,
  "quali": 6369,
  "rimon": 6370,
  "rious": 6371,
  "roach": 6372,
  "rowed": 6373,
  "ssino": 6374,
  "sters": 6375,
  "stood": 6376,
  "tened": 6377,
  "tific": 6378,
  "uling": 6379,
  "unity": 6380,
  "uster": 6381,
  "ustle": 6382,
  "ustre": 6383,
  "utest": 6384,
  "uting": 6385,
  "venge": 6386,
  "▁alas": 6387,
  "▁alth": 6388,
  "▁anew": 6389,
  "▁answ": 6390,
  "▁appo": 6391,
  "▁aton": 6392,
  "▁aust": 6393,
  "▁balm": 6394,
  "▁band": 6395,
  "▁beat": 6396,
  "▁bequ": 6397,
  "▁boul": 6398,
  "▁bowl": 6399,
  "▁cake": 6400,
  "▁cast": 6401,
  "▁chim": 6402,
  "pte": 6403,
  "cere": 6404,
  "▁imm": 6405,
  "▁wet": 6406,
  "arice": 6407,
  "bated": 6408,
  "orary": 6409,
  "ouded": 6410,
  "ppice": 6411,
  "tingu": 6412,
  "vours": 6413,
  "▁agit": 6414,
  "▁begs": 6415,
  "▁blem": 6416,
  "▁broo": 6417,
  "▁city": 6418,
  "▁cler": 6419,
  "▁clue": 6420,
  "▁coup": 6421,
  "▁cure": 6422,
  "▁cust": 6423,
  "▁dark": 6424,
  "▁date": 6425,
  "▁dili": 6426,
  "▁dose": 6427,
  "▁dupe": 6428,
  "▁ecst": 6429,
  "▁edge": 6430,
  "▁exas": 6431,
  "▁exqu": 6432,
  "▁fame": 6433,
  "▁flew": 6434,
  "▁food": 6435,
  "▁gets": 6436,
  "▁goes": 6437,
  "▁hang": 6438,
  "▁heal": 6439,
  "▁heed": 6440,
  "▁hide": 6441,
  "▁hire": 6442,
  "▁irks": 6443,
  "▁jest": 6444,
  "▁lace": 6445,
  "▁lear": 6446,
  "▁lend": 6447,
  "▁leve": 6448,
  "▁lies": 6449,
  "▁ling": 6450,
  "▁lizz": 6451,
  "▁mast": 6452,
  "▁mead": 6453,
  "▁mien": 6454,
  "▁moun": 6455,
  "▁nect": 6456,
  "▁nour": 6457,
  "▁oper": 6458,
  "▁page": 6459,
  "▁pang": 6460,
  "▁pant": 6461,
  "▁pave": 6462,
  "▁peak": 6463,
  "▁peep": 6464,
  "▁pens": 6465,
  "▁perm": 6466,
  "▁pies": 6467,
  "▁prem": 6468,
  "▁prey": 6469,
  "▁quer": 6470,
  "▁race": 6471,
  "▁rant": 6472,
  "▁rash": 6473,
  "▁rely": 6474,
  "▁rode": 6475,
  "▁rush": 6476,
  "▁sang": 6477,
  "▁sati": 6478,
  "▁scra": 6479,
  "▁sell": 6480,
  "▁shed": 6481,
  "▁shee": 6482,
  "▁shoe": 6483,
  "▁sigh": 6484,
  "▁smoo": 6485,
  "▁spac": 6486,
  "▁spas": 6487,
  "▁stem": 6488,
  "▁stub": 6489,
  "▁tack": 6490,
  "▁tent": 6491,
  "▁tort": 6492,
  "▁trib": 6493,
  "▁unan": 6494,
  "▁undu": 6495,
  "▁unpr": 6496,
  "▁unst": 6497,
  "▁unti": 6498,
  "▁unus": 6499,
  "▁void": 6500,
  "▁ward": 6501,
  "▁wast": 6502,
  "ysic": 6503,
  "aited": 6504,
  "anges": 6505,
  "cably": 6506,
  "chess": 6507,
  "erred": 6508,
  "gnost": 6509,
  "ouche": 6510,
  "▁coqu": 6511,
  "▁dole": 6512,
  "▁eyel": 6513,
  "▁glen": 6514,
  "▁haye": 6515,
  "▁rage": 6516,
  "▁rail": 6517,
  "▁simp": 6518,
  "▁soft": 6519,
  "▁vers": 6520,
  "▁wave": 6521,
  "▁west": 6522,
  "▁wits": 6523,
  "ackled": 6524,
  "acknow": 6525,
  "ainous": 6526,
  "aliate": 6527,
  "amping": 6528,
  "ancies": 6529,
  "aneous": 6530,
  "appear": 6531,
  "arines": 6532,
  "arkled": 6533,
  "arying": 6534,
  "atable": 6535,
  "bruary": 6536,
  "coming": 6537,
  "ctable": 6538,
  "ctured": 6539,
  "ective": 6540,
  "eenest": 6541,
  "encing": 6542,
  "erable": 6543,
  "erness": 6544,
  "erston": 6545,
  "ervice": 6546,
  "feited": 6547,
  "icated": 6548,
  "ilions": 6549,
  "inable": 6550,
  "incere": 6551,
  "inings": 6552,
  "ioners": 6553,
  "iority": 6554,
  "irited": 6555,
  "isance": 6556,
  "itably": 6557,
  "ivance": 6558,
  "kingly": 6559,
  "ldiers": 6560,
  "ledged": 6561,
  "licacy": 6562,
  "licted": 6563,
  "logged": 6564,
  "luding": 6565,
  "mbarra": 6566,
  "nation": 6567,
  "nitude": 6568,
  "ocrity": 6569,
  "omised": 6570,
  "onsist": 6571,
  "oralty": 6572,
  "orated": 6573,
  "ormity": 6574,
  "ptible": 6575,
  "rained": 6576,
  "ramids": 6577,
  "ration": 6578,
  "rement": 6579,
  "rewish": 6580,
  "rified": 6581,
  "rigues": 6582,
  "soever": 6583,
  "stible": 6584,
  "tenant": 6585,
  "tening": 6586,
  "terate": 6587,
  "tiness": 6588,
  "uccess": 6589,
  "udiced": 6590,
  "ulance": 6591,
  "ulsive": 6592,
  "ulting": 6593,
  "umbled": 6594,
  "urable": 6595,
  "ushing": 6596,
  "▁abate": 6597,
  "▁abide": 6598,
  "▁ached": 6599,
  "▁affli": 6600,
  "▁agony": 6601,
  "▁alive": 6602,
  "ills": 6603,
  "lete": 6604,
  "raws": 6605,
  "▁gla": 6606,
  "lease": 6607,
  "▁blen": 6608,
  "▁blow": 6609,
  "▁busy": 6610,
  "▁fill": 6611,
  "▁minu": 6612,
  "▁pull": 6613,
  "▁weep": 6614,
  "ecided": 6615,
  "enging": 6616,
  "etuous": 6617,
  "iating": 6618,
  "ongest": 6619,
  "▁amend": 6620,
  "▁apace": 6621,
  "▁apoth": 6622,
  "▁aught": 6623,
  "▁awake": 6624,
  "▁beaux": 6625,
  "▁billi": 6626,
  "▁bills": 6627,
  "▁black": 6628,
  "▁brain": 6629,
  "▁brown": 6630,
  "▁calls": 6631,
  "▁chall": 6632,
  "▁chest": 6633,
  "▁china": 6634,
  "▁coher": 6635,
  "▁colds": 6636,
  "▁contr": 6637,
  "▁corru": 6638,
  "▁cover": 6639,
  "▁darcy": 6640,
  "▁defin": 6641,
  "▁depra": 6642,
  "▁deter": 6643,
  "▁dines": 6644,
  "▁ducti": 6645,
  "▁earth": 6646,
  "▁empty": 6647,
  "▁enfor": 6648,
  "▁envir": 6649,
  "▁equiv": 6650,
  "▁evade": 6651,
  "▁exult": 6652,
  "▁fewer": 6653,
  "▁field": 6654,
  "▁forms": 6655,
  "▁forty": 6656,
  "▁frame": 6657,
  "▁frisk": 6658,
  "▁fruit": 6659,
  "▁gaped": 6660,
  "▁gayer": 6661,
  "▁grain": 6662,
  "▁grasp": 6663,
  "▁hears": 6664,
  "▁heirs": 6665,
  "▁heret": 6666,
  "▁imply": 6667,
  "▁incau": 6668,
  "▁ingra": 6669,
  "▁invar": 6670,
  "▁invec": 6671,
  "▁irret": 6672,
  "▁laity": 6673,
  "▁lanes": 6674,
  "▁lease": 6675,
  "▁loose": 6676,
  "▁manif": 6677,
  "▁meets": 6678,
  "▁micha": 6679,
  "▁mince": 6680,
  "▁misch": 6681,
  "▁model": 6682,
  "▁newly": 6683,
  "▁oddly": 6684,
  "▁pages": 6685,
  "▁paint": 6686,
  "▁paler": 6687,
  "▁parce": 6688,
  "▁plays": 6689,
  "▁prior": 6690,
  "▁procl": 6691,
  "▁purse": 6692,
  "▁rated": 6693,
  "▁recre": 6694,
  "▁refus": 6695,
  "▁repel": 6696,
  "▁ridge": 6697,
  "▁rings": 6698,
  "▁roads": 6699,
  "▁roman": 6700,
  "▁roses": 6701,
  "▁rough": 6702,
  "upon": 6703,
  "vene": 6704,
  "work": 6705,
  "▁avo": 6706,
  "forth": 6707,
  "reets": 6708,
  "ruded": 6709,
  "stery": 6710,
  "venue": 6711,
  "voted": 6712,
  "▁airs": 6713,
  "▁awed": 6714,
  "▁bets": 6715,
  "▁flat": 6716,
  "▁yawn": 6717,
  "▁york": 6718,
  "anuary": 6719,
  "mitage": 6720,
  "raided": 6721,
  "veness": 6722,
  "▁cares": 6723,
  "▁cents": 6724,
  "▁effic": 6725,
  "▁glory": 6726,
  "▁heads": 6727,
  "▁hurts": 6728,
  "▁iniqu": 6729,
  "▁lobby": 6730,
  "▁ruled": 6731,
  "▁sadly": 6732,
  "▁salad": 6733,
  "▁scope": 6734,
  "▁seduc": 6735,
  "▁seize": 6736,
  "▁shake": 6737,
  "▁shill": 6738,
  "▁shine": 6739,
  "▁signs": 6740,
  "▁silli": 6741,
  "▁sings": 6742,
  "▁sixth": 6743,
  "▁sized": 6744,
  "▁slept": 6745,
  "▁space": 6746,
  "▁spars": 6747,
  "▁stage": 6748,
  "▁stagg": 6749,
  "▁stanz": 6750,
  "▁stole": 6751,
  "▁stubb": 6752,
  "▁swell": 6753,
  "▁symme": 6754,
  "▁tacit": 6755,
  "▁talks": 6756,
  "▁teeth": 6757,
  "▁tells": 6758,
  "▁tents": 6759,
  "▁timed": 6760,
  "▁trait": 6761,
  "▁tresp": 6762,
  "▁tries": 6763,
  "▁troop": 6764,
  "▁troub": 6765,
  "▁ultim": 6766,
  "▁unapp": 6767,
  "▁unint": 6768,
  "▁unite": 6769,
  "▁using": 6770,
  "▁vener": 6771,
  "▁vigor": 6772,
  "▁volub": 6773,
  "▁wears": 6774,
  "▁weary": 6775,
  "▁witty": 6776,
  "▁yards": 6777,
  "actions": 6778,
  "akewell": 6779,
  "allowed": 6780,
  "anguine": 6781,
  "ariwise": 6782,
  "ateness": 6783,
  "aughter": 6784,
  "cations": 6785,
  "ductive": 6786,
  "earying": 6787,
  "easable": 6788,
  "ecoming": 6789,
  "ections": 6790,
  "ederacy": 6791,
  "endence": 6792,
  "ensably": 6793,
  "ensions": 6794,
  "entance": 6795,
  "erences": 6796,
  "ficient": 6797,
  "fitable": 6798,
  "hibited": 6799,
  "ifiable": 6800,
  "ildered": 6801,
  "inement": 6802,
  "cheon": 6803,
  "ithet": 6804,
  "layne": 6805,
  "ofore": 6806,
  "rench": 6807,
  "utors": 6808,
  "▁cows": 6809,
  "lative": 6810,
  "manent": 6811,
  "tected": 6812,
  "uality": 6813,
  "▁blots": 6814,
  "▁blown": 6815,
  "▁board": 6816,
  "▁boxes": 6817,
  "▁brace": 6818,
  "▁cheat": 6819,
  "▁embar": 6820,
  "▁final": 6821,
  "▁flown": 6822,
  "▁mixed": 6823,
  "▁named": 6824,
  "▁rites": 6825,
  "▁rocks": 6826,
  "entious": 6827,
  "inquish": 6828,
  "intment": 6829,
  "ionably": 6830,
  "isition": 6831,
  "itative": 6832,
  "itution": 6833,
  "kindled": 6834,
  "larging": 6835,
  "lexibly": 6836,
  "liation": 6837,
  "licting": 6838,
  "lighted": 6839,
  "ligious": 6840,
  "mediate": 6841,
  "mingham": 6842,
  "orehand": 6843,
  "ornness": 6844,
  "ortions": 6845,
  "otonous": 6846,
  "oughout": 6847,
  "oulders": 6848,
  "ounding": 6849,
  "picious": 6850,
  "raction": 6851,
  "raughts": 6852,
  "ributed": 6853,
  "riended": 6854,
  "rieties": 6855,
  "rogance": 6856,
  "ssiping": 6857,
  "terable": 6858,
  "tiality": 6859,
  "ulating": 6860,
  "umbling": 6861,
  "unction": 6862,
  "verting": 6863,
  "▁abound": 6864,
  "▁accede": 6865,
  "▁acquit": 6866,
  "▁acting": 6867,
  "▁action": 6868,
  "▁adjust": 6869,
  "▁airing": 6870,
  "▁alarms": 6871,
  "▁allure": 6872,
  "▁amount": 6873,
  "▁annual": 6874,
  "▁archly": 6875,
  "▁argued": 6876,
  "▁artful": 6877,
  "▁aspire": 6878,
  "▁assent": 6879,
  "▁backed": 6880,
  "▁biting": 6881,
  "▁blamed": 6882,
  "▁blenhe": 6883,
  "▁blinds": 6884,
  "▁bodies": 6885,
  "▁boldly": 6886,
  "▁bounds": 6887,
  "▁bowing": 6888,
  "▁brains": 6889,
  "▁breast": 6890,
  "▁brings": 6891,
  "▁capers": 6892,
  "▁chatty": 6893,
  "▁clamor": 6894,
  "▁clarke": 6895,
  "▁contro": 6896,
  "▁copied": 6897,
  "▁corner": 6898,
  "▁cultiv": 6899,
  "▁curric": 6900,
  "▁decked": 6901,
  "▁defend": 6902,
  "etic": 6903,
  "tics": 6904,
  "▁esq": 6905,
  "elmas": 6906,
  "litic": 6907,
  "rical": 6908,
  "▁adap": 6909,
  "▁bath": 6910,
  "▁duel": 6911,
  "▁ecli": 6912,
  "berant": 6913,
  "ituted": 6914,
  "sworth": 6915,
  "▁adept": 6916,
  "▁assoc": 6917,
  "▁downs": 6918,
  "▁hired": 6919,
  "▁irish": 6920,
  "▁narra": 6921,
  "▁plans": 6922,
  "▁punch": 6923,
  "▁scorn": 6924,
  "gmented": 6925,
  "ictions": 6926,
  "tuously": 6927,
  "▁attics": 6928,
  "▁defied": 6929,
  "▁desper": 6930,
  "▁detain": 6931,
  "▁devoid": 6932,
  "▁disarm": 6933,
  "▁dishes": 6934,
  "▁dismay": 6935,
  "▁disreg": 6936,
  "▁doubly": 6937,
  "▁doubts": 6938,
  "▁duties": 6939,
  "▁elated": 6940,
  "▁eleven": 6941,
  "▁eluded": 6942,
  "▁emphas": 6943,
  "▁enable": 6944,
  "▁encumb": 6945,
  "▁energe": 6946,
  "▁equals": 6947,
  "▁errand": 6948,
  "▁expost": 6949,
  "▁extort": 6950,
  "▁eyeing": 6951,
  "▁fidget": 6952,
  "▁finery": 6953,
  "▁fixing": 6954,
  "▁flowed": 6955,
  "▁fluctu": 6956,
  "▁friday": 6957,
  "▁frisks": 6958,
  "▁gaiety": 6959,
  "▁grapes": 6960,
  "▁guinea": 6961,
  "▁hardsh": 6962,
  "▁hating": 6963,
  "▁haunch": 6964,
  "▁headed": 6965,
  "▁hearth": 6966,
  "▁hinted": 6967,
  "▁humili": 6968,
  "▁hursts": 6969,
  "▁hypocr": 6970,
  "▁impute": 6971,
  "▁indisc": 6972,
  "▁indist": 6973,
  "▁inured": 6974,
  "▁invari": 6975,
  "▁irrevo": 6976,
  "▁jewels": 6977,
  "▁joking": 6978,
  "▁jumped": 6979,
  "▁kinder": 6980,
  "▁larder": 6981,
  "▁lastly": 6982,
  "▁latest": 6983,
  "▁leaves": 6984,
  "▁limits": 6985,
  "▁losing": 6986,
  "▁losses": 6987,
  "▁loving": 6988,
  "▁lustre": 6989,
  "▁mature": 6990,
  "▁meanly": 6991,
  "▁minded": 6992,
  "▁misled": 6993,
  "▁misman": 6994,
  "▁newest": 6995,
  "▁nicest": 6996,
  "▁obtain": 6997,
  "▁occurs": 6998,
  "▁oddity": 6999,
  "▁overjo": 7000,
  "▁oxford": 7001,
  "▁partri": 7002,
  "ians": 7003,
  "faced": 7004,
  "ficed": 7005,
  "udied": 7006,
  "▁bash": 7007,
  "▁exig": 7008,
  "▁gaze": 7009,
  "▁medi": 7010,
  "▁pool": 7011,
  "▁rule": 7012,
  "▁drily": 7013,
  "▁facts": 7014,
  "▁falls": 7015,
  "▁jokes": 7016,
  "▁plead": 7017,
  "▁rises": 7018,
  "▁shoes": 7019,
  "▁songs": 7020,
  "▁topic": 7021,
  "▁total": 7022,
  "aculous": 7023,
  "▁allude": 7024,
  "▁beside": 7025,
  "▁buying": 7026,
  "▁detail": 7027,
  "▁detect": 7028,
  "▁fender": 7029,
  "▁intrep": 7030,
  "▁lowest": 7031,
  "▁piling": 7032,
  "▁piquet": 7033,
  "▁policy": 7034,
  "▁prided": 7035,
  "▁prized": 7036,
  "▁prizes": 7037,
  "▁probab": 7038,
  "▁profit": 7039,
  "▁prompt": 7040,
  "▁puffed": 7041,
  "▁purses": 7042,
  "▁rained": 7043,
  "▁reader": 7044,
  "▁refuge": 7045,
  "▁refute": 7046,
  "▁regain": 7047,
  "▁repose": 7048,
  "▁rested": 7049,
  "▁resume": 7050,
  "▁retail": 7051,
  "▁retain": 7052,
  "▁retort": 7053,
  "▁revive": 7054,
  "▁revolt": 7055,
  "▁richly": 7056,
  "▁rivers": 7057,
  "▁selves": 7058,
  "▁sequel": 7059,
  "▁shades": 7060,
  "▁shield": 7061,
  "▁social": 7062,
  "▁sorely": 7063,
  "▁sounds": 7064,
  "▁spleen": 7065,
  "▁stands": 7066,
  "▁supers": 7067,
  "▁surest": 7068,
  "▁tackle": 7069,
  "▁talker": 7070,
  "▁taller": 7071,
  "▁tastes": 7072,
  "▁tenant": 7073,
  "▁tenour": 7074,
  "▁termed": 7075,
  "▁thinks": 7076,
  "▁tithes": 7077,
  "▁topics": 7078,
  "▁traced": 7079,
  "▁traces": 7080,
  "▁trembl": 7081,
  "▁trepid": 7082,
  "▁trials": 7083,
  "▁tricks": 7084,
  "▁truest": 7085,
  "▁uncles": 7086,
  "▁undone": 7087,
  "▁unfold": 7088,
  "▁unison": 7089,
  "▁unpret": 7090,
  "▁unwell": 7091,
  "▁vanish": 7092,
  "▁vexing": 7093,
  "▁victim": 7094,
  "▁volati": 7095,
  "▁waived": 7096,
  "▁wander": 7097,
  "▁warded": 7098,
  "▁watson": 7099,
  "▁willed": 7100,
  "▁wisher": 7101,
  "echamber": 7102,
  "dges": 7103,
  "▁bass": 7104,
  "▁foul": 7105,
  "▁fuss": 7106,
  "▁gidd": 7107,
  "▁inns": 7108,
  "▁male": 7109,
  "▁owns": 7110,
  "▁slee": 7111,
  "▁facul": 7112,
  "▁irrep": 7113,
  "▁stamp": 7114,
  "▁stoke": 7115,
  "▁tones": 7116,
  "assable": 7117,
  "repared": 7118,
  "▁afresh": 7119,
  "▁calmly": 7120,
  "▁graces": 7121,
  "▁growth": 7122,
  "▁ingenu": 7123,
  "▁nicely": 7124,
  "▁occupy": 7125,
  "▁safety": 7126,
  "▁sheets": 7127,
  "▁shrink": 7128,
  "▁speedy": 7129,
  "▁spoilt": 7130,
  "▁transp": 7131,
  "▁volume": 7132,
  "▁youths": 7133,
  "encement": 7134,
  "ensation": 7135,
  "ensities": 7136,
  "entation": 7137,
  "fferable": 7138,
  "gnostics": 7139,
  "iduously": 7140,
  "ievously": 7141,
  "igations": 7142,
  "incipled": 7143,
  "kerchief": 7144,
  "mediable": 7145,
  "mergency": 7146,
  "minution": 7147,
  "mportant": 7148,
  "obliging": 7149,
  "ognizing": 7150,
  "omically": 7151,
  "ominated": 7152,
  "queamish": 7153,
  "retation": 7154,
  "ringtons": 7155,
  "spective": 7156,
  "swerable": 7157,
  "termined": 7158,
  "voidably": 7159,
  "▁acceded": 7160,
  "▁acquire": 7161,
  "▁affable": 7162,
  "▁affords": 7163,
  "▁agonies": 7164,
  "▁anguish": 7165,
  "▁answers": 7166,
  "▁apparel": 7167,
  "▁appears": 7168,
  "▁applies": 7169,
  "▁arguing": 7170,
  "▁assents": 7171,
  "▁audible": 7172,
  "▁avarice": 7173,
  "▁bashful": 7174,
  "▁bearing": 7175,
  "▁blasted": 7176,
  "▁blemish": 7177,
  "▁boasted": 7178,
  "▁brevity": 7179,
  "▁britain": 7180,
  "▁brittle": 7181,
  "▁bromley": 7182,
  "▁burying": 7183,
  "▁carpets": 7184,
  "▁charity": 7185,
  "▁chicken": 7186,
  "▁chimney": 7187,
  "▁circles": 7188,
  "▁clearer": 7189,
  "▁closely": 7190,
  "▁closets": 7191,
  "▁closure": 7192,
  "▁cluster": 7193,
  "▁collect": 7194,
  "▁compare": 7195,
  "▁compass": 7196,
  "▁confide": 7197,
  "▁connect": 7198,
  "▁conquer": 7199,
  "▁consign": 7200,
  "▁conster": 7201,
  "▁cookery": 7202,
  "board": 7203,
  "▁crad": 7204,
  "▁dazz": 7205,
  "▁soup": 7206,
  "athize": 7207,
  "eathed": 7208,
  "svenor": 7209,
  "▁april": 7210,
  "▁coats": 7211,
  "▁crowd": 7212,
  "▁fifth": 7213,
  "▁glove": 7214,
  "▁hotel": 7215,
  "▁irreg": 7216,
  "▁rainy": 7217,
  "▁semin": 7218,
  "▁vices": 7219,
  "▁asleep": 7220,
  "▁cogent": 7221,
  "▁conjug": 7222,
  "▁deaden": 7223,
  "▁discla": 7224,
  "▁edward": 7225,
  "▁gloomy": 7226,
  "▁hyster": 7227,
  "▁lizzie": 7228,
  "▁mostly": 7229,
  "▁solace": 7230,
  "▁talent": 7231,
  "▁warned": 7232,
  "strained": 7233,
  "titioned": 7234,
  "▁bequest": 7235,
  "▁bribery": 7236,
  "▁chanced": 7237,
  "▁cherish": 7238,
  "▁cordial": 7239,
  "▁costing": 7240,
  "▁counted": 7241,
  "▁cradles": 7242,
  "▁crowned": 7243,
  "▁darling": 7244,
  "▁darting": 7245,
  "▁decency": 7246,
  "▁deduced": 7247,
  "▁deepest": 7248,
  "▁demands": 7249,
  "▁deprive": 7250,
  "▁derived": 7251,
  "▁derives": 7252,
  "▁despair": 7253,
  "▁destruc": 7254,
  "▁dictate": 7255,
  "▁diffuse": 7256,
  "▁discrim": 7257,
  "▁dishear": 7258,
  "▁dispose": 7259,
  "▁doorway": 7260,
  "▁doubled": 7261,
  "▁dullest": 7262,
  "▁earthly": 7263,
  "▁elderly": 7264,
  "▁elevate": 7265,
  "▁eloping": 7266,
  "▁embargo": 7267,
  "▁eminent": 7268,
  "▁endured": 7269,
  "▁enemies": 7270,
  "▁ensuing": 7271,
  "▁envying": 7272,
  "▁essence": 7273,
  "▁examine": 7274,
  "▁excused": 7275,
  "▁exhibit": 7276,
  "▁expects": 7277,
  "▁exposed": 7278,
  "▁failure": 7279,
  "▁fairest": 7280,
  "▁falsely": 7281,
  "▁feature": 7282,
  "▁felicit": 7283,
  "▁females": 7284,
  "▁figures": 7285,
  "▁flaming": 7286,
  "▁flowing": 7287,
  "▁footman": 7288,
  "▁forbade": 7289,
  "▁forbore": 7290,
  "▁forcing": 7291,
  "▁foresaw": 7292,
  "▁foresee": 7293,
  "▁forgave": 7294,
  "▁forgets": 7295,
  "▁forlorn": 7296,
  "▁founded": 7297,
  "▁frankly": 7298,
  "▁fresher": 7299,
  "▁fronted": 7300,
  "▁fullest": 7301,
  "▁glories": 7302,
  "emble": 7303,
  "ubial": 7304,
  "▁dirt": 7305,
  "▁illi": 7306,
  "▁nods": 7307,
  "▁snug": 7308,
  "▁ancle": 7309,
  "▁legal": 7310,
  "▁risen": 7311,
  "▁shrug": 7312,
  "▁sneer": 7313,
  "▁unsus": 7314,
  "▁untin": 7315,
  "▁animal": 7316,
  "▁ardent": 7317,
  "▁candid": 7318,
  "▁critic": 7319,
  "▁device": 7320,
  "▁devote": 7321,
  "▁envied": 7322,
  "▁folded": 7323,
  "▁hatred": 7324,
  "▁laurel": 7325,
  "▁legacy": 7326,
  "▁maiden": 7327,
  "▁novels": 7328,
  "▁signal": 7329,
  "▁sprang": 7330,
  "▁uglier": 7331,
  "▁yawned": 7332,
  "ccentric": 7333,
  "tificial": 7334,
  "tinuance": 7335,
  "▁angelic": 7336,
  "▁campful": 7337,
  "▁couples": 7338,
  "▁digress": 7339,
  "▁efforts": 7340,
  "▁exclude": 7341,
  "▁gradual": 7342,
  "▁grouped": 7343,
  "▁guiding": 7344,
  "▁hanging": 7345,
  "▁harriet": 7346,
  "▁harshly": 7347,
  "▁healthy": 7348,
  "▁hearers": 7349,
  "▁hearted": 7350,
  "▁honours": 7351,
  "▁imitate": 7352,
  "▁implied": 7353,
  "▁implies": 7354,
  "▁include": 7355,
  "▁inconst": 7356,
  "▁inhabit": 7357,
  "▁inmates": 7358,
  "▁insists": 7359,
  "▁invalid": 7360,
  "▁irksome": 7361,
  "▁italian": 7362,
  "▁jumbled": 7363,
  "▁keenest": 7364,
  "▁kindest": 7365,
  "▁kindred": 7366,
  "▁laconic": 7367,
  "▁landing": 7368,
  "▁lasting": 7369,
  "▁legally": 7370,
  "▁lighted": 7371,
  "▁lowness": 7372,
  "▁lurking": 7373,
  "▁managed": 7374,
  "▁mansion": 7375,
  "▁marries": 7376,
  "▁masters": 7377,
  "▁mindful": 7378,
  "▁miserly": 7379,
  "▁missing": 7380,
  "▁missish": 7381,
  "▁mistook": 7382,
  "▁monthly": 7383,
  "▁musical": 7384,
  "▁muslins": 7385,
  "▁mystery": 7386,
  "▁netting": 7387,
  "▁nettled": 7388,
  "▁nonsens": 7389,
  "▁nowhere": 7390,
  "▁obvious": 7391,
  "▁oppress": 7392,
  "▁orderly": 7393,
  "▁overset": 7394,
  "▁paining": 7395,
  "▁painter": 7396,
  "▁panting": 7397,
  "▁partake": 7398,
  "▁patched": 7399,
  "▁patient": 7400,
  "▁payment": 7401,
  "▁penance": 7402,
  "calfe": 7403,
  "▁gift": 7404,
  "▁hagg": 7405,
  "▁cheap": 7406,
  "▁local": 7407,
  "▁shift": 7408,
  "▁arrear": 7409,
  "▁barely": 7410,
  "▁bosoms": 7411,
  "▁bounty": 7412,
  "▁coughs": 7413,
  "▁forego": 7414,
  "▁griefs": 7415,
  "▁hotels": 7416,
  "▁mildly": 7417,
  "▁poured": 7418,
  "▁stroll": 7419,
  "▁vastly": 7420,
  "rievable": 7421,
  "▁denoted": 7422,
  "▁fidgets": 7423,
  "▁fidgety": 7424,
  "▁glazing": 7425,
  "▁packing": 7426,
  "▁periods": 7427,
  "▁plainer": 7428,
  "▁players": 7429,
  "▁pleaded": 7430,
  "▁pleases": 7431,
  "▁pliancy": 7432,
  "▁pouring": 7433,
  "▁praised": 7434,
  "▁preside": 7435,
  "▁presume": 7436,
  "▁probity": 7437,
  "▁procure": 7438,
  "▁proving": 7439,
  "▁publish": 7440,
  "▁quieted": 7441,
  "▁quieter": 7442,
  "▁rambled": 7443,
  "▁rectory": 7444,
  "▁redress": 7445,
  "▁relates": 7446,
  "▁relieve": 7447,
  "▁replies": 7448,
  "▁reports": 7449,
  "▁resides": 7450,
  "▁retains": 7451,
  "▁returns": 7452,
  "▁revenge": 7453,
  "▁revered": 7454,
  "▁reverse": 7455,
  "▁richard": 7456,
  "▁scamper": 7457,
  "▁science": 7458,
  "▁screens": 7459,
  "▁sending": 7460,
  "▁sermons": 7461,
  "▁serving": 7462,
  "▁shelves": 7463,
  "▁shorten": 7464,
  "▁sighted": 7465,
  "▁sinking": 7466,
  "▁sloping": 7467,
  "▁slyness": 7468,
  "▁solaced": 7469,
  "▁someone": 7470,
  "▁spanish": 7471,
  "▁speaker": 7472,
  "▁springs": 7473,
  "▁stating": 7474,
  "▁stepped": 7475,
  "▁stoutly": 7476,
  "▁studied": 7477,
  "▁studier": 7478,
  "▁suiting": 7479,
  "▁survive": 7480,
  "▁suspend": 7481,
  "▁swelled": 7482,
  "▁tallest": 7483,
  "▁tongues": 7484,
  "▁torment": 7485,
  "▁trifled": 7486,
  "▁ungover": 7487,
  "▁uniting": 7488,
  "▁unquest": 7489,
  "▁utterly": 7490,
  "▁vacancy": 7491,
  "▁vicious": 7492,
  "▁warmest": 7493,
  "▁warwick": 7494,
  "▁watches": 7495,
  "▁wearied": 7496,
  "▁weighty": 7497,
  "▁whither": 7498,
  "▁winding": 7499,
  "▁womanly": 7500,
  "▁workbag": 7501,
  "▁yawning": 7502,
  "safed": 7503,
  "▁cram": 7504,
  "▁oaks": 7505,
  "inctly": 7506,
  "▁aimed": 7507,
  "▁burnt": 7508,
  "▁cooks": 7509,
  "▁ducks": 7510,
  "▁enemy": 7511,
  "▁jumps": 7512,
  "▁loser": 7513,
  "▁olive": 7514,
  "▁title": 7515,
  "▁valid": 7516,
  "ivalent": 7517,
  "▁amazes": 7518,
  "▁canvas": 7519,
  "▁closer": 7520,
  "▁dawson": 7521,
  "▁fruits": 7522,
  "▁inmate": 7523,
  "▁louder": 7524,
  "▁loudly": 7525,
  "▁miller": 7526,
  "▁muslin": 7527,
  "▁oakham": 7528,
  "▁permit": 7529,
  "▁piqued": 7530,
  "▁rivals": 7531,
  "▁saloon": 7532,
  "▁sedate": 7533,
  "▁sighed": 7534,
  "ambridge": 7535,
  "ffectual": 7536,
  "▁adhered": 7537,
  "▁ancient": 7538,
  "▁benches": 7539,
  "▁blacken": 7540,
  "▁burning": 7541,
  "▁changes": 7542,
  "▁clouded": 7543,
  "▁crammed": 7544,
  "▁devoted": 7545,
  "▁dulness": 7546,
  "▁enabled": 7547,
  "▁extingu": 7548,
  "▁faintly": 7549,
  "▁fervent": 7550,
  "▁inflict": 7551,
  "▁informs": 7552,
  "▁insipid": 7553,
  "▁mankind": 7554,
  "▁mingled": 7555,
  "▁peaches": 7556,
  "▁pitched": 7557,
  "▁profuse": 7558,
  "▁reverie": 7559,
  "▁revival": 7560,
  "▁roasted": 7561,
  "▁seizing": 7562,
  "▁slacken": 7563,
  "▁unmoved": 7564,
  "▁weighed": 7565,
  "▁yielded": 7566,
  "countable": 7567,
  "elligible": 7568,
  "enilworth": 7569,
  "iseration": 7570,
  "offensive": 7571,
  "roachable": 7572,
  "spections": 7573,
  "▁abundant": 7574,
  "▁acceding": 7575,
  "▁accuracy": 7576,
  "▁accurate": 7577,
  "▁accusing": 7578,
  "▁acquaint": 7579,
  "▁acquired": 7580,
  "▁acrimony": 7581,
  "▁actuated": 7582,
  "▁adhering": 7583,
  "▁advances": 7584,
  "▁advising": 7585,
  "▁although": 7586,
  "▁ambition": 7587,
  "▁anywhere": 7588,
  "▁appeased": 7589,
  "▁archness": 7590,
  "▁arranged": 7591,
  "▁arriving": 7592,
  "▁artfully": 7593,
  "▁articles": 7594,
  "▁ashworth": 7595,
  "▁asserted": 7596,
  "▁attacked": 7597,
  "▁attained": 7598,
  "▁attitude": 7599,
  "▁backward": 7600,
  "▁bakewell": 7601,
  "▁beatings": 7602,
  "buke": 7603,
  "dyce": 7604,
  "enius": 7605,
  "etite": 7606,
  "place": 7607,
  "poned": 7608,
  "▁foxh": 7609,
  "▁john": 7610,
  "▁kiss": 7611,
  "▁pigs": 7612,
  "alogue": 7613,
  "equate": 7614,
  "genial": 7615,
  "▁awoke": 7616,
  "▁proxy": 7617,
  "▁webbs": 7618,
  "iatures": 7619,
  "▁anyhow": 7620,
  "▁eligib": 7621,
  "▁fulfil": 7622,
  "▁genius": 7623,
  "▁hushed": 7624,
  "▁infatu": 7625,
  "▁morris": 7626,
  "▁outrun": 7627,
  "▁rebuke": 7628,
  "▁rescue": 7629,
  "▁search": 7630,
  "ceivable": 7631,
  "▁deserts": 7632,
  "▁fordyce": 7633,
  "▁inexhau": 7634,
  "▁theatre": 7635,
  "▁threats": 7636,
  "▁adequate": 7637,
  "▁appetite": 7638,
  "▁barouche": 7639,
  "▁believes": 7640,
  "▁benefits": 7641,
  "▁bewailed": 7642,
  "▁billiard": 7643,
  "▁bitterly": 7644,
  "▁blushing": 7645,
  "▁boasting": 7646,
  "▁breaking": 7647,
  "▁breathed": 7648,
  "▁capacity": 7649,
  "▁careless": 7650,
  "▁catching": 7651,
  "▁chaperon": 7652,
  "▁cheating": 7653,
  "▁cheering": 7654,
  "▁clearing": 7655,
  "▁clerical": 7656,
  "▁coachman": 7657,
  "▁coincide": 7658,
  "▁comprise": 7659,
  "▁concerto": 7660,
  "▁confirms": 7661,
  "▁conjugal": 7662,
  "▁contrive": 7663,
  "▁coquetry": 7664,
  "▁coughing": 7665,
  "▁counting": 7666,
  "▁courtier": 7667,
  "▁creative": 7668,
  "▁critical": 7669,
  "▁crossing": 7670,
  "▁cucumber": 7671,
  "▁curtains": 7672,
  "▁dazzling": 7673,
  "▁deceives": 7674,
  "▁deciding": 7675,
  "▁decorums": 7676,
  "▁defended": 7677,
  "▁delights": 7678,
  "▁departed": 7679,
  "▁desiring": 7680,
  "▁despises": 7681,
  "▁detailed": 7682,
  "▁detested": 7683,
  "▁develope": 7684,
  "▁devoting": 7685,
  "▁dialogue": 7686,
  "▁dictates": 7687,
  "▁diffused": 7688,
  "▁disclaim": 7689,
  "▁disclose": 7690,
  "▁dislikes": 7691,
  "▁dispense": 7692,
  "▁disputes": 7693,
  "▁dissuade": 7694,
  "▁dividing": 7695,
  "▁doubtful": 7696,
  "▁draughts": 7697,
  "▁dreading": 7698,
  "▁drinking": 7699,
  "▁drooping": 7700,
  "▁efficacy": 7701,
  "▁elevated": 7702,
  "▁gulf": 7703,
  "▁july": 7704,
  "bishop": 7705,
  "oeuvre": 7706,
  "▁amply": 7707,
  "▁duets": 7708,
  "▁frost": 7709,
  "▁hedge": 7710,
  "▁knees": 7711,
  "▁notes": 7712,
  "▁pedan": 7713,
  "▁sarah": 7714,
  "▁saucy": 7715,
  "▁scale": 7716,
  "▁trunk": 7717,
  "▁vingt": 7718,
  "agonist": 7719,
  "alloyed": 7720,
  "atagems": 7721,
  "umanity": 7722,
  "▁casual": 7723,
  "▁caused": 7724,
  "▁coarse": 7725,
  "▁coaxed": 7726,
  "▁coveys": 7727,
  "▁deemed": 7728,
  "▁degrad": 7729,
  "▁demean": 7730,
  "▁eloped": 7731,
  "▁extenu": 7732,
  "▁guilty": 7733,
  "▁injury": 7734,
  "▁invest": 7735,
  "▁joints": 7736,
  "▁junior": 7737,
  "▁mixing": 7738,
  "▁muffin": 7739,
  "▁purvis": 7740,
  "▁ragout": 7741,
  "▁soothe": 7742,
  "▁survey": 7743,
  "▁uproar": 7744,
  "▁angrily": 7745,
  "▁battled": 7746,
  "▁british": 7747,
  "▁butcher": 7748,
  "▁circuit": 7749,
  "▁courier": 7750,
  "▁cunning": 7751,
  "▁dawdled": 7752,
  "▁default": 7753,
  "▁elapsed": 7754,
  "▁enhance": 7755,
  "▁explore": 7756,
  "▁heiress": 7757,
  "▁leaning": 7758,
  "▁meanest": 7759,
  "▁omitted": 7760,
  "▁outdone": 7761,
  "▁rallied": 7762,
  "▁remonst": 7763,
  "▁remorse": 7764,
  "▁unaware": 7765,
  "▁undimin": 7766,
  "▁unfrequ": 7767,
  "▁unheard": 7768,
  "▁untamed": 7769,
  "▁venison": 7770,
  "▁verdure": 7771,
  "▁warrant": 7772,
  "▁weakest": 7773,
  "believing": 7774,
  "▁celerity": 7775,
  "▁commerce": 7776,
  "▁duration": 7777,
  "▁embraced": 7778,
  "▁eminence": 7779,
  "▁emphatic": 7780,
  "▁enabling": 7781,
  "▁encamped": 7782,
  "▁endeavor": 7783,
  "▁enduring": 7784,
  "▁enforced": 7785,
  "▁enormity": 7786,
  "▁ensigncy": 7787,
  "▁environs": 7788,
  "▁equalled": 7789,
  "▁exceeded": 7790,
  "▁exciting": 7791,
  "▁executed": 7792,
  "▁exerting": 7793,
  "▁exposure": 7794,
  "▁farthing": 7795,
  "▁favoured": 7796,
  "▁fearless": 7797,
  "▁feathers": 7798,
  "▁february": 7799,
  "▁fighting": 7800,
  "▁firmness": 7801,
  "▁flirting": 7802,
  "▁septe": 7803,
  "▁atoned": 7804,
  "▁bustle": 7805,
  "▁physic": 7806,
  "▁rushed": 7807,
  "▁scrape": 7808,
  "▁spasms": 7809,
  "▁verses": 7810,
  "quainted": 7811,
  "rimonial": 7812,
  "▁acutest": 7813,
  "▁awaited": 7814,
  "▁beloved": 7815,
  "▁boister": 7816,
  "▁cassino": 7817,
  "▁coppice": 7818,
  "▁custody": 7819,
  "▁doleful": 7820,
  "▁duchess": 7821,
  "▁ecstasy": 7822,
  "▁flogged": 7823,
  "▁gloried": 7824,
  "▁immoral": 7825,
  "▁meadows": 7826,
  "▁savours": 7827,
  "▁suffers": 7828,
  "▁synonym": 7829,
  "▁tribute": 7830,
  "▁unquali": 7831,
  "▁unusual": 7832,
  "▁wasting": 7833,
  "▁borrowed": 7834,
  "▁brooking": 7835,
  "▁combated": 7836,
  "▁deferred": 7837,
  "▁endeared": 7838,
  "▁equipage": 7839,
  "▁fluently": 7840,
  "▁forgiven": 7841,
  "▁forsters": 7842,
  "▁fortunes": 7843,
  "▁forwards": 7844,
  "▁fourthly": 7845,
  "▁frighten": 7846,
  "▁gathered": 7847,
  "▁gentlest": 7848,
  "▁goulding": 7849,
  "▁graceful": 7850,
  "▁grieving": 7851,
  "▁grossest": 7852,
  "▁habitual": 7853,
  "▁hardened": 7854,
  "▁hardship": 7855,
  "▁hatfield": 7856,
  "▁hazarded": 7857,
  "▁heedless": 7858,
  "▁humanity": 7859,
  "▁humbling": 7860,
  "▁imitated": 7861,
  "▁imparted": 7862,
  "▁impelled": 7863,
  "▁imposing": 7864,
  "▁improves": 7865,
  "▁impudent": 7866,
  "▁impulses": 7867,
  "▁impunity": 7868,
  "▁imputing": 7869,
  "▁included": 7870,
  "▁inconsid": 7871,
  "▁incurred": 7872,
  "▁indolent": 7873,
  "▁injuring": 7874,
  "▁insisted": 7875,
  "▁inspires": 7876,
  "▁instruct": 7877,
  "▁insulted": 7878,
  "▁involves": 7879,
  "▁journeys": 7880,
  "▁lamented": 7881,
  "▁latterly": 7882,
  "▁laudable": 7883,
  "▁laughter": 7884,
  "▁lawfully": 7885,
  "▁learning": 7886,
  "▁lessened": 7887,
  "▁levelled": 7888,
  "▁lifetime": 7889,
  "▁luckiest": 7890,
  "▁luckless": 7891,
  "▁luncheon": 7892,
  "▁maintain": 7893,
  "▁manifold": 7894,
  "▁masterly": 7895,
  "▁meanness": 7896,
  "▁messages": 7897,
  "▁mildness": 7898,
  "▁military": 7899,
  "▁milliner": 7900,
  "▁mingling": 7901,
  "▁miseries": 7902,
  "▁avenue": 7903,
  "▁french": 7904,
  "▁straws": 7905,
  "latively": 7906,
  "▁adapted": 7907,
  "▁avoided": 7908,
  "▁epithet": 7909,
  "▁january": 7910,
  "▁parcels": 7911,
  "▁replete": 7912,
  "▁stanzas": 7913,
  "▁streets": 7914,
  "ativeness": 7915,
  "▁alighted": 7916,
  "▁blenheim": 7917,
  "▁coherent": 7918,
  "▁crushing": 7919,
  "▁curricle": 7920,
  "▁eclipsed": 7921,
  "▁emphasis": 7922,
  "▁exigence": 7923,
  "▁moderate": 7924,
  "▁morality": 7925,
  "▁mornings": 7926,
  "▁mounting": 7927,
  "▁mutually": 7928,
  "▁narrowly": 7929,
  "▁nearness": 7930,
  "▁nothings": 7931,
  "▁noticing": 7932,
  "▁objected": 7933,
  "▁obtruded": 7934,
  "▁occupies": 7935,
  "▁oddities": 7936,
  "▁operated": 7937,
  "▁ordained": 7938,
  "▁ornament": 7939,
  "▁outlived": 7940,
  "▁outstrip": 7941,
  "▁overtook": 7942,
  "▁parading": 7943,
  "▁parental": 7944,
  "▁passions": 7945,
  "▁pathetic": 7946,
  "▁pavement": 7947,
  "▁penitent": 7948,
  "▁performs": 7949,
  "▁persists": 7950,
  "▁personal": 7951,
  "▁perusing": 7952,
  "▁perverse": 7953,
  "▁pictured": 7954,
  "▁polluted": 7955,
  "▁porridge": 7956,
  "▁portrait": 7957,
  "▁position": 7958,
  "▁powerful": 7959,
  "▁practise": 7960,
  "▁preceded": 7961,
  "▁precious": 7962,
  "▁premises": 7963,
  "▁presided": 7964,
  "▁presumed": 7965,
  "▁prevents": 7966,
  "▁proclaim": 7967,
  "▁promoted": 7968,
  "▁prompted": 7969,
  "▁proudest": 7970,
  "▁pursuits": 7971,
  "▁": 7972,
  "e": 7973,
  "n": 7974,
  "t": 7975,
  "i": 7976,
  "a": 7977,
  "r": 7978,
  "s": 7979,
  "o": 7980,
  "l": 7981,
  "d": 7982,
  "c": 7983,
  "u": 7984,
  "m": 7985,
  "h": 7986,
  "g": 7987,
  "p": 7988,
  "y": 7989,
  "b": 7990,
  "f": 7991,
  "w": 7992,
  "v": 7993,
  "k": 7994,
  "_": 7995,
  "z": 7996,
  "x": 7997,
  "j": 7998,
  "q": 7999
}