<unk>	0
<s>	0
</s>	0
in	-0
er	-1
en	-2
▁s	-3
▁m	-4
on	-5
ed	-6
re	-7
▁c	-8
ou	-9
th	-10
ing	-11
ar	-12
▁a	-13
▁p	-14
le	-15
ne	-16
▁e	-17
▁w	-18
st	-19
▁d	-20
an	-21
ti	-22
▁f	-23
li	-24
ly	-25
▁g	-26
▁h	-27
or	-28
ce	-29
ss	-30
▁b	-31
▁re	-32
al	-33
▁l	-34
ent	-35
▁t	-36
gh	-37
om	-38
ld	-39
net	-40
ennet	-41
tion	-42
ab	-43
bennet	-44
at	-45
it	-46
is	-47
▁mr	-48
ay	-49
ver	-50
ow	-51
es	-52
ll	-53
ther	-54
▁in	-55
ould	-56
▁o	-57
ri	-58
ec	-59
ght	-60
▁th	-61
tt	-62
ve	-63
ad	-64
ro	-65
▁u	-66
se	-67
eth	-68
▁con	-69
am	-70
▁eli	-71
ge	-72
zab	-73
zabeth	-74
▁elizabeth	-75
ir	-76
our	-77
pp	-78
ee	-79
▁ne	-80
▁k	-81
▁su	-82
ation	-83
ear	-84
ch	-85
one	-86
▁mu	-87
oo	-88
▁be	-89
as	-90
▁li	-91
qu	-92
end	-93
▁le	-94
ak	-95
▁ex	-96
id	-97
▁com	-98
▁mi	-99
ur	-100
▁n	-101
ect	-102
ain	-103
▁could	-104
ff	-105
oun	-106
cy	-107
ic	-108
ist	-109
▁un	-110
▁ch	-111
▁j	-112
ard	-113
ance	-114
▁i	-115
▁de	-116
▁would	-117
ion	-118
ment	-119
ty	-120
ul	-121
▁y	-122
ter	-123
able	-124
▁man	-125
▁st	-126
dar	-127
▁thou	-128
darcy	-129
ra	-130
▁ever	-131
ine	-132
ers	-133
ate	-134
now	-135
ol	-136
mp	-137
ant	-138
ley	-139
ort	-140
▁ac	-141
▁an	-142
▁sh	-143
all	-144
ence	-145
▁al	-146
ong	-147
▁sp	-148
ure	-149
ell	-150
▁know	-151
▁v	-152
▁par	-153
ish	-154
▁mrs	-155
ast	-156
il	-157
▁ti	-158
▁much	-159
ingley	-160
▁en	-161
thing	-162
▁see	-163
ous	-164
▁so	-165
▁pro	-166
iv	-167
▁se	-168
▁dis	-169
▁ge	-170
▁lad	-171
▁pre	-172
au	-173
▁fa	-174
ood	-175
▁must	-176
ie	-177
ind	-178
me	-179
and	-180
▁sist	-181
▁wh	-182
ane	-183
ake	-184
▁mar	-185
app	-186
▁wi	-187
▁one	-188
▁for	-189
ac	-190
un	-191
ble	-192
▁jane	-193
op	-194
▁no	-195
▁every	-196
di	-197
ook	-198
ted	-199
▁exp	-200
age	-201
est	-202
▁ad	-203
ive	-204
▁miss	-205
el	-206
▁po	-207
ily	-208
ally	-209
▁geor	-210
ke	-211
us	-212
▁comp	-213
way	-214
ink	-215
▁qu	-216
▁att	-217
oll	-218
▁well	-219
de	-220
ru	-221
▁ev	-222
ry	-223
tter	-224
sh	-225
reat	-226
▁per	-227
ick	-228
▁hear	-229
▁never	-230
ress	-231
▁though	-232
os	-233
ert	-234
ord	-235
▁lady	-236
▁long	-237
▁soon	-238
▁imp	-239
alk	-240
▁think	-241
▁sister	-242
ved	-243
▁ro	-244
ity	-245
▁happ	-246
▁with	-247
bingley	-248
ful	-249
▁lo	-250
▁app	-251
uc	-252
ham	-253
▁fri	-254
ome	-255
▁go	-256
leas	-257
▁char	-258
ire	-259
ten	-260
ins	-261
med	-262
▁good	-263
ite	-264
▁me	-265
▁ob	-266
▁sa	-267
wick	-268
▁george	-269
ond	-270
▁might	-271
wickham	-272
▁time	-273
▁res	-274
▁friend	-275
ag	-276
▁say	-277
ness	-278
▁mo	-279
ings	-280
▁r	-281
▁wish	-282
▁pleas	-283
ttle	-284
ose	-285
▁may	-286
out	-287
▁tw	-288
▁us	-289
▁youn	-290
▁nothing	-291
▁pl	-292
ollins	-293
▁little	-294
ame	-295
ili	-296
ree	-297
▁day	-298
▁great	-299
ot	-300
dia	-301
ible	-302
mb	-303
ise	-304
ject	-305
urn	-306
▁aff	-307
▁ass	-308
▁look	-309
▁ly	-310
▁lydia	-311
eel	-312
▁hop	-313
lie	-314
ea	-315
▁make	-316
▁without	-317
ut	-318
ound	-319
▁des	-320
▁even	-321
▁young	-322
▁feel	-323
ertain	-324
▁shall	-325
ever	-326
▁fam	-327
ention	-328
are	-329
ner	-330
ade	-331
ffer	-332
▁dear	-333
▁fir	-334
▁cons	-335
fe	-336
led	-337
▁pa	-338
iness	-339
ca	-340
aught	-341
▁room	-342
▁first	-343
▁thought	-344
▁family	-345
lo	-346
▁two	-347
collins	-348
▁belie	-349
▁am	-350
▁op	-351
▁like	-352
um	-353
▁pr	-354
▁rep	-355
ha	-356
bour	-357
ouse	-358
▁house	-359
▁certain	-360
ps	-361
▁acc	-362
▁any	-363
▁last	-364
ways	-365
▁always	-366
▁wor	-367
▁supp	-368
▁to	-369
▁spe	-370
▁marri	-371
▁give	-372
▁made	-373
ection	-374
▁daught	-375
▁ar	-376
ious	-377
▁beg	-378
▁how	-379
▁tow	-380
▁hope	-381
therine	-382
ach	-383
ice	-384
▁father	-385
▁mother	-386
▁however	-387
ann	-388
▁rec	-389
▁reg	-390
▁ab	-391
▁im	-392
ction	-393
igh	-394
per	-395
▁int	-396
▁pers	-397
▁rece	-398
et	-399
ip	-400
ave	-401
ting	-402
▁ent	-403
▁mor	-404
annot	-405
▁cannot	-406
▁walk	-407
elt	-408
▁mer	-409
▁away	-410
catherine	-411
ough	-412
▁sure	-413
sp	-414
ary	-415
▁many	-416
▁parti	-417
▁expect	-418
▁letter	-419
ced	-420
ning	-421
▁inc	-422
▁gard	-423
ens	-424
▁di	-425
ight	-426
ined	-427
▁unc	-428
▁inde	-429
▁talk	-430
ated	-431
ither	-432
ssible	-433
▁bingley	-434
gn	-435
▁pe	-436
ered	-437
▁rem	-438
ended	-439
▁mean	-440
od	-441
▁sc	-442
▁felt	-443
erv	-444
▁love	-445
▁pres	-446
▁appear	-447
sf	-448
ide	-449
▁ag	-450
▁acqu	-451
▁speak	-452
cc	-453
▁sm	-454
ssed	-455
vour	-456
▁sub	-457
▁way	-458
light	-459
▁gent	-460
▁occ	-461
▁saw	-462
▁kind	-463
▁better	-464
▁enough	-465
▁manner	-466
ied	-467
ies	-468
lem	-469
unt	-470
ften	-471
▁inst	-472
cer	-473
ore	-474
iner	-475
▁inf	-476
▁read	-477
ged	-478
▁oh	-479
ards	-480
cess	-481
▁inter	-482
▁acquain	-483
▁attention	-484
emp	-485
▁mat	-486
ility	-487
▁cont	-488
▁done	-489
mber	-490
▁col	-491
▁eng	-492
▁vis	-493
ately	-494
ought	-495
▁come	-496
▁indeed	-497
int	-498
tte	-499
ener	-500
ations	-501
▁often	-502
▁really	-503
▁express	-504
▁pleasure	-505
ef	-506
▁he	-507
▁giv	-508
▁luc	-509
▁sur	-510
▁quite	-511
▁visit	-512
pt	-513
ace	-514
ived	-515
▁sin	-516
▁till	-517
▁want	-518
▁consid	-519
▁subject	-520
▁gardiner	-521
ened	-522
▁bro	-523
▁mom	-524
▁und	-525
▁call	-526
▁perf	-527
▁moment	-528
▁gentlem	-529
ct	-530
ole	-531
▁ra	-532
fort	-533
ions	-534
ular	-535
▁adm	-536
lotte	-537
▁aunt	-538
▁came	-539
▁dist	-540
▁less	-541
▁happy	-542
▁charlotte	-543
irl	-544
ason	-545
▁girl	-546
ody	-547
ably	-548
ount	-549
▁adv	-550
▁rel	-551
bourn	-552
▁hand	-553
▁turn	-554
▁longbourn	-555
ely	-556
ost	-557
red	-558
▁ri	-559
body	-560
ield	-561
less	-562
tisf	-563
▁take	-564
▁place	-565
xt	-566
▁up	-567
▁wr	-568
▁ret	-569
▁gener	-570
lic	-571
vers	-572
▁gra	-573
▁off	-574
▁part	-575
▁feelings	-576
ving	-577
▁all	-578
▁ill	-579
▁yes	-580
▁opin	-581
▁believe	-582
▁brother	-583
▁affection	-584
illi	-585
▁dec	-586
▁tru	-587
▁wom	-588
▁cour	-589
▁surp	-590
▁tell	-591
▁ladies	-592
▁satisf	-593
ank	-594
owed	-595
▁inv	-596
▁bennet	-597
▁anything	-598
▁happiness	-599
▁br	-600
▁far	-601
▁fort	-602
▁seen	-603
▁surpr	-604
▁whole	-605
▁looked	-606
▁partic	-607
▁daughter	-608
medi	-609
▁let	-610
▁yet	-611
▁form	-612
▁ther	-613
▁word	-614
▁reason	-615
▁present	-616
▁particular	-617
ud	-618
osed	-619
tive	-620
▁sit	-621
▁disp	-622
▁find	-623
illiam	-624
▁morning	-625
mon	-626
row	-627
ton	-628
▁af	-629
ised	-630
itty	-631
most	-632
ship	-633
▁car	-634
▁end	-635
▁ref	-636
▁som	-637
▁sti	-638
▁exce	-639
ething	-640
▁lucas	-641
▁marry	-642
▁immedi	-643
▁evening	-644
▁sisters	-645
▁something	-646
ft	-647
alf	-648
▁jo	-649
▁sil	-650
efore	-651
field	-652
▁heard	-653
▁kitty	-654
▁therefore	-655
ack	-656
ess	-657
▁ca	-658
▁nat	-659
▁str	-660
acter	-661
▁next	-662
gether	-663
▁found	-664
▁nether	-665
▁opinion	-666
▁character	-667
▁netherfield	-668
sw	-669
oub	-670
pect	-671
▁civ	-672
▁est	-673
▁half	-674
▁other	-675
▁consider	-676
▁certainly	-677
tim	-678
▁el	-679
erst	-680
▁sec	-681
▁sir	-682
ained	-683
tance	-684
▁disc	-685
▁town	-686
▁still	-687
▁uncle	-688
▁delight	-689
tu	-690
day	-691
haps	-692
swer	-693
ured	-694
▁pri	-695
ments	-696
shire	-697
▁upon	-698
▁coming	-699
▁perhaps	-700
▁acquaintance	-701
air	-702
ust	-703
▁co	-704
onel	-705
▁conv	-706
▁went	-707
▁since	-708
▁answer	-709
▁return	-710
▁colonel	-711
▁perfect	-712
▁ey	-713
ently	-714
▁beha	-715
▁hard	-716
▁occas	-717
▁married	-718
gi	-719
ms	-720
irc	-721
ances	-722
▁circ	-723
▁hour	-724
▁prev	-725
▁told	-726
▁world	-727
▁person	-728
cern	-729
▁ear	-730
▁hum	-731
▁hur	-732
▁new	-733
▁high	-734
▁home	-735
▁began	-736
▁leave	-737
▁woman	-738
▁favour	-739
▁marriage	-740
▁possible	-741
▁together	-742
duc	-743
une	-744
▁cl	-745
▁id	-746
aken	-747
ared	-748
read	-749
▁foll	-750
▁left	-751
▁mind	-752
▁almost	-753
▁either	-754
▁regard	-755
▁mention	-756
▁underst	-757
▁immediately	-758
vi	-759
ign	-760
orm	-761
▁as	-762
▁gone	-763
▁stay	-764
▁year	-765
▁least	-766
▁friends	-767
▁received	-768
new	-769
cted	-770
▁abs	-771
▁add	-772
▁mis	-773
▁opp	-774
▁spo	-775
ingly	-776
onour	-777
▁doub	-778
▁some	-779
▁seeing	-780
▁seemed	-781
▁convers	-782
▁respect	-783
ked	-784
use	-785
▁do	-786
ited	-787
▁equ	-788
aking	-789
▁best	-790
▁knew	-791
▁given	-792
▁going	-793
▁known	-794
▁resol	-795
▁short	-796
▁object	-797
▁rather	-798
▁towards	-799
▁everything	-800
ang	-801
ense	-802
iety	-803
ward	-804
▁din	-805
▁hus	-806
▁able	-807
▁thank	-808
▁honour	-809
ue	-810
ret	-811
▁bl	-812
band	-813
ners	-814
yton	-815
▁ano	-816
▁dep	-817
▁ext	-818
▁pur	-819
▁sett	-820
▁agree	-821
▁hands	-822
▁means	-823
▁three	-824
▁another	-825
▁husband	-826
▁meryton	-827
▁occasion	-828
over	-829
▁whe	-830
ondon	-831
▁dire	-832
▁life	-833
fferent	-834
mberley	-835
▁london	-836
▁whether	-837
▁pemberley	-838
▁conversation	-839
lig	-840
reh	-841
▁gr	-842
▁eas	-843
▁get	-844
▁mee	-845
▁min	-846
▁sat	-847
▁ste	-848
ssion	-849
▁cous	-850
▁prom	-851
▁rest	-852
▁side	-853
▁temp	-854
ctions	-855
▁neigh	-856
▁quest	-857
▁whose	-858
▁circum	-859
▁others	-860
▁passed	-861
▁neighbour	-862
ali	-863
ana	-864
ual	-865
aged	-866
ople	-867
giana	-868
viour	-869
▁comm	-870
▁conf	-871
▁else	-872
▁near	-873
▁people	-874
▁comfort	-875
▁concern	-876
▁general	-877
▁behaviour	-878
▁georgiana	-879
te	-880
its	-881
les	-882
lish	-883
ower	-884
▁ins	-885
▁door	-886
▁gave	-887
▁idea	-888
▁indi	-889
▁carri	-890
▁conne	-891
▁ought	-892
▁persu	-893
itation	-894
▁settled	-895
▁circumst	-896
▁daughters	-897
eep	-898
▁gu	-899
ties	-900
▁bus	-901
▁fre	-902
▁ser	-903
▁arri	-904
▁fear	-905
▁inqu	-906
▁pain	-907
▁prob	-908
▁scar	-909
▁spir	-910
▁took	-911
▁wond	-912
▁girls	-913
▁minut	-914
▁point	-915
▁compan	-916
▁course	-917
▁hardly	-918
▁manners	-919
▁perfectly	-920
omp	-921
▁gl	-922
iled	-923
term	-924
▁back	-925
▁impo	-926
▁grati	-927
▁former	-928
arm	-929
ill	-930
▁ask	-931
▁def	-932
▁lau	-933
▁beau	-934
▁eyes	-935
▁over	-936
▁doubt	-937
▁heart	-938
▁offic	-939
▁determ	-940
▁suppose	-941
▁interest	-942
▁gentleman	-943
▁impossible	-944
ew	-945
ib	-946
if	-947
hood	-948
know	-949
sequ	-950
▁ros	-951
antly	-952
ating	-953
ented	-954
ressed	-955
▁laugh	-956
▁party	-957
▁right	-958
▁assure	-959
▁scarce	-960
▁business	-961
▁expected	-962
▁understand	-963
jo	-964
eek	-965
eng	-966
▁ph	-967
▁bre	-968
▁bri	-969
▁obs	-970
▁tri	-971
atter	-972
ition	-973
▁acce	-974
▁sens	-975
▁admir	-976
▁advant	-977
▁called	-978
▁compli	-979
▁convin	-980
▁necess	-981
▁rosings	-982
▁ladyship	-983
▁scarcely	-984
act	-985
ase	-986
raw	-987
rew	-988
val	-989
▁fe	-990
ange	-991
olle	-992
ston	-993
▁exc	-994
▁suc	-995
ished	-996
owing	-997
▁head	-998
▁mist	-999
▁poss	-1000
▁serv	-1001
▁wife	-1002
▁aston	-1003
▁power	-1004
▁walked	-1005
▁wished	-1006
▁consequ	-1007
▁recolle	-1008
▁civility	-1009
▁surprise	-1010
▁gentlemen	-1011
vo	-1012
ford	-1013
iece	-1014
raid	-1015
▁anx	-1016
iable	-1017
spect	-1018
▁decl	-1019
▁live	-1020
▁open	-1021
▁reme	-1022
▁week	-1023
ountry	-1024
▁pride	-1025
▁spoke	-1026
ination	-1027
▁disapp	-1028
▁matter	-1029
▁proper	-1030
▁country	-1031
ild	-1032
oud	-1033
olly	-1034
ster	-1035
▁care	-1036
▁hert	-1037
▁imag	-1038
▁list	-1039
▁afraid	-1040
▁cousin	-1041
▁import	-1042
▁turned	-1043
▁fortune	-1044
▁pleased	-1045
fordshire	-1046
▁carriage	-1047
▁handsome	-1048
▁agreeable	-1049
▁everybody	-1050
▁hertfordshire	-1051
iew	-1052
rud	-1053
▁fl	-1054
▁wa	-1055
▁ind	-1056
▁met	-1057
▁ten	-1058
ength	-1059
▁ball	-1060
▁coun	-1061
▁dare	-1062
▁mary	-1063
▁prop	-1064
ending	-1065
▁conce	-1066
▁offer	-1067
▁amiable	-1068
▁serious	-1069
▁convinced	-1070
im	-1071
elp	-1072
old	-1073
ory	-1074
▁aw	-1075
▁la	-1076
ceed	-1077
▁enc	-1078
ached	-1079
times	-1080
▁four	-1081
▁help	-1082
▁incl	-1083
▁pass	-1084
▁poor	-1085
erence	-1086
▁appro	-1087
▁endea	-1088
▁night	-1089
▁table	-1090
agement	-1091
▁likely	-1092
▁longer	-1093
▁talked	-1094
▁engaged	-1095
▁william	-1096
▁sometimes	-1097
ts	-1098
zw	-1099
fit	-1100
ause	-1101
wise	-1102
▁lib	-1103
▁men	-1104
▁smi	-1105
▁draw	-1106
▁situ	-1107
▁among	-1108
▁child	-1109
▁write	-1110
osition	-1111
▁within	-1112
▁wonder	-1113
zwilliam	-1114
▁entered	-1115
▁forster	-1116
▁minutes	-1117
▁spirits	-1118
▁advantage	-1119
▁different	-1120
▁endeavour	-1121
ven	-1122
▁fi	-1123
ents	-1124
oler	-1125
▁eff	-1126
▁jud	-1127
▁soc	-1128
fully	-1129
iting	-1130
▁requ	-1131
▁sort	-1132
▁equal	-1133
knowled	-1134
▁accomp	-1135
▁dinner	-1136
▁humour	-1137
▁making	-1138
▁account	-1139
▁brought	-1140
▁disappo	-1141
▁feeling	-1142
▁talking	-1143
▁acknowled	-1144
ck	-1145
cip	-1146
par	-1147
rie	-1148
ided	-1149
oice	-1150
yond	-1151
▁air	-1152
▁der	-1153
▁eld	-1154
▁sor	-1155
ilips	-1156
ounds	-1157
▁desc	-1158
▁forg	-1159
▁sent	-1160
action	-1161
▁sense	-1162
ishment	-1163
▁beyond	-1164
▁inform	-1165
▁merely	-1166
▁saying	-1167
▁strong	-1168
▁philips	-1169
▁society	-1170
▁believed	-1171
▁speaking	-1172
▁surprised	-1173
▁appearance	-1174
arn	-1175
uri	-1176
ager	-1177
atch	-1178
ffic	-1179
like	-1180
sand	-1181
tude	-1182
ying	-1183
▁ang	-1184
▁den	-1185
▁lar	-1186
▁pra	-1187
anger	-1188
ident	-1189
usion	-1190
▁disg	-1191
▁fine	-1192
▁five	-1193
▁keep	-1194
▁name	-1195
▁obli	-1196
▁view	-1197
▁allow	-1198
▁eager	-1199
▁exact	-1200
▁frequ	-1201
▁intro	-1202
▁natur	-1203
▁usual	-1204
jection	-1205
▁length	-1206
▁collins	-1207
▁neither	-1208
▁appeared	-1209
▁officers	-1210
▁thousand	-1211
▁invitation	-1212
▁consequence	-1213
▁satisfaction	-1214
ma	-1215
up	-1216
▁tr	-1217
▁sum	-1218
▁une	-1219
ption	-1220
redit	-1221
wards	-1222
▁days	-1223
▁news	-1224
▁after	-1225
▁hurst	-1226
▁impro	-1227
▁sorry	-1228
▁taken	-1229
▁toler	-1230
▁years	-1231
▁exceed	-1232
▁observ	-1233
▁wishes	-1234
▁arrival	-1235
▁exactly	-1236
▁receive	-1237
▁situation	-1238
fitzwilliam	-1239
▁circumstances	-1240
by	-1241
so	-1242
ark	-1243
rib	-1244
ult	-1245
▁si	-1246
airs	-1247
cing	-1248
empt	-1249
erve	-1250
ient	-1251
rary	-1252
▁bec	-1253
▁dan	-1254
▁sel	-1255
aster	-1256
ellig	-1257
ortun	-1258
▁book	-1259
▁conc	-1260
▁curi	-1261
▁deal	-1262
▁face	-1263
▁glad	-1264
▁hast	-1265
▁just	-1266
▁meet	-1267
▁charm	-1268
▁dance	-1269
▁niece	-1270
▁sever	-1271
▁words	-1272
▁credit	-1273
▁depend	-1274
▁encour	-1275
▁joined	-1276
▁forward	-1277
▁servant	-1278
▁silence	-1279
▁younger	-1280
▁kindness	-1281
▁opportun	-1282
▁sensible	-1283
▁afterwards	-1284
▁determined	-1285
▁astonishment	-1286
dd	-1287
ior	-1288
ney	-1289
omm	-1290
ors	-1291
xed	-1292
enti	-1293
oney	-1294
▁val	-1295
ality	-1296
ected	-1297
▁also	-1298
▁bear	-1299
▁lost	-1300
▁play	-1301
▁real	-1302
▁self	-1303
▁begin	-1304
▁money	-1305
▁assist	-1306
▁recomm	-1307
▁slight	-1308
▁things	-1309
▁intellig	-1310
▁instantly	-1311
▁mentioned	-1312
▁necessary	-1313
▁satisfied	-1314
▁opportunity	-1315
▁particularly	-1316
▁neighbourhood	-1317
che	-1318
ere	-1319
ief	-1320
mes	-1321
ows	-1322
▁bo	-1323
▁ve	-1324
alth	-1325
ancy	-1326
ures	-1327
▁cap	-1328
▁emp	-1329
▁mon	-1330
▁put	-1331
▁ter	-1332
▁use	-1333
ready	-1334
▁noti	-1335
▁alone	-1336
▁assur	-1337
▁bring	-1338
▁desir	-1339
▁intim	-1340
▁meant	-1341
▁reply	-1342
tenance	-1343
▁highly	-1344
▁master	-1345
▁remark	-1346
▁second	-1347
fference	-1348
▁already	-1349
▁remember	-1350
▁resolved	-1351
▁objection	-1352
▁compliment	-1353
▁countenance	-1354
ati	-1355
ial	-1356
res	-1357
uce	-1358
aded	-1359
▁cor	-1360
▁hun	-1361
▁unw	-1362
ising	-1363
iving	-1364
ourgh	-1365
utely	-1366
ution	-1367
▁case	-1368
▁enti	-1369
▁park	-1370
▁quit	-1371
▁thus	-1372
▁derby	-1373
▁early	-1374
▁learn	-1375
▁month	-1376
▁refle	-1377
▁stand	-1378
▁thing	-1379
▁accept	-1380
▁attach	-1381
▁bourgh	-1382
▁bright	-1383
▁direct	-1384
▁suffer	-1385
▁wholly	-1386
▁absence	-1387
▁allowed	-1388
▁anxious	-1389
▁anybody	-1390
▁compreh	-1391
▁knowing	-1392
▁obliged	-1393
▁success	-1394
▁expressed	-1395
▁acquainted	-1396
▁derbyshire	-1397
▁importance	-1398
▁disposition	-1399
▁exceedingly	-1400
gr	-1401
ph	-1402
ze	-1403
ull	-1404
▁we	-1405
fast	-1406
fess	-1407
gnor	-1408
phew	-1409
▁gre	-1410
▁set	-1411
▁wed	-1412
ailed	-1413
ative	-1414
ually	-1415
▁choo	-1416
▁expl	-1417
▁fair	-1418
▁remo	-1419
▁sche	-1420
▁sing	-1421
atever	-1422
▁break	-1423
▁hours	-1424
▁ignor	-1425
▁large	-1426
▁occur	-1427
▁perce	-1428
▁smile	-1429
▁trust	-1430
▁beauty	-1431
▁easily	-1432
▁giving	-1433
▁health	-1434
▁nephew	-1435
▁resent	-1436
▁assured	-1437
▁looking	-1438
▁intended	-1439
▁marrying	-1440
▁question	-1441
▁supposed	-1442
▁whatever	-1443
wh	-1444
ead	-1445
own	-1446
ren	-1447
son	-1448
tty	-1449
ves	-1450
atul	-1451
gree	-1452
void	-1453
▁dro	-1454
▁ele	-1455
▁got	-1456
▁van	-1457
▁var	-1458
▁wel	-1459
ardon	-1460
duced	-1461
eness	-1462
ering	-1463
iment	-1464
▁dece	-1465
▁lett	-1466
▁pray	-1467
▁purp	-1468
▁sake	-1469
▁amuse	-1470
▁chief	-1471
▁extra	-1472
▁forge	-1473
▁match	-1474
▁proud	-1475
▁seems	-1476
▁spent	-1477
▁super	-1478
▁anyone	-1479
▁curios	-1480
▁degree	-1481
▁design	-1482
▁effect	-1483
▁nature	-1484
▁pounds	-1485
▁pretty	-1486
▁silent	-1487
▁sincer	-1488
▁temper	-1489
▁wanted	-1490
▁company	-1491
▁conceal	-1492
▁drawing	-1493
▁imagine	-1494
▁instead	-1495
▁probably	-1496
▁regiment	-1497
▁gratitude	-1498
▁persuaded	-1499
▁admiration	-1500
▁attentions	-1501
▁information	-1502
loy	-1503
luc	-1504
adam	-1505
dden	-1506
fied	-1507
gest	-1508
race	-1509
rely	-1510
rote	-1511
used	-1512
▁beh	-1513
▁cle	-1514
▁fin	-1515
▁law	-1516
▁ord	-1517
▁son	-1518
▁tea	-1519
atest	-1520
ially	-1521
osure	-1522
unate	-1523
▁easy	-1524
▁enjo	-1525
▁evil	-1526
▁grie	-1527
▁need	-1528
▁poli	-1529
▁pref	-1530
▁quar	-1531
▁wind	-1532
lished	-1533
rehens	-1534
▁const	-1535
▁creat	-1536
▁dread	-1537
▁event	-1538
▁guard	-1539
▁liked	-1540
▁madam	-1541
▁small	-1542
▁terms	-1543
▁truth	-1544
▁voice	-1545
▁worth	-1546
▁wrote	-1547
tention	-1548
▁admire	-1549
▁compar	-1550
▁conduc	-1551
▁desire	-1552
▁eldest	-1553
▁employ	-1554
▁praise	-1555
▁remain	-1556
▁sudden	-1557
▁address	-1558
▁hearing	-1559
▁natural	-1560
▁walking	-1561
▁attended	-1562
▁brighton	-1563
▁children	-1564
▁mistaken	-1565
▁pleasant	-1566
▁breakfast	-1567
▁curiosity	-1568
iri	-1569
ple	-1570
ron	-1571
ses	-1572
ute	-1573
alse	-1574
educ	-1575
long	-1576
nest	-1577
▁ago	-1578
▁che	-1579
▁emb	-1580
▁lam	-1581
eeper	-1582
iling	-1583
inary	-1584
incip	-1585
inter	-1586
iries	-1587
▁cold	-1588
▁deli	-1589
▁desp	-1590
▁join	-1591
▁jour	-1592
▁repe	-1593
▁susp	-1594
▁true	-1595
▁warm	-1596
▁writ	-1597
gratul	-1598
▁absol	-1599
▁avoid	-1600
▁false	-1601
▁incre	-1602
▁plain	-1603
▁state	-1604
▁common	-1605
▁possib	-1606
▁earnest	-1607
▁greater	-1608
▁journey	-1609
▁proceed	-1610
▁purpose	-1611
▁charming	-1612
▁directly	-1613
▁discover	-1614
▁distress	-1615
▁entirely	-1616
▁greatest	-1617
▁promised	-1618
▁relation	-1619
▁thoughts	-1620
▁congratul	-1621
▁following	-1622
▁inquiries	-1623
▁relations	-1624
▁attachment	-1625
▁comprehend	-1626
▁inclination	-1627
gy	-1628
ia	-1629
lu	-1630
ken	-1631
lay	-1632
▁au	-1633
▁pu	-1634
ages	-1635
akes	-1636
ides	-1637
rown	-1638
test	-1639
▁ben	-1640
▁cla	-1641
▁neg	-1642
▁run	-1643
inted	-1644
night	-1645
osing	-1646
▁paid	-1647
▁stru	-1648
▁used	-1649
licity	-1650
▁civil	-1651
▁light	-1652
▁maria	-1653
▁miser	-1654
▁sight	-1655
▁spite	-1656
▁treat	-1657
▁watch	-1658
ability	-1659
▁change	-1660
▁comple	-1661
▁forced	-1662
▁forget	-1663
▁housek	-1664
▁imprud	-1665
▁instru	-1666
▁latter	-1667
▁regret	-1668
▁vanity	-1669
▁conduct	-1670
▁flatter	-1671
▁library	-1672
▁meeting	-1673
▁princip	-1674
▁reached	-1675
▁sitting	-1676
▁followed	-1677
▁happened	-1678
▁pleasing	-1679
▁thinking	-1680
▁favourite	-1681
▁intention	-1682
▁prevented	-1683
▁considered	-1684
▁engagement	-1685
▁frequently	-1686
▁intelligence	-1687
gu	-1688
als	-1689
cap	-1690
eas	-1691
ict	-1692
▁ap	-1693
▁du	-1694
▁sw	-1695
▁vi	-1696
amed	-1697
arra	-1698
ched	-1699
come	-1700
ding	-1701
king	-1702
spec	-1703
unic	-1704
▁ama	-1705
▁lea	-1706
▁unp	-1707
cious	-1708
erved	-1709
itted	-1710
ously	-1711
sford	-1712
▁eleg	-1713
▁exam	-1714
▁exer	-1715
▁full	-1716
▁rejo	-1717
▁seem	-1718
▁when	-1719
sonage	-1720
▁cause	-1721
▁compl	-1722
▁enjoy	-1723
▁fancy	-1724
▁fixed	-1725
▁hoped	-1726
▁ready	-1727
▁relie	-1728
▁separ	-1729
▁times	-1730
▁uncom	-1731
▁colour	-1732
▁estate	-1733
▁living	-1734
▁morrow	-1735
▁opened	-1736
▁pardon	-1737
▁unless	-1738
▁dancing	-1739
▁readily	-1740
▁several	-1741
▁written	-1742
▁affected	-1743
▁communic	-1744
▁hunsford	-1745
▁prospect	-1746
▁whenever	-1747
▁parsonage	-1748
▁receiving	-1749
▁disappoint	-1750
▁expectation	-1751
▁particulars	-1752
▁acknowledged	-1753
ky	-1754
ber	-1755
ept	-1756
mer	-1757
ling	-1758
orth	-1759
reme	-1760
▁clo	-1761
▁hea	-1762
▁pay	-1763
▁unh	-1764
gment	-1765
ledge	-1766
lling	-1767
ormed	-1768
ouble	-1769
rance	-1770
tiful	-1771
▁cond	-1772
▁late	-1773
▁plan	-1774
▁prep	-1775
▁pret	-1776
▁scen	-1777
▁step	-1778
▁vain	-1779
▁viol	-1780
▁wait	-1781
▁work	-1782
idence	-1783
ission	-1784
teness	-1785
▁alarm	-1786
▁alter	-1787
▁angry	-1788
▁cheer	-1789
▁compa	-1790
▁concl	-1791
▁espec	-1792
▁estee	-1793
▁senti	-1794
▁stead	-1795
fulness	-1796
▁affair	-1797
▁afford	-1798
▁chance	-1799
▁danger	-1800
▁impati	-1801
▁notice	-1802
▁report	-1803
▁attempt	-1804
▁confess	-1805
▁dislike	-1806
▁extreme	-1807
▁leaving	-1808
▁letters	-1809
▁possess	-1810
▁recover	-1811
▁removed	-1812
▁approach	-1813
▁declared	-1814
▁felicity	-1815
▁likewise	-1816
▁listened	-1817
▁remained	-1818
▁addressed	-1819
▁concerned	-1820
▁delighted	-1821
▁entertain	-1822
▁fortnight	-1823
▁knowledge	-1824
▁questions	-1825
▁absolutely	-1826
▁connection	-1827
▁especially	-1828
▁expression	-1829
▁resolution	-1830
▁housekeeper	-1831
▁circumstance	-1832
▁indifference	-1833
oc	-1834
art	-1835
ope	-1836
tic	-1837
ump	-1838
zed	-1839
duce	-1840
enew	-1841
lied	-1842
mony	-1843
omin	-1844
ross	-1845
uded	-1846
▁ash	-1847
▁eye	-1848
▁fut	-1849
▁hor	-1850
▁try	-1851
▁unf	-1852
licit	-1853
using	-1854
▁drew	-1855
▁hint	-1856
▁kept	-1857
▁loss	-1858
▁none	-1859
▁purs	-1860
▁quie	-1861
▁send	-1862
iction	-1863
▁accep	-1864
▁blame	-1865
▁chose	-1866
▁comes	-1867
▁estab	-1868
▁hopes	-1869
▁influ	-1870
▁mater	-1871
▁oblig	-1872
▁pause	-1873
▁renew	-1874
▁round	-1875
▁weeks	-1876
▁women	-1877
▁advice	-1878
▁choose	-1879
▁contin	-1880
▁dining	-1881
▁engage	-1882
▁excell	-1883
▁except	-1884
▁formed	-1885
▁future	-1886
▁listen	-1887
▁months	-1888
▁proved	-1889
▁scheme	-1890
▁summer	-1891
▁taking	-1892
▁thanks	-1893
▁unhapp	-1894
▁unwill	-1895
▁winter	-1896
▁describ	-1897
▁embarra	-1898
▁equally	-1899
▁evident	-1900
▁increas	-1901
▁interru	-1902
▁ignorant	-1903
▁persuade	-1904
▁suddenly	-1905
▁superior	-1906
▁visitors	-1907
▁apprehens	-1908
▁composure	-1909
▁generally	-1910
▁otherwise	-1911
▁recommend	-1912
▁compassion	-1913
▁politeness	-1914
▁resentment	-1915
▁connections	-1916
▁indifferent	-1917
▁understanding	-1918
acy	-1919
ath	-1920
dge	-1921
emb	-1922
man	-1923
olo	-1924
ons	-1925
orn	-1926
▁es	-1927
▁ir	-1928
▁sy	-1929
ency	-1930
enty	-1931
ergy	-1932
ired	-1933
ison	-1934
lest	-1935
pped	-1936
sday	-1937
urch	-1938
uted	-1939
▁cal	-1940
▁det	-1941
▁foo	-1942
▁inj	-1943
▁mus	-1944
▁old	-1945
▁pun	-1946
▁tra	-1947
▁vex	-1948
agree	-1949
arest	-1950
cting	-1951
ively	-1952
urday	-1953
▁actu	-1954
▁dine	-1955
▁educ	-1956
▁fond	-1957
▁forb	-1958
▁says	-1959
▁tone	-1960
▁valu	-1961
dition	-1962
stairs	-1963
▁apolo	-1964
▁hurry	-1965
▁liber	-1966
▁morti	-1967
▁quick	-1968
▁repro	-1969
▁scene	-1970
fortune	-1971
ilities	-1972
▁assemb	-1973
▁belief	-1974
▁consol	-1975
▁diffic	-1976
▁excess	-1977
▁inquir	-1978
▁repres	-1979
▁smiled	-1980
▁spoken	-1981
▁twenty	-1982
▁ashamed	-1983
▁capable	-1984
▁greatly	-1985
▁lucases	-1986
▁painful	-1987
▁partner	-1988
▁perform	-1989
▁prevent	-1990
▁quarter	-1991
▁request	-1992
▁succeed	-1993
▁trouble	-1994
▁disagree	-1995
▁disgrace	-1996
▁distance	-1997
▁saturday	-1998
▁companion	-1999
▁extremely	-2000
▁fortunate	-2001
▁prevailed	-2002
▁tolerable	-2003
▁tolerably	-2004
▁conviction	-2005
▁delightful	-2006
▁misfortune	-2007
▁reasonable	-2008
▁understood	-2009
▁affectionate	-2010
▁disappointment	-2011
tc	-2012
ash	-2013
ech	-2014
eet	-2015
esc	-2016
iod	-2017
uli	-2018
ush	-2019
vel	-2020
▁pi	-2021
ates	-2022
thor	-2023
▁bes	-2024
▁etc	-2025
▁ide	-2026
▁led	-2027
▁mod	-2028
▁pat	-2029
▁ple	-2030
▁rid	-2031
▁sun	-2032
arily	-2033
ience	-2034
isper	-2035
isure	-2036
tting	-2037
▁ease	-2038
▁furn	-2039
▁hill	-2040
▁lead	-2041
▁lord	-2042
▁pict	-2043
▁prov	-2044
▁road	-2045
▁stri	-2046
▁suit	-2047
▁thir	-2048
▁wood	-2049
bation	-2050
▁books	-2051
▁close	-2052
▁escap	-2053
▁ideas	-2054
▁lived	-2055
▁looks	-2056
▁miles	-2057
▁negle	-2058
▁quiet	-2059
▁stood	-2060
▁tempt	-2061
▁uneas	-2062
▁unluc	-2063
▁accord	-2064
▁asking	-2065
▁author	-2066
▁behind	-2067
▁excuse	-2068
▁ground	-2069
▁justif	-2070
▁period	-2071
▁propos	-2072
▁seated	-2073
▁somewh	-2074
▁speech	-2075
ordinary	-2076
▁anxiety	-2077
▁calling	-2078
▁condesc	-2079
▁decided	-2080
▁leisure	-2081
▁promise	-2082
▁related	-2083
▁turning	-2084
▁wedding	-2085
▁whisper	-2086
▁wishing	-2087
▁intimate	-2088
▁occurred	-2089
▁standing	-2090
▁youngest	-2091
▁amusement	-2092
▁assurance	-2093
▁beautiful	-2094
▁beginning	-2095
▁gratified	-2096
▁influence	-2097
▁seriously	-2098
▁supposing	-2099
▁assistance	-2100
▁distressed	-2101
▁expressions	-2102
▁observation	-2103
▁accomplished	-2104
▁consideration	-2105
▁extraordinary	-2106
ny	-2107
een	-2108
fic	-2109
ott	-2110
aint	-2111
outh	-2112
thes	-2113
▁arr	-2114
▁bad	-2115
▁bit	-2116
▁cau	-2117
▁deb	-2118
▁pub	-2119
▁ran	-2120
▁rev	-2121
▁tre	-2122
▁una	-2123
▁vol	-2124
▁wit	-2125
ender	-2126
erday	-2127
ertin	-2128
otten	-2129
▁chec	-2130
▁fact	-2131
▁fall	-2132
▁fell	-2133
▁gall	-2134
▁insu	-2135
▁kent	-2136
▁mine	-2137
▁rank	-2138
▁yest	-2139
entive	-2140
▁aware	-2141
▁clear	-2142
▁denny	-2143
▁dress	-2144
▁drove	-2145
▁folly	-2146
▁indul	-2147
▁music	-2148
▁provo	-2149
▁tried	-2150
▁utter	-2151
▁views	-2152
▁wrong	-2153
▁abomin	-2154
▁applic	-2155
▁became	-2156
▁dances	-2157
▁happen	-2158
▁heaven	-2159
▁motive	-2160
▁parted	-2161
▁ration	-2162
▁rejoic	-2163
▁rememb	-2164
▁single	-2165
▁sooner	-2166
▁struck	-2167
▁suspic	-2168
▁unable	-2169
▁arrived	-2170
▁besides	-2171
▁consent	-2172
▁dearest	-2173
▁entreat	-2174
▁farther	-2175
▁justice	-2176
▁natured	-2177
▁parties	-2178
▁shortly	-2179
▁suspect	-2180
▁bringing	-2181
▁creature	-2182
▁deceived	-2183
▁disposed	-2184
▁dreadful	-2185
▁finished	-2186
▁impertin	-2187
▁informed	-2188
▁judgment	-2189
▁laughing	-2190
▁probable	-2191
▁servants	-2192
▁stranger	-2193
▁upstairs	-2194
▁attentive	-2195
▁connected	-2196
▁excellent	-2197
▁forgotten	-2198
▁observing	-2199
▁unwilling	-2200
▁yesterday	-2201
▁comparison	-2202
▁neighbours	-2203
▁application	-2204
▁engagements	-2205
▁interesting	-2206
▁apprehension	-2207
▁disagreeable	-2208
▁disappointed	-2209
▁occasionally	-2210
ig	-2211
of	-2212
err	-2213
ude	-2214
udi	-2215
ues	-2216
umb	-2217
▁bu	-2218
▁dw	-2219
amma	-2220
bton	-2221
ging	-2222
iest	-2223
lour	-2224
reed	-2225
reet	-2226
ring	-2227
tily	-2228
umph	-2229
▁age	-2230
▁awk	-2231
▁cou	-2232
▁dri	-2233
▁due	-2234
▁err	-2235
▁joy	-2236
idity	-2237
igned	-2238
isted	-2239
omest	-2240
osite	-2241
ourse	-2242
▁argu	-2243
▁diss	-2244
▁duty	-2245
▁lane	-2246
▁more	-2247
▁priv	-2248
▁prud	-2249
▁sour	-2250
▁stud	-2251
▁tast	-2252
▁tear	-2253
aining	-2254
allest	-2255
itated	-2256
rossed	-2257
▁aloud	-2258
▁anger	-2259
▁benef	-2260
▁blush	-2261
▁boast	-2262
▁coach	-2263
▁court	-2264
▁dared	-2265
▁enter	-2266
▁grate	-2267
▁grave	-2268
▁judge	-2269
▁loved	-2270
▁mamma	-2271
▁noble	-2272
▁profe	-2273
▁pursu	-2274
▁silly	-2275
▁trave	-2276
▁agreed	-2277
▁explan	-2278
▁famili	-2279
▁garden	-2280
▁height	-2281
▁income	-2282
▁indign	-2283
▁interf	-2284
▁lately	-2285
▁learnt	-2286
▁marked	-2287
▁nobody	-2288
▁please	-2289
▁public	-2290
▁relate	-2291
▁supper	-2292
▁window	-2293
fficient	-2294
▁awkward	-2295
▁clothes	-2296
▁cousins	-2297
▁eagerly	-2298
▁elegant	-2299
▁finding	-2300
▁grieved	-2301
▁improve	-2302
▁lambton	-2303
▁meaning	-2304
▁moments	-2305
▁opening	-2306
▁parlour	-2307
▁passing	-2308
▁protest	-2309
▁reading	-2310
▁triumph	-2311
▁visitor	-2312
▁accepted	-2313
▁accident	-2314
▁accompan	-2315
▁actually	-2316
▁constant	-2317
▁contempt	-2318
▁displeas	-2319
▁entrance	-2320
▁frequent	-2321
▁heartily	-2322
▁introduc	-2323
▁moreover	-2324
▁opposite	-2325
▁produced	-2326
▁believing	-2327
▁desirable	-2328
▁education	-2329
▁immediate	-2330
▁returning	-2331
▁favourable	-2332
▁partiality	-2333
▁preference	-2334
▁possibility	-2335
▁recollection	-2336
▁relationship	-2337
▁encouragement	-2338
to	-2339
ail	-2340
kes	-2341
ool	-2342
ule	-2343
und	-2344
▁ga	-2345
▁ru	-2346
▁ut	-2347
aced	-2348
ames	-2349
cacy	-2350
ines	-2351
ises	-2352
land	-2353
ldom	-2354
ried	-2355
ront	-2356
ruel	-2357
usal	-2358
▁ann	-2359
▁hab	-2360
▁low	-2361
▁med	-2362
▁nay	-2363
▁pec	-2364
▁sho	-2365
▁six	-2366
▁tot	-2367
anged	-2368
fying	-2369
ignif	-2370
inson	-2371
lying	-2372
onoun	-2373
tions	-2374
uliar	-2375
ulous	-2376
xpect	-2377
▁deep	-2378
▁fast	-2379
▁feat	-2380
▁fema	-2381
▁fish	-2382
▁free	-2383
▁hall	-2384
▁hold	-2385
▁lose	-2386
▁luck	-2387
▁post	-2388
▁rich	-2389
▁sick	-2390
▁stup	-2391
▁teas	-2392
▁tues	-2393
▁weak	-2394
▁wild	-2395
leness	-2396
nesday	-2397
ssment	-2398
zement	-2399
▁cruel	-2400
▁elder	-2401
▁elope	-2402
▁fresh	-2403
▁incon	-2404
▁invol	-2405
▁occup	-2406
▁piece	-2407
▁press	-2408
▁quali	-2409
▁reach	-2410
▁ridic	-2411
▁shame	-2412
▁share	-2413
▁shire	-2414
▁spend	-2415
▁sweet	-2416
▁taste	-2417
▁twice	-2418
▁wants	-2419
▁withd	-2420
▁worse	-2421
imation	-2422
retched	-2423
xpected	-2424
▁caught	-2425
▁choice	-2426
▁church	-2427
▁danced	-2428
▁depart	-2429
▁feared	-2430
▁incred	-2431
▁lively	-2432
▁misery	-2433
▁nieces	-2434
▁prefer	-2435
▁relief	-2436
▁seldom	-2437
▁smiles	-2438
▁source	-2439
▁spirit	-2440
▁steady	-2441
▁street	-2442
▁utmost	-2443
▁admired	-2444
▁amongst	-2445
▁apologi	-2446
▁applied	-2447
▁arrange	-2448
▁chiefly	-2449
▁commend	-2450
▁conject	-2451
▁courage	-2452
▁display	-2453
▁gallant	-2454
▁hurried	-2455
▁impress	-2456
▁inquire	-2457
▁invited	-2458
▁laughed	-2459
▁neglect	-2460
▁picture	-2461
▁pronoun	-2462
▁staying	-2463
▁support	-2464
▁tuesday	-2465
▁unhappy	-2466
▁unlucky	-2467
▁waiting	-2468
▁writing	-2469
▁goodness	-2470
▁grateful	-2471
▁offended	-2472
▁peculiar	-2473
▁rational	-2474
▁required	-2475
▁smallest	-2476
▁uncommon	-2477
▁vexation	-2478
▁amazement	-2479
▁catherine	-2480
▁enjoyment	-2481
▁introduce	-2482
▁proceeded	-2483
▁sincerely	-2484
▁wednesday	-2485
▁imprudence	-2486
▁instrument	-2487
▁objections	-2488
▁remarkably	-2489
▁sentiments	-2490
▁unexpected	-2491
▁comfortable	-2492
▁compliments	-2493
▁endeavoured	-2494
▁excessively	-2495
▁recollected	-2496
▁recommended	-2497
▁respectable	-2498
▁interference	-2499
▁interruption	-2500
▁embarrassment	-2501
yn	-2502
com	-2503
ger	-2504
tue	-2505
yed	-2506
▁ow	-2507
▁sl	-2508
▁ur	-2509
elve	-2510
ingu	-2511
just	-2512
lemn	-2513
olds	-2514
ones	-2515
recy	-2516
resh	-2517
resp	-2518
rink	-2519
rist	-2520
tens	-2521
tyle	-2522
ulty	-2523
zing	-2524
▁bow	-2525
▁cha	-2526
▁fit	-2527
▁hes	-2528
▁inn	-2529
▁rap	-2530
▁sto	-2531
▁ung	-2532
▁vir	-2533
▁wis	-2534
aging	-2535
erior	-2536
erves	-2537
iture	-2538
liest	-2539
uring	-2540
vered	-2541
▁alar	-2542
▁calm	-2543
▁disd	-2544
▁excl	-2545
▁fash	-2546
▁hate	-2547
▁king	-2548
▁pati	-2549
▁pity	-2550
▁proc	-2551
▁rend	-2552
▁reyn	-2553
▁scru	-2554
▁show	-2555
▁tall	-2556
▁vent	-2557
eather	-2558
oubted	-2559
▁admit	-2560
▁along	-2561
▁blind	-2562
▁dined	-2563
▁discu	-2564
▁doors	-2565
▁gover	-2566
▁knows	-2567
▁lines	-2568
▁purch	-2569
▁shook	-2570
▁speed	-2571
▁style	-2572
▁tears	-2573
▁third	-2574
▁uncon	-2575
▁yield	-2576
▁youth	-2577
respond	-2578
▁attrib	-2579
▁belong	-2580
▁bitter	-2581
▁christ	-2582
▁clergy	-2583
▁couple	-2584
▁escape	-2585
▁esteem	-2586
▁fellow	-2587
▁female	-2588
▁follow	-2589
▁gained	-2590
▁humble	-2591
▁induce	-2592
▁insist	-2593
▁longed	-2594
▁remind	-2595
▁secret	-2596
▁secure	-2597
▁solemn	-2598
▁stayed	-2599
▁sunday	-2600
▁tender	-2601
▁thrown	-2602
▁twelve	-2603
▁unfort	-2604
▁unknow	-2605
▁virtue	-2606
▁volunt	-2607
lishment	-2608
▁deserve	-2609
▁disgust	-2610
▁forgive	-2611
▁guarded	-2612
▁hastily	-2613
▁inquiry	-2614
▁matters	-2615
▁observe	-2616
▁officer	-2617
▁partial	-2618
▁running	-2619
▁secrecy	-2620
▁service	-2621
▁sincere	-2622
▁smiling	-2623
▁solicit	-2624
▁totally	-2625
▁various	-2626
▁violent	-2627
▁welcome	-2628
▁admitted	-2629
▁attached	-2630
▁contrary	-2631
▁delicacy	-2632
▁directed	-2633
▁distingu	-2634
▁dressing	-2635
▁employed	-2636
▁exertion	-2637
▁features	-2638
▁generous	-2639
▁happiest	-2640
▁inferior	-2641
▁material	-2642
▁mistress	-2643
▁opinions	-2644
▁perceive	-2645
▁prepared	-2646
▁properly	-2647
▁quitting	-2648
▁reynolds	-2649
▁sentence	-2650
▁somewhat	-2651
▁subjects	-2652
▁valuable	-2653
▁wretched	-2654
▁confusion	-2655
▁determine	-2656
▁difficult	-2657
▁elopement	-2658
▁furniture	-2659
▁gallantry	-2660
▁important	-2661
▁imprudent	-2662
▁naturally	-2663
▁necessity	-2664
▁occasions	-2665
▁perceived	-2666
▁principal	-2667
▁undoubted	-2668
▁astonished	-2669
▁conclusion	-2670
▁correspond	-2671
▁difference	-2672
▁friendship	-2673
▁impatience	-2674
▁introduced	-2675
▁reflection	-2676
▁remembered	-2677
▁uncommonly	-2678
▁approaching	-2679
▁considering	-2680
▁congratulations	-2681
amp	-2682
ass	-2683
enk	-2684
ian	-2685
ilt	-2686
inc	-2687
lir	-2688
ode	-2689
oph	-2690
ote	-2691
oul	-2692
ric	-2693
▁ec	-2694
▁fr	-2695
▁ma	-2696
char	-2697
ends	-2698
ilos	-2699
lies	-2700
osen	-2701
part	-2702
tely	-2703
time	-2704
tled	-2705
umer	-2706
▁act	-2707
▁bir	-2708
▁bor	-2709
▁fig	-2710
▁fun	-2711
▁god	-2712
▁ine	-2713
▁pal	-2714
▁pau	-2715
▁pen	-2716
▁uni	-2717
arted	-2718
ining	-2719
itate	-2720
lucas	-2721
rence	-2722
riety	-2723
xteen	-2724
▁adie	-2725
▁alto	-2726
▁bore	-2727
▁card	-2728
▁cere	-2729
▁clai	-2730
▁dest	-2731
▁dish	-2732
▁flir	-2733
▁grow	-2734
▁idle	-2735
▁insp	-2736
▁jenk	-2737
▁laid	-2738
▁lips	-2739
▁meas	-2740
▁mili	-2741
▁nice	-2742
▁obst	-2743
▁past	-2744
▁safe	-2745
▁scot	-2746
▁seek	-2747
▁sole	-2748
▁soli	-2749
▁spot	-2750
▁tran	-2751
▁trif	-2752
▁wide	-2753
▁wise	-2754
actory	-2755
inting	-2756
ortion	-2757
racted	-2758
rimony	-2759
▁abode	-2760
▁becom	-2761
▁cared	-2762
▁colle	-2763
▁consc	-2764
▁debts	-2765
▁delay	-2766
▁drink	-2767
▁evils	-2768
▁force	-2769
▁gives	-2770
▁grace	-2771
▁haste	-2772
▁human	-2773
▁infam	-2774
▁lodge	-2775
▁north	-2776
▁prove	-2777
▁restr	-2778
▁story	-2779
▁study	-2780
▁threw	-2781
▁value	-2782
▁worst	-2783
▁wound	-2784
ilosoph	-2785
mission	-2786
▁become	-2787
▁chaise	-2788
▁charge	-2789
▁chosen	-2790
▁confir	-2791
▁extent	-2792
▁fright	-2793
▁insens	-2794
▁lament	-2795
▁minute	-2796
▁modest	-2797
▁nearly	-2798
▁parish	-2799
▁placed	-2800
▁refuse	-2801
▁reject	-2802
▁rising	-2803
▁severe	-2804
▁showed	-2805
▁stairs	-2806
▁summon	-2807
▁united	-2808
▁unjust	-2809
▁waited	-2810
▁warmly	-2811
▁weight	-2812
▁welcom	-2813
fortable	-2814
lessness	-2815
▁alarmed	-2816
▁behaved	-2817
▁bennets	-2818
▁chooses	-2819
▁declare	-2820
▁dischar	-2821
▁excited	-2822
▁expense	-2823
▁follows	-2824
▁highest	-2825
▁noticed	-2826
▁offered	-2827
▁persons	-2828
▁persuas	-2829
▁private	-2830
▁quietly	-2831
▁refresh	-2832
▁schemes	-2833
▁sixteen	-2834
▁strange	-2835
▁teasing	-2836
▁telling	-2837
▁thither	-2838
▁trusted	-2839
▁unknown	-2840
▁unpleas	-2841
▁willing	-2842
▁witness	-2843
▁cheerful	-2844
▁describe	-2845
▁entering	-2846
▁esteemed	-2847
▁formerly	-2848
▁friendly	-2849
▁honoured	-2850
▁humoured	-2851
▁inclined	-2852
▁inconven	-2853
▁instance	-2854
▁intimacy	-2855
▁patience	-2856
▁possibly	-2857
▁property	-2858
▁rejoiced	-2859
▁rendered	-2860
▁reproach	-2861
▁strongly	-2862
▁wondered	-2863
▁authority	-2864
▁certainty	-2865
▁clergyman	-2866
▁condition	-2867
▁eagerness	-2868
▁earnestly	-2869
▁explained	-2870
▁falsehood	-2871
▁ignorance	-2872
▁increased	-2873
▁intending	-2874
▁jenkinson	-2875
▁philosoph	-2876
▁protested	-2877
▁represent	-2878
▁suspicion	-2879
▁altogether	-2880
▁assurances	-2881
▁commission	-2882
▁companions	-2883
▁confidence	-2884
▁heightened	-2885
▁impression	-2886
▁increasing	-2887
▁possession	-2888
▁solicitude	-2889
▁temptation	-2890
▁acknowledge	-2891
▁arrangement	-2892
▁consolation	-2893
▁explanation	-2894
▁improvement	-2895
▁indignation	-2896
▁probability	-2897
▁reflections	-2898
▁undoubtedly	-2899
▁congratulate	-2900
▁consequently	-2901
▁insufficient	-2902
▁satisfactory	-2903
▁communication	-2904
▁recollections	-2905
▁uncomfortable	-2906
aw	-2907
dg	-2908
gg	-2909
mo	-2910
tr	-2911
vy	-2912
cul	-2913
eal	-2914
ete	-2915
isk	-2916
ket	-2917
lee	-2918
mas	-2919
mbl	-2920
onc	-2921
rep	-2922
tia	-2923
tiv	-2924
try	-2925
ume	-2926
▁at	-2927
▁av	-2928
▁or	-2929
acri	-2930
angu	-2931
ases	-2932
dred	-2933
ffee	-2934
ibly	-2935
igin	-2936
mple	-2937
orum	-2938
pend	-2939
rone	-2940
tray	-2941
▁asc	-2942
▁ban	-2943
▁div	-2944
▁fif	-2945
▁ful	-2946
▁pea	-2947
▁pos	-2948
▁ram	-2949
▁sug	-2950
▁tal	-2951
▁vac	-2952
acity	-2953
arded	-2954
atory	-2955
eased	-2956
gence	-2957
gible	-2958
ision	-2959
onday	-2960
orses	-2961
ticip	-2962
where	-2963
▁anne	-2964
▁cens	-2965
▁diff	-2966
▁exec	-2967
▁fail	-2968
▁game	-2969
▁gown	-2970
▁line	-2971
▁mark	-2972
▁nons	-2973
▁rapt	-2974
▁rose	-2975
▁seat	-2976
▁shar	-2977
▁symp	-2978
▁tete	-2979
▁unre	-2980
▁wher	-2981
ailing	-2982
elling	-2983
ension	-2984
ftened	-2985
itable	-2986
licate	-2987
liness	-2988
roness	-2989
tition	-2990
▁acted	-2991
▁apart	-2992
▁asser	-2993
▁balls	-2994
▁bless	-2995
▁carry	-2996
▁death	-2997
▁defic	-2998
▁eight	-2999
▁exerc	-3000
▁exist	-3001
▁fault	-3002
▁flirt	-3003
▁habit	-3004
▁horse	-3005
▁likes	-3006
▁lucky	-3007
▁makes	-3008
▁order	-3009
▁paper	-3010
▁perse	-3011
▁punct	-3012
▁rooms	-3013
▁sacri	-3014
▁shock	-3015
▁sound	-3016
▁sport	-3017
▁teach	-3018
▁throw	-3019
▁truly	-3020
▁vexed	-3021
▁woods	-3022
ibility	-3023
ignific	-3024
omestic	-3025
ription	-3026
utation	-3027
▁affect	-3028
▁announ	-3029
▁attack	-3030
▁attemp	-3031
▁attend	-3032
▁begged	-3033
▁bestow	-3034
▁betray	-3035
▁clever	-3036
▁coffee	-3037
▁contri	-3038
▁defect	-3039
▁denial	-3040
▁figure	-3041
▁fitted	-3042
▁formal	-3043
▁horses	-3044
▁invite	-3045
▁kindly	-3046
▁larger	-3047
▁monday	-3048
▁moving	-3049
▁notion	-3050
▁openly	-3051
▁origin	-3052
▁patron	-3053
▁quarre	-3054
▁reconc	-3055
▁resist	-3056
▁strugg	-3057
▁uneasy	-3058
▁useful	-3059
▁warmth	-3060
▁wisest	-3061
▁anticip	-3062
▁blushed	-3063
▁changed	-3064
▁desired	-3065
▁disdain	-3066
▁doubted	-3067
▁dropped	-3068
▁fashion	-3069
▁foolish	-3070
▁forbear	-3071
▁hundred	-3072
▁instant	-3073
▁justify	-3074
▁liberty	-3075
▁militia	-3076
▁modesty	-3077
▁parting	-3078
▁plainly	-3079
▁pretend	-3080
▁profess	-3081
▁refusal	-3082
▁regular	-3083
▁renewal	-3084
▁renewed	-3085
▁satisfy	-3086
▁suggest	-3087
▁thanked	-3088
▁treated	-3089
▁univers	-3090
▁wanting	-3091
▁watched	-3092
▁weather	-3093
▁windows	-3094
▁addition	-3095
▁allowing	-3096
▁assembly	-3097
▁bestowed	-3098
▁complain	-3099
▁complete	-3100
▁concerns	-3101
▁contents	-3102
▁deserved	-3103
▁desirous	-3104
▁domestic	-3105
▁elegance	-3106
▁eligible	-3107
▁gracious	-3108
▁hopeless	-3109
▁improved	-3110
▁independ	-3111
▁occupied	-3112
▁overcome	-3113
▁presence	-3114
▁proposal	-3115
▁provided	-3116
▁refusing	-3117
▁relieved	-3118
▁resigned	-3119
▁respects	-3120
▁softened	-3121
▁speedily	-3122
▁suffered	-3123
▁thankful	-3124
▁watching	-3125
▁welcomed	-3126
▁wherever	-3127
▁abilities	-3128
▁according	-3129
▁assembled	-3130
▁attending	-3131
▁concluded	-3132
▁contained	-3133
▁deference	-3134
▁direction	-3135
▁discourse	-3136
▁flattered	-3137
▁governess	-3138
▁listening	-3139
▁matrimony	-3140
▁patroness	-3141
▁proposals	-3142
▁reception	-3143
▁repeating	-3144
▁sentiment	-3145
▁succeeded	-3146
▁abominable	-3147
▁acceptable	-3148
▁advantages	-3149
▁dependence	-3150
▁directions	-3151
▁discovered	-3152
▁employment	-3153
▁encouraged	-3154
▁frightened	-3155
▁interested	-3156
▁persuasion	-3157
▁profession	-3158
▁pronounced	-3159
▁remarkable	-3160
▁separation	-3161
▁uneasiness	-3162
▁accompanied	-3163
▁accordingly	-3164
▁approbation	-3165
▁comparative	-3166
▁description	-3167
▁displeasure	-3168
▁established	-3169
▁performance	-3170
▁represented	-3171
▁unfortunate	-3172
▁cheerfulness	-3173
▁commendation	-3174
▁considerable	-3175
▁expectations	-3176
▁impertinence	-3177
▁introduction	-3178
▁establishment	-3179
mn	-3180
ye	-3181
adv	-3182
aim	-3183
alu	-3184
anc	-3185
cen	-3186
cti	-3187
eld	-3188
enu	-3189
ile	-3190
ith	-3191
min	-3192
omy	-3193
ror	-3194
str	-3195
tom	-3196
vag	-3197
vol	-3198
▁ay	-3199
ague	-3200
ains	-3201
anch	-3202
ater	-3203
bted	-3204
demn	-3205
eath	-3206
fare	-3207
fice	-3208
gent	-3209
ivil	-3210
ized	-3211
leep	-3212
lier	-3213
lity	-3214
look	-3215
maid	-3216
mand	-3217
mory	-3218
rupt	-3219
stly	-3220
vile	-3221
▁bar	-3222
▁boy	-3223
▁bye	-3224
▁dar	-3225
▁ess	-3226
▁flu	-3227
▁glo	-3228
▁her	-3229
▁hot	-3230
▁inh	-3231
▁irr	-3232
▁lay	-3233
▁obt	-3234
▁odd	-3235
▁out	-3236
▁sal	-3237
▁sex	-3238
▁sly	-3239
▁wil	-3240
aired	-3241
anced	-3242
bable	-3243
eding	-3244
ening	-3245
ethod	-3246
iding	-3247
iform	-3248
iners	-3249
ities	-3250
itive	-3251
ocked	-3252
oused	-3253
ouses	-3254
sembl	-3255
tives	-3256
umber	-3257
▁amid	-3258
▁bell	-3259
▁cher	-3260
▁coat	-3261
▁cool	-3262
▁cost	-3263
▁dead	-3264
▁deny	-3265
▁econ	-3266
▁fati	-3267
▁fire	-3268
▁fore	-3269
▁grad	-3270
▁grew	-3271
▁held	-3272
▁hist	-3273
▁humb	-3274
▁lest	-3275
▁lodg	-3276
▁mile	-3277
▁mutu	-3278
▁note	-3279
▁path	-3280
▁paus	-3281
▁piti	-3282
▁prej	-3283
▁rain	-3284
▁ring	-3285
▁risk	-3286
▁sees	-3287
▁song	-3288
▁subs	-3289
▁syll	-3290
▁tour	-3291
▁wand	-3292
▁warn	-3293
▁wear	-3294
advant	-3295
anging	-3296
atched	-3297
atedly	-3298
cenary	-3299
erving	-3300
lihood	-3301
olding	-3302
▁absur	-3303
▁adieu	-3304
▁appar	-3305
▁arise	-3306
▁attra	-3307
▁cards	-3308
▁catch	-3309
▁clock	-3310
▁confe	-3311
▁conve	-3312
▁cross	-3313
▁discl	-3314
▁drawn	-3315
▁fears	-3316
▁fifty	-3317
▁finer	-3318
▁frank	-3319
▁front	-3320
▁griev	-3321
▁guest	-3322
▁hasty	-3323
▁james	-3324
▁langu	-3325
▁merit	-3326
▁moved	-3327
▁peace	-3328
▁plann	-3329
▁sides	-3330
▁steps	-3331
▁studi	-3332
▁subst	-3333
▁trace	-3334
▁unaff	-3335
▁urged	-3336
cerning	-3337
ulation	-3338
underst	-3339
▁abrupt	-3340
▁amends	-3341
▁assert	-3342
▁breath	-3343
▁calcul	-3344
▁ceased	-3345
▁claims	-3346
▁closed	-3347
▁conven	-3348
▁declar	-3349
▁demand	-3350
▁differ	-3351
▁energy	-3352
▁entail	-3353
▁enumer	-3354
▁expose	-3355
▁forbid	-3356
▁forgot	-3357
▁gentle	-3358
▁horror	-3359
▁judged	-3360
▁memory	-3361
▁method	-3362
▁oblige	-3363
▁obstin	-3364
▁office	-3365
▁overth	-3366
▁practi	-3367
▁prepar	-3368
▁raised	-3369
▁repeat	-3370
▁result	-3371
▁roused	-3372
▁settle	-3373
▁spared	-3374
▁spring	-3375
▁stupid	-3376
▁supply	-3377
▁tables	-3378
▁taught	-3379
▁unlike	-3380
▁vacant	-3381
▁valued	-3382
fication	-3383
▁affairs	-3384
▁alluded	-3385
▁arising	-3386
▁benefit	-3387
▁charles	-3388
▁checked	-3389
▁command	-3390
▁condemn	-3391
▁console	-3392
▁contain	-3393
▁courtes	-3394
▁created	-3395
▁crossed	-3396
▁curious	-3397
▁decorum	-3398
▁deliber	-3399
▁discern	-3400
▁discomp	-3401
▁example	-3402
▁fearful	-3403
▁getting	-3404
▁grounds	-3405
▁happily	-3406
▁leading	-3407
▁letting	-3408
▁mistake	-3409
▁objects	-3410
▁offence	-3411
▁opposed	-3412
▁parents	-3413
▁playing	-3414
▁pointed	-3415
▁prepare	-3416
▁privile	-3417
▁produce	-3418
▁provoke	-3419
▁pursuit	-3420
▁quitted	-3421
▁reasons	-3422
▁reflect	-3423
▁refused	-3424
▁rejoice	-3425
▁remarks	-3426
▁reproof	-3427
▁resembl	-3428
▁reserve	-3429
▁selfish	-3430
▁shocked	-3431
▁steward	-3432
▁stopped	-3433
▁symptom	-3434
▁talents	-3435
▁tempted	-3436
▁travell	-3437
▁uncivil	-3438
▁uniform	-3439
▁useless	-3440
▁usually	-3441
▁uttered	-3442
▁variety	-3443
▁welfare	-3444
lishments	-3445
▁afforded	-3446
▁alarming	-3447
▁ceremony	-3448
▁composed	-3449
▁declined	-3450
▁delicate	-3451
▁disappro	-3452
▁everyone	-3453
▁extravag	-3454
▁familiar	-3455
▁families	-3456
▁indebted	-3457
▁nonsense	-3458
▁obliging	-3459
▁overlook	-3460
▁persever	-3461
▁pointing	-3462
▁positive	-3463
▁purchase	-3464
▁relating	-3465
▁reminded	-3466
▁ridicule	-3467
▁scotland	-3468
▁shocking	-3469
▁spending	-3470
▁strength	-3471
▁stronger	-3472
▁suspense	-3473
▁syllable	-3474
▁tempered	-3475
▁unreason	-3476
▁visiting	-3477
▁weakness	-3478
▁withdrew	-3479
rehensible	-3480
▁addresses	-3481
▁agitation	-3482
▁appearing	-3483
▁christmas	-3484
▁concealed	-3485
▁conceited	-3486
▁departure	-3487
▁described	-3488
▁disadvant	-3489
▁discovery	-3490
▁encourage	-3491
▁engrossed	-3492
▁expecting	-3493
▁gardiners	-3494
▁impatient	-3495
▁inquiring	-3496
▁mercenary	-3497
▁miserable	-3498
▁pleasures	-3499
▁qualities	-3500
▁remaining	-3501
▁restraint	-3502
▁sacrifice	-3503
▁suspected	-3504
▁treatment	-3505
▁alteration	-3506
▁attributed	-3507
▁civilities	-3508
▁completely	-3509
▁conjecture	-3510
▁conscience	-3511
▁difficulty	-3512
▁estimation	-3513
▁honourable	-3514
▁improbable	-3515
▁inducement	-3516
▁indulgence	-3517
▁likelihood	-3518
▁mentioning	-3519
▁misunderst	-3520
▁mortifying	-3521
▁obligation	-3522
▁philosophy	-3523
▁proceeding	-3524
▁proportion	-3525
▁repeatedly	-3526
▁travelling	-3527
▁unaffected	-3528
▁unpleasant	-3529
▁disgraceful	-3530
▁embarrassed	-3531
▁entertained	-3532
▁forbearance	-3533
▁impertinent	-3534
▁misfortunes	-3535
▁refreshment	-3536
▁resemblance	-3537
▁supposition	-3538
▁voluntarily	-3539
▁independence	-3540
▁recollecting	-3541
▁condescension	-3542
▁entertainment	-3543
▁gentlemanlike	-3544
▁respectability	-3545
▁accomplishments	-3546
pa	-3547
zz	-3548
ais	-3549
att	-3550
ded	-3551
etr	-3552
gue	-3553
isy	-3554
ize	-3555
oup	-3556
pet	-3557
que	-3558
rad	-3559
ril	-3560
rob	-3561
uct	-3562
urb	-3563
▁ah	-3564
▁da	-3565
▁ed	-3566
▁hy	-3567
ants	-3568
bery	-3569
edom	-3570
eton	-3571
hear	-3572
ilar	-3573
isen	-3574
ital	-3575
lend	-3576
ming	-3577
ouch	-3578
pham	-3579
qual	-3580
ream	-3581
rity	-3582
road	-3583
rust	-3584
sper	-3585
stib	-3586
tial	-3587
uise	-3588
ults	-3589
vity	-3590
xion	-3591
▁art	-3592
▁bed	-3593
▁bef	-3594
▁bid	-3595
▁buy	-3596
▁die	-3597
▁eat	-3598
▁gro	-3599
▁hat	-3600
▁ing	-3601
▁nar	-3602
▁owe	-3603
▁own	-3604
▁pha	-3605
▁pow	-3606
▁red	-3607
▁sad	-3608
▁shy	-3609
▁sim	-3610
▁tou	-3611
▁uns	-3612
▁war	-3613
amber	-3614
aming	-3615
atisf	-3616
enced	-3617
ested	-3618
ffici	-3619
gress	-3620
iance	-3621
issed	-3622
month	-3623
olded	-3624
onies	-3625
pping	-3626
pting	-3627
quest	-3628
ritic	-3629
uance	-3630
udice	-3631
uding	-3632
ustom	-3633
verse	-3634
▁ange	-3635
▁anim	-3636
▁arch	-3637
▁arts	-3638
▁bord	-3639
▁born	-3640
▁bred	-3641
▁camp	-3642
▁cand	-3643
▁crow	-3644
▁debt	-3645
▁defy	-3646
▁dign	-3647
▁dull	-3648
▁evid	-3649
▁fanc	-3650
▁flow	-3651
▁fret	-3652
▁gate	-3653
▁harm	-3654
▁hone	-3655
▁inat	-3656
▁irre	-3657
▁jeal	-3658
▁kill	-3659
▁land	-3660
▁lawn	-3661
▁maid	-3662
▁meat	-3663
▁mend	-3664
▁mere	-3665
▁mess	-3666
▁nove	-3667
▁ones	-3668
▁owed	-3669
▁papa	-3670
▁rate	-3671
▁rect	-3672
▁reti	-3673
▁ruin	-3674
▁sele	-3675
▁shoo	-3676
▁shop	-3677
▁shru	-3678
▁sign	-3679
▁slow	-3680
▁sunk	-3681
▁surm	-3682
▁test	-3683
▁thor	-3684
▁thur	-3685
▁tong	-3686
▁unne	-3687
▁vary	-3688
▁vice	-3689
acency	-3690
aching	-3691
church	-3692
course	-3693
educed	-3694
ential	-3695
lendid	-3696
nected	-3697
ounter	-3698
retion	-3699
strong	-3700
titude	-3701
velope	-3702
verted	-3703
▁abund	-3704
▁accus	-3705
▁arose	-3706
▁aside	-3707
▁atone	-3708
▁birth	-3709
▁borne	-3710
▁bride	-3711
▁cases	-3712
▁chair	-3713
▁check	-3714
▁claim	-3715
▁corps	-3716
▁depri	-3717
▁disli	-3718
▁disre	-3719
▁drive	-3720
▁dwelt	-3721
▁ended	-3722
▁error	-3723
▁exped	-3724
▁faith	-3725
▁fully	-3726
▁grand	-3727
▁grown	-3728
▁guess	-3729
▁hated	-3730
▁heavy	-3731
▁hints	-3732
▁impul	-3733
▁incap	-3734
▁indis	-3735
▁lakes	-3736
▁lives	-3737
▁lover	-3738
▁lower	-3739
▁medit	-3740
▁moder	-3741
▁mount	-3742
▁names	-3743
▁novel	-3744
▁overp	-3745
▁owing	-3746
▁pains	-3747
▁parts	-3748
▁proof	-3749
▁river	-3750
▁score	-3751
▁scrup	-3752
▁sharp	-3753
▁shown	-3754
▁sleep	-3755
▁spare	-3756
▁trees	-3757
▁undes	-3758
▁ungra	-3759
▁vouch	-3760
▁whist	-3761
inction	-3762
oration	-3763
stibule	-3764
tensive	-3765
unately	-3766
▁abroad	-3767
▁accent	-3768
▁accuse	-3769
▁across	-3770
▁adding	-3771
▁altern	-3772
▁amazed	-3773
▁amidst	-3774
▁amused	-3775
▁aspect	-3776
▁bought	-3777
▁broken	-3778
▁circle	-3779
▁county	-3780
▁decide	-3781
▁detest	-3782
▁discon	-3783
▁divers	-3784
▁effort	-3785
▁events	-3786
▁exclam	-3787
▁faults	-3788
▁freely	-3789
▁higher	-3790
▁hither	-3791
▁improp	-3792
▁infamy	-3793
▁lovers	-3794
▁mutual	-3795
▁narrow	-3796
▁nearer	-3797
▁number	-3798
▁orders	-3799
▁paying	-3800
▁places	-3801
▁powers	-3802
▁preced	-3803
▁precip	-3804
▁pursue	-3805
▁recall	-3806
▁repine	-3807
▁season	-3808
▁sickly	-3809
▁simple	-3810
▁solely	-3811
▁stared	-3812
▁stream	-3813
▁strike	-3814
▁surely	-3815
▁trying	-3816
▁valley	-3817
▁widely	-3818
▁younge	-3819
ableness	-3820
atisfied	-3821
iliation	-3822
▁actions	-3823
▁acutely	-3824
▁affront	-3825
▁altered	-3826
▁approve	-3827
▁becomes	-3828
▁beneath	-3829
▁careful	-3830
▁carried	-3831
▁caution	-3832
▁chamber	-3833
▁clapham	-3834
▁conceit	-3835
▁consist	-3836
▁contemp	-3837
▁cruelty	-3838
▁defects	-3839
▁discour	-3840
▁distant	-3841
▁disturb	-3842
▁dressed	-3843
▁economy	-3844
▁england	-3845
▁escaped	-3846
▁estates	-3847
▁fancied	-3848
▁finally	-3849
▁fishing	-3850
▁flutter	-3851
▁freedom	-3852
▁history	-3853
▁humbled	-3854
▁imposed	-3855
▁jealous	-3856
▁joining	-3857
▁keeping	-3858
▁measure	-3859
▁motives	-3860
▁ordered	-3861
▁persist	-3862
▁phaeton	-3863
▁preserv	-3864
▁pretens	-3865
▁promote	-3866
▁prosper	-3867
▁prudent	-3868
▁remains	-3869
▁secured	-3870
▁seeking	-3871
▁similar	-3872
▁started	-3873
▁station	-3874
▁suffici	-3875
▁touched	-3876
▁unequal	-3877
▁unworth	-3878
▁venture	-3879
▁visited	-3880
ardonable	-3881
▁advanced	-3882
▁argument	-3883
▁assisted	-3884
▁assuring	-3885
▁bingleys	-3886
▁breeding	-3887
▁calmness	-3888
▁coloured	-3889
▁complais	-3890
▁complied	-3891
▁confined	-3892
▁confused	-3893
▁continue	-3894
▁convince	-3895
▁courtesy	-3896
▁deserves	-3897
▁disguise	-3898
▁disinter	-3899
▁distrust	-3900
▁dwelling	-3901
▁earliest	-3902
▁engaging	-3903
▁entailed	-3904
▁entitled	-3905
▁evenings	-3906
▁examined	-3907
▁exercise	-3908
▁guardian	-3909
▁honestly	-3910
▁humility	-3911
▁husbands	-3912
▁imagined	-3913
▁increase	-3914
▁interval	-3915
▁language	-3916
▁november	-3917
▁original	-3918
▁overhear	-3919
▁pressing	-3920
▁previous	-3921
▁proposed	-3922
▁prudence	-3923
▁rapidity	-3924
▁reserved	-3925
▁separate	-3926
▁situated	-3927
▁somebody	-3928
▁splendid	-3929
▁thorough	-3930
▁thursday	-3931
▁trifling	-3932
▁unlikely	-3933
▁unnecess	-3934
▁withdraw	-3935
▁accepting	-3936
▁animation	-3937
▁apartment	-3938
▁apologize	-3939
▁arguments	-3940
▁attempted	-3941
▁carriages	-3942
▁cherished	-3943
▁collinses	-3944
▁decidedly	-3945
▁deficient	-3946
▁delivered	-3947
▁elsewhere	-3948
▁encounter	-3949
▁evidently	-3950
▁execution	-3951
▁extensive	-3952
▁frankness	-3953
▁gradually	-3954
▁incapable	-3955
▁justified	-3956
▁performed	-3957
▁prejudice	-3958
▁preserved	-3959
▁principle	-3960
▁professed	-3961
▁propriety	-3962
▁prospects	-3963
▁purposely	-3964
▁recollect	-3965
▁recovered	-3966
▁rejoicing	-3967
▁residence	-3968
▁resolving	-3969
▁solemnity	-3970
▁somewhere	-3971
▁stupidity	-3972
▁supported	-3973
▁unconcern	-3974
▁vestibule	-3975
▁abominably	-3976
▁affections	-3977
▁bitterness	-3978
▁complexion	-3979
▁concerning	-3980
▁conference	-3981
▁despatched	-3982
▁dinnertime	-3983
▁discretion	-3984
▁discussion	-3985
▁displeased	-3986
▁expressing	-3987
▁foundation	-3988
▁gratifying	-3989
▁handsomest	-3990
▁headstrong	-3991
▁insignific	-3992
▁liveliness	-3993
▁materially	-3994
▁occasional	-3995
▁perceiving	-3996
▁permission	-3997
▁pleasantly	-3998
▁reasonably	-3999
▁recovering	-4000
▁succeeding	-4001
▁travellers	-4002
▁ungracious	-4003
▁attractions	-4004
▁complacency	-4005
▁continually	-4006
▁declaration	-4007
▁differently	-4008
▁distinction	-4009
▁distinguish	-4010
▁distressing	-4011
▁encouraging	-4012
▁enumerating	-4013
▁fitzwilliam	-4014
▁gracechurch	-4015
▁imagination	-4016
▁intelligent	-4017
▁intercourse	-4018
▁introducing	-4019
▁necessarily	-4020
▁principally	-4021
▁professions	-4022
▁twelvemonth	-4023
▁unconnected	-4024
▁condescended	-4025
▁deliberation	-4026
▁delightfully	-4027
▁disadvantage	-4028
▁dissatisfied	-4029
▁presentation	-4030
▁unpardonable	-4031
▁unreasonable	-4032
▁disinterested	-4033
▁distinguished	-4034
▁inconvenience	-4035
▁insensibility	-4036
▁mortification	-4037
▁correspondence	-4038
▁disapprobation	-4039
▁recommendation	-4040
▁representation	-4041
ap	-4042
ds	-4043
em	-4044
eu	-4045
sg	-4046
ub	-4047
ug	-4048
cke	-4049
dom	-4050
eaf	-4051
ery	-4052
gar	-4053
hib	-4054
hor	-4055
ich	-4056
ics	-4057
idd	-4058
isa	-4059
lli	-4060
ned	-4061
oly	-4062
opt	-4063
poc	-4064
rea	-4065
rid	-4066
tin	-4067
wis	-4068
▁ug	-4069
ades	-4070
cast	-4071
dity	-4072
ease	-4073
efly	-4074
etch	-4075
etry	-4076
held	-4077
here	-4078
idge	-4079
ilst	-4080
ivid	-4081
kily	-4082
lled	-4083
loqu	-4084
lude	-4085
mest	-4086
oman	-4087
omer	-4088
oute	-4089
owal	-4090
psom	-4091
rast	-4092
rice	-4093
rief	-4094
riet	-4095
sley	-4096
tary	-4097
thly	-4098
tier	-4099
upti	-4100
veal	-4101
view	-4102
▁ard	-4103
▁arm	-4104
▁bew	-4105
▁ble	-4106
▁bon	-4107
▁box	-4108
▁bur	-4109
▁cop	-4110
▁cry	-4111
▁cur	-4112
▁dev	-4113
▁dir	-4114
▁dup	-4115
▁emo	-4116
▁ens	-4117
▁env	-4118
▁fix	-4119
▁fol	-4120
▁gay	-4121
▁gue	-4122
▁har	-4123
▁hau	-4124
▁leg	-4125
▁lic	-4126
▁lou	-4127
▁mel	-4128
▁mir	-4129
▁net	-4130
▁obe	-4131
▁odi	-4132
▁orn	-4133
▁san	-4134
▁spr	-4135
▁tis	-4136
▁top	-4137
▁ver	-4138
▁vic	-4139
▁vul	-4140
▁yaw	-4141
adril	-4142
anter	-4143
bbery	-4144
chief	-4145
ckets	-4146
elled	-4147
enity	-4148
fteen	-4149
icked	-4150
ified	-4151
inite	-4152
inity	-4153
iring	-4154
isely	-4155
itute	-4156
olent	-4157
oping	-4158
orned	-4159
orney	-4160
pport	-4161
ptain	-4162
rated	-4163
sgate	-4164
tious	-4165
ttery	-4166
ulity	-4167
uming	-4168
urity	-4169
vable	-4170
vance	-4171
xture	-4172
▁adds	-4173
▁alac	-4174
▁arre	-4175
▁audi	-4176
▁bare	-4177
▁bent	-4178
▁boun	-4179
▁chea	-4180
▁dict	-4181
▁died	-4182
▁dism	-4183
▁down	-4184
▁elev	-4185
▁farm	-4186
▁firm	-4187
▁fool	-4188
▁inev	-4189
▁inex	-4190
▁intr	-4191
▁june	-4192
▁lift	-4193
▁mild	-4194
▁mode	-4195
▁move	-4196
▁neat	-4197
▁nerv	-4198
▁pack	-4199
▁pomp	-4200
▁poul	-4201
▁pour	-4202
▁prec	-4203
▁refr	-4204
▁ride	-4205
▁scre	-4206
▁shel	-4207
▁shut	-4208
▁sink	-4209
▁size	-4210
▁spec	-4211
▁stop	-4212
▁stro	-4213
▁surv	-4214
▁swee	-4215
▁tend	-4216
▁term	-4217
▁thin	-4218
▁ungu	-4219
▁vast	-4220
▁vill	-4221
▁ways	-4222
▁wink	-4223
aiming	-4224
angers	-4225
atious	-4226
aughty	-4227
castle	-4228
certed	-4229
dities	-4230
eafter	-4231
ensive	-4232
ieties	-4233
ignify	-4234
isable	-4235
lation	-4236
liance	-4237
olence	-4238
racing	-4239
rences	-4240
repres	-4241
rewell	-4242
ronted	-4243
spread	-4244
usions	-4245
vering	-4246
volous	-4247
▁abhor	-4248
▁adopt	-4249
▁angel	-4250
▁apply	-4251
▁artic	-4252
▁bowed	-4253
▁built	-4254
▁cease	-4255
▁coinc	-4256
▁compe	-4257
▁compr	-4258
▁cordi	-4259
▁cough	-4260
▁daily	-4261
▁decis	-4262
▁dying	-4263
▁eloqu	-4264
▁epsom	-4265
▁estim	-4266
▁exert	-4267
▁faces	-4268
▁fetch	-4269
▁fidge	-4270
▁gloom	-4271
▁gould	-4272
▁green	-4273
▁grief	-4274
▁gross	-4275
▁group	-4276
▁grove	-4277
▁guilt	-4278
▁hills	-4279
▁hypoc	-4280
▁impar	-4281
▁impud	-4282
▁inciv	-4283
▁inher	-4284
▁innoc	-4285
▁jones	-4286
▁later	-4287
▁lewis	-4288
▁liver	-4289
▁maint	-4290
▁merry	-4291
▁minds	-4292
▁moral	-4293
▁mouth	-4294
▁noisy	-4295
▁nupti	-4296
▁ornam	-4297
▁overt	-4298
▁owned	-4299
▁rapid	-4300
▁regre	-4301
▁revol	-4302
▁route	-4303
▁sheet	-4304
▁shoot	-4305
▁shows	-4306
▁solic	-4307
▁start	-4308
▁stout	-4309
▁takes	-4310
▁there	-4311
▁tired	-4312
▁tires	-4313
▁trans	-4314
▁union	-4315
▁walks	-4316
▁which	-4317
adrille	-4318
aluable	-4319
ancholy	-4320
diality	-4321
enerous	-4322
engaged	-4323
ication	-4324
licious	-4325
reaties	-4326
ritical	-4327
tiously	-4328
▁absent	-4329
▁advise	-4330
▁arisen	-4331
▁assume	-4332
▁avowal	-4333
▁banish	-4334
▁bonnet	-4335
▁breach	-4336
▁bridge	-4337
▁captiv	-4338
▁carter	-4339
▁causes	-4340
▁confid	-4341
▁dearly	-4342
▁decent	-4343
▁deeper	-4344
▁denied	-4345
▁driven	-4346
▁excite	-4347
▁failed	-4348
▁faulty	-4349
▁finish	-4350
▁flight	-4351
▁forese	-4352
▁forgiv	-4353
▁glance	-4354
▁grieve	-4355
▁habits	-4356
▁hoping	-4357
▁horrid	-4358
▁houses	-4359
▁incess	-4360
▁indisp	-4361
▁killed	-4362
▁lasted	-4363
▁lessen	-4364
▁louisa	-4365
▁lovely	-4366
▁missed	-4367
▁odious	-4368
▁offers	-4369
▁oppose	-4370
▁paused	-4371
▁perpet	-4372
▁plague	-4373
▁points	-4374
▁ponies	-4375
▁poorly	-4376
▁punish	-4377
▁recent	-4378
▁rector	-4379
▁resign	-4380
▁reveal	-4381
▁saving	-4382
▁sermon	-4383
▁shared	-4384
▁slowly	-4385
▁sought	-4386
▁spread	-4387
▁strict	-4388
▁thirty	-4389
▁tongue	-4390
▁tranqu	-4391
▁urgent	-4392
▁varied	-4393
▁visits	-4394
▁vulgar	-4395
▁whilst	-4396
▁wicked	-4397
▁wilful	-4398
▁wisely	-4399
▁worthy	-4400
inations	-4401
itations	-4402
olerable	-4403
spection	-4404
▁abusing	-4405
▁admirer	-4406
▁adorned	-4407
▁advance	-4408
▁advised	-4409
▁amusing	-4410
▁bidding	-4411
▁blaming	-4412
▁blessed	-4413
▁briefly	-4414
▁candour	-4415
▁caprice	-4416
▁captain	-4417
▁censure	-4418
▁civilly	-4419
▁concili	-4420
▁constru	-4421
▁contrad	-4422
▁counter	-4423
▁crowded	-4424
▁deceive	-4425
▁defence	-4426
▁deigned	-4427
▁delayed	-4428
▁descent	-4429
▁dignity	-4430
▁divided	-4431
▁dreaded	-4432
▁earlier	-4433
▁effects	-4434
▁emotion	-4435
▁existed	-4436
▁explain	-4437
▁fatigue	-4438
▁fearing	-4439
▁fifteen	-4440
▁follies	-4441
▁furnish	-4442
▁gaining	-4443
▁gravely	-4444
▁growing	-4445
▁guessed	-4446
▁haughty	-4447
▁impulse	-4448
▁individ	-4449
▁injured	-4450
▁judging	-4451
▁kingdom	-4452
▁learned	-4453
▁lottery	-4454
▁luckily	-4455
▁mixture	-4456
▁nervous	-4457
▁novelty	-4458
▁oftener	-4459
▁perusal	-4460
▁pervers	-4461
▁planned	-4462
▁pompous	-4463
▁poultry	-4464
▁pressed	-4465
▁propose	-4466
▁provide	-4467
▁putting	-4468
▁reduced	-4469
▁removal	-4470
▁require	-4471
▁retired	-4472
▁revived	-4473
▁scruple	-4474
▁showing	-4475
▁signify	-4476
▁sources	-4477
▁stately	-4478
▁subsist	-4479
▁summons	-4480
▁tickets	-4481
▁viewing	-4482
▁wonders	-4483
▁wounded	-4484
fications	-4485
pportable	-4486
▁absolute	-4487
▁agitated	-4488
▁alacrity	-4489
▁allusion	-4490
▁animated	-4491
▁annesley	-4492
▁announce	-4493
▁apparent	-4494
▁applying	-4495
▁approved	-4496
▁ascended	-4497
▁attorney	-4498
▁banished	-4499
▁beauties	-4500
▁becoming	-4501
▁betrayed	-4502
▁blessing	-4503
▁cautious	-4504
▁changing	-4505
▁comforts	-4506
▁conceive	-4507
▁contrast	-4508
▁defiance	-4509
▁depended	-4510
▁deprived	-4511
▁designed	-4512
▁despised	-4513
▁destined	-4514
▁diverted	-4515
▁easiness	-4516
▁educated	-4517
▁enjoying	-4518
▁entreaty	-4519
▁envelope	-4520
▁explicit	-4521
▁exposing	-4522
▁faithful	-4523
▁fancying	-4524
▁farewell	-4525
▁grievous	-4526
▁hastened	-4527
▁hurrying	-4528
▁infamous	-4529
▁infinite	-4530
▁involved	-4531
▁jealousy	-4532
▁lodgings	-4533
▁measures	-4534
▁minutely	-4535
▁needless	-4536
▁negative	-4537
▁nuptials	-4538
▁obtained	-4539
▁offering	-4540
▁openness	-4541
▁ordinary	-4542
▁partners	-4543
▁pitiable	-4544
▁preserve	-4545
▁procured	-4546
▁progress	-4547
▁promises	-4548
▁provoked	-4549
▁publicly	-4550
▁punctual	-4551
▁ramsgate	-4552
▁relative	-4553
▁resented	-4554
▁sanction	-4555
▁security	-4556
▁selected	-4557
▁serenity	-4558
▁silently	-4559
▁sisterly	-4560
▁slighted	-4561
▁slightly	-4562
▁solitude	-4563
▁steadily	-4564
▁studying	-4565
▁summoned	-4566
▁superint	-4567
▁sweetest	-4568
▁thanking	-4569
▁unfolded	-4570
▁unworthy	-4571
▁ventured	-4572
▁violence	-4573
▁withheld	-4574
▁yielding	-4575
▁advisable	-4576
▁agreement	-4577
▁announced	-4578
▁answering	-4579
▁ascertain	-4580
▁assertion	-4581
▁attribute	-4582
▁beholding	-4583
▁carefully	-4584
▁collected	-4585
▁colouring	-4586
▁complying	-4587
▁confessed	-4588
▁conscious	-4589
▁consoling	-4590
▁contented	-4591
▁creatures	-4592
▁dejection	-4593
▁dependent	-4594
▁descended	-4595
▁despaired	-4596
▁displayed	-4597
▁diversion	-4598
▁examining	-4599
▁excessive	-4600
▁existence	-4601
▁frivolous	-4602
▁handsomer	-4603
▁hereafter	-4604
▁hesitated	-4605
▁housemaid	-4606
▁imaginary	-4607
▁instances	-4608
▁interrupt	-4609
▁interview	-4610
▁intrusion	-4611
▁liveliest	-4612
▁misrepres	-4613
▁mortified	-4614
▁newcastle	-4615
▁objecting	-4616
▁obstinate	-4617
▁offending	-4618
▁officious	-4619
▁patronage	-4620
▁preaching	-4621
▁preceding	-4622
▁preparing	-4623
▁privately	-4624
▁procuring	-4625
▁promising	-4626
▁quadrille	-4627
▁quartered	-4628
▁quickness	-4629
▁respected	-4630
▁separated	-4631
▁shrubbery	-4632
▁simpleton	-4633
▁sincerity	-4634
▁stationed	-4635
▁strangers	-4636
▁struggles	-4637
▁suggested	-4638
▁sweetness	-4639
▁uncertain	-4640
▁unguarded	-4641
▁unhappily	-4642
▁uniformly	-4643
▁unluckily	-4644
▁voluntary	-4645
▁wandering	-4646
▁whichever	-4647
▁withdrawn	-4648
▁witnessed	-4649
▁abundantly	-4650
▁accidental	-4651
▁amusements	-4652
▁approached	-4653
▁authorized	-4654
▁calculated	-4655
▁complaints	-4656
▁composedly	-4657
▁consistent	-4658
▁convenient	-4659
▁cordiality	-4660
▁diffidence	-4661
▁discharged	-4662
▁disengaged	-4663
▁disrespect	-4664
▁distracted	-4665
▁entreaties	-4666
▁excellence	-4667
▁exclaiming	-4668
▁flattering	-4669
▁gentleness	-4670
▁hesitation	-4671
▁incivility	-4672
▁incredible	-4673
▁insensible	-4674
▁intentions	-4675
▁invaluable	-4676
▁irritation	-4677
▁management	-4678
▁meditating	-4679
▁melancholy	-4680
▁occasioned	-4681
▁overspread	-4682
▁overthrown	-4683
▁pleasanter	-4684
▁pretending	-4685
▁privileged	-4686
▁protesting	-4687
▁punishment	-4688
▁questioned	-4689
▁reputation	-4690
▁resolutely	-4691
▁respecting	-4692
▁ridiculous	-4693
▁salutation	-4694
▁sensations	-4695
▁successful	-4696
▁sufficient	-4697
▁suspicions	-4698
▁tenderness	-4699
▁ungenerous	-4700
▁whispering	-4701
▁accusations	-4702
▁affectation	-4703
▁alternative	-4704
▁anticipated	-4705
▁apologizing	-4706
▁awkwardness	-4707
▁communicate	-4708
▁competition	-4709
▁continuance	-4710
▁contrivance	-4711
▁effectually	-4712
▁employments	-4713
▁examination	-4714
▁impropriety	-4715
▁incredulity	-4716
▁incredulous	-4717
▁inferiority	-4718
▁intolerable	-4719
▁obligations	-4720
▁occurrences	-4721
▁pretensions	-4722
▁quarrelling	-4723
▁regimentals	-4724
▁remembrance	-4725
▁thoughtless	-4726
▁undeserving	-4727
▁universally	-4728
▁unnecessary	-4729
▁unwillingly	-4730
▁complaisance	-4731
▁comprehended	-4732
▁disconcerted	-4733
▁endeavouring	-4734
▁extravagance	-4735
▁guardianship	-4736
▁inconvenient	-4737
▁instructions	-4738
▁intelligible	-4739
▁lamentations	-4740
▁perseverance	-4741
▁perverseness	-4742
▁pleasantness	-4743
▁sufficiently	-4744
▁suitableness	-4745
▁unexpectedly	-4746
▁comparatively	-4747
▁contemplation	-4748
▁determination	-4749
▁insupportable	-4750
▁misunderstood	-4751
▁objectionable	-4752
▁reprehensible	-4753
▁acknowledgment	-4754
▁affectionately	-4755
▁insignificance	-4756
▁thoughtlessness	-4757
ax	-4758
cd	-4759
do	-4760
fa	-4761
fl	-4762
fy	-4763
go	-4764
ks	-4765
pi	-4766
sc	-4767
ys	-4768
agg	-4769
aid	-4770
ale	-4771
ano	-4772
anv	-4773
ari	-4774
bar	-4775
cal	-4776
cks	-4777
cts	-4778
eat	-4779
eev	-4780
egr	-4781
ele	-4782
els	-4783
erf	-4784
erg	-4785
eri	-4786
eur	-4787
gam	-4788
ier	-4789
ift	-4790
ipt	-4791
kon	-4792
lac	-4793
let	-4794
mit	-4795
nal	-4796
nat	-4797
ony	-4798
oof	-4799
na	-4800
dig	-4801
oon	-4802
org	-4803
ork	-4804
osp	-4805
oss	-4806
ram	-4807
say	-4808
tel	-4809
tle	-4810
tur	-4811
ugn	-4812
zen	-4813
zes	-4814
▁ba	-4815
▁kn	-4816
▁sk	-4817
alid	-4818
anks	-4819
ante	-4820
areh	-4821
asol	-4822
back	-4823
bare	-4824
came	-4825
case	-4826
ches	-4827
cili	-4828
cond	-4829
dary	-4830
eded	-4831
eeks	-4832
eeps	-4833
eleb	-4834
fted	-4835
gies	-4836
gued	-4837
ical	-4838
idow	-4839
imed	-4840
incl	-4841
irma	-4842
ites	-4843
ival	-4844
ives	-4845
kind	-4846
lead	-4847
levi	-4848
limp	-4849
live	-4850
lock	-4851
lord	-4852
medy	-4853
necd	-4854
oral	-4855
orms	-4856
oser	-4857
osom	-4858
oted	-4859
outs	-4860
plex	-4861
pper	-4862
psed	-4863
rect	-4864
ript	-4865
rude	-4866
sett	-4867
sted	-4868
stri	-4869
teur	-4870
uing	-4871
ural	-4872
uses	-4873
zzle	-4874
▁adh	-4875
▁anc	-4876
▁ant	-4877
▁ate	-4878
▁awe	-4879
▁daw	-4880
▁dil	-4881
▁duc	-4882
▁dul	-4883
▁eti	-4884
▁fru	-4885
▁inm	-4886
▁lag	-4887
▁lik	-4888
▁loo	-4889
▁lot	-4890
▁nor	-4891
▁oak	-4892
▁ost	-4893
▁pad	-4894
▁pet	-4895
▁poc	-4896
▁rob	-4897
▁rud	-4898
▁sch	-4899
evol	-4900
▁sed	-4901
▁sne	-4902
▁sol	-4903
▁tid	-4904
▁tum	-4905
▁unb	-4906
▁wat	-4907
acing	-4908
acken	-4909
acles	-4910
agger	-4911
alice	-4912
alous	-4913
anegy	-4914
asted	-4915
attle	-4916
avour	-4917
cibly	-4918
edged	-4919
enetr	-4920
ensed	-4921
enses	-4922
ereab	-4923
erity	-4924
erver	-4925
essed	-4926
forte	-4927
iency	-4928
ienti	-4929
ighed	-4930
ighth	-4931
ilial	-4932
imony	-4933
isite	-4934
istic	-4935
izing	-4936
ketch	-4937
onsid	-4938
ories	-4939
ortal	-4940
ortra	-4941
osted	-4942
press	-4943
pside	-4944
raced	-4945
retch	-4946
ridge	-4947
round	-4948
royed	-4949
teous	-4950
tered	-4951
thern	-4952
ulted	-4953
urous	-4954
usive	-4955
velop	-4956
verty	-4957
while	-4958
woman	-4959
worth	-4960
▁army	-4961
▁awak	-4962
▁blue	-4963
▁bold	-4964
▁bows	-4965
▁boys	-4966
▁brit	-4967
▁burn	-4968
▁chat	-4969
▁chin	-4970
▁conj	-4971
▁conn	-4972
▁cook	-4973
▁drop	-4974
▁duti	-4975
▁earl	-4976
▁emin	-4977
▁enab	-4978
▁envy	-4979
▁fain	-4980
▁fare	-4981
▁fate	-4982
▁ferv	-4983
▁fing	-4984
▁foot	-4985
▁gain	-4986
▁genu	-4987
▁glan	-4988
▁glow	-4989
▁gret	-4990
▁guid	-4991
▁hack	-4992
▁hair	-4993
▁hosp	-4994
▁hurt	-4995
▁immo	-4996
▁joke	-4997
▁jump	-4998
▁lieu	-4999
ape	-5000
dock	-5001
▁tax	-5002
iddle	-5003
▁canv	-5004
▁curt	-5005
▁enem	-5006
▁loud	-5007
▁mill	-5008
▁ming	-5009
▁musl	-5010
▁nine	-5011
▁noon	-5012
▁owes	-5013
▁pair	-5014
▁pale	-5015
▁peev	-5016
▁piqu	-5017
▁poll	-5018
▁pred	-5019
▁prof	-5020
▁prot	-5021
▁pure	-5022
▁reel	-5023
▁rise	-5024
▁rude	-5025
▁save	-5026
▁secl	-5027
▁smil	-5028
▁sons	-5029
▁soul	-5030
▁stir	-5031
▁tide	-5032
▁trim	-5033
▁ugly	-5034
▁unab	-5035
▁unac	-5036
▁unal	-5037
▁unav	-5038
▁unde	-5039
▁undo	-5040
▁unsh	-5041
▁unsu	-5042
▁vari	-5043
▁vind	-5044
▁will	-5045
▁wine	-5046
▁wore	-5047
▁worn	-5048
antial	-5049
atible	-5050
eeling	-5051
eeping	-5052
egrity	-5053
elcome	-5054
enious	-5055
enture	-5056
ergone	-5057
ervalu	-5058
ession	-5059
father	-5060
ffness	-5061
gammon	-5062
gments	-5063
idable	-5064
idious	-5065
igning	-5066
ilding	-5067
ilette	-5068
illity	-5069
iously	-5070
itance	-5071
itched	-5072
limpse	-5073
mation	-5074
ounted	-5075
owered	-5076
perate	-5077
quette	-5078
ribute	-5079
ricate	-5080
rietor	-5081
ruding	-5082
script	-5083
tively	-5084
tivity	-5085
uctant	-5086
umbent	-5087
urious	-5088
urring	-5089
ustice	-5090
vedale	-5091
warded	-5092
▁abuse	-5093
▁accur	-5094
▁acute	-5095
▁alike	-5096
▁aloof	-5097
▁ample	-5098
▁anecd	-5099
▁annum	-5100
▁awful	-5101
▁banks	-5102
▁bears	-5103
▁begun	-5104
▁birds	-5105
▁bosom	-5106
▁bound	-5107
▁brink	-5108
▁broke	-5109
▁burst	-5110
▁celeb	-5111
▁class	-5112
▁conqu	-5113
▁copse	-5114
▁crown	-5115
▁dated	-5116
▁dirty	-5117
▁dissu	-5118
▁dozen	-5119
▁dwell	-5120
▁edged	-5121
▁excel	-5122
▁exhib	-5123
▁faint	-5124
▁feels	-5125
▁fever	-5126
▁fight	-5127
▁forth	-5128
▁gaily	-5129
▁gates	-5130
▁glass	-5131
▁gowns	-5132
▁guide	-5133
▁hates	-5134
▁hence	-5135
▁incur	-5136
▁indec	-5137
▁infli	-5138
▁injun	-5139
▁insip	-5140
▁keeps	-5141
▁leads	-5142
▁loves	-5143
▁manor	-5144
▁march	-5145
▁marks	-5146
▁mirth	-5147
▁noise	-5148
▁numer	-5149
▁older	-5150
▁owner	-5151
▁pales	-5152
▁piano	-5153
▁plant	-5154
▁pratt	-5155
▁price	-5156
▁prone	-5157
▁range	-5158
▁reali	-5159
▁regul	-5160
▁retro	-5161
▁rever	-5162
▁rival	-5163
▁sakes	-5164
▁satin	-5165
▁saved	-5166
▁scand	-5167
▁seats	-5168
▁serve	-5169
▁seven	-5170
▁shade	-5171
▁shape	-5172
▁skill	-5173
▁slave	-5174
▁smart	-5175
▁spots	-5176
▁stair	-5177
▁stone	-5178
▁storm	-5179
▁tease	-5180
▁theat	-5181
▁trade	-5182
▁treas	-5183
▁tremb	-5184
▁trial	-5185
▁turns	-5186
▁unass	-5187
▁unfit	-5188
▁unnat	-5189
▁unpro	-5190
▁unres	-5191
▁upper	-5192
▁usage	-5193
▁vague	-5194
▁wareh	-5195
▁water	-5196
▁white	-5197
▁widow	-5198
▁wiser	-5199
▁woody	-5200
adesman	-5201
attered	-5202
changed	-5203
cilious	-5204
ciously	-5205
conduct	-5206
entials	-5207
entment	-5208
ipation	-5209
itality	-5210
lliancy	-5211
plexity	-5212
settled	-5213
tentive	-5214
ularity	-5215
umption	-5216
urrence	-5217
ustomed	-5218
▁absurd	-5219
▁abused	-5220
▁active	-5221
▁actual	-5222
▁adieus	-5223
▁allevi	-5224
▁appeal	-5225
▁appreh	-5226
▁around	-5227
▁arrive	-5228
▁avowed	-5229
▁barbar	-5230
▁barnet	-5231
▁befall	-5232
▁begins	-5233
▁behalf	-5234
▁behave	-5235
▁beheld	-5236
▁borrow	-5237
▁bottle	-5238
▁branch	-5239
▁busily	-5240
▁caring	-5241
▁charms	-5242
▁cheeks	-5243
▁coldly	-5244
▁comply	-5245
▁convey	-5246
▁coolly	-5247
▁corrob	-5248
▁crying	-5249
▁custom	-5250
▁daring	-5251
▁deeply	-5252
▁derive	-5253
▁desert	-5254
▁despic	-5255
▁disput	-5256
▁divide	-5257
▁doings	-5258
▁double	-5259
▁easter	-5260
▁eating	-5261
▁ensign	-5262
▁errors	-5263
▁expedi	-5264
▁experi	-5265
▁fairly	-5266
▁fallen	-5267
▁filial	-5268
▁finest	-5269
▁flying	-5270
▁fonder	-5271
▁fourth	-5272
▁gather	-5273
▁godson	-5274
▁gratul	-5275
▁gravel	-5276
▁gretna	-5277
▁guided	-5278
▁handed	-5279
▁hearty	-5280
▁hereab	-5281
▁illust	-5282
▁imperf	-5283
▁implac	-5284
▁impose	-5285
▁incomp	-5286
▁injure	-5287
▁insure	-5288
▁intend	-5289
▁interp	-5290
▁invent	-5291
▁joyful	-5292
▁justly	-5293
▁kissed	-5294
▁lagged	-5295
▁laying	-5296
▁lesson	-5297
▁liable	-5298
▁lifted	-5299
▁liking	-5300
▁livery	-5301
▁lodges	-5302
▁malice	-5303
▁manage	-5304
▁mantel	-5305
▁market	-5306
▁merits	-5307
▁middle	-5308
▁modern	-5309
▁mortal	-5310
▁mouths	-5311
▁needed	-5312
▁neglig	-5313
▁nerves	-5314
▁nnight	-5315
▁obeyed	-5316
▁obsequ	-5317
▁offend	-5318
▁ostent	-5319
▁overfl	-5320
▁paling	-5321
▁paltry	-5322
▁panegy	-5323
▁parade	-5324
▁parent	-5325
▁partly	-5326
▁pauses	-5327
▁penetr	-5328
▁pertur	-5329
▁pieces	-5330
▁pitied	-5331
▁pocket	-5332
▁poetry	-5333
▁polite	-5334
▁portra	-5335
▁premed	-5336
▁prodig	-5337
▁puzzle	-5338
▁ramble	-5339
▁rattle	-5340
▁reckon	-5341
▁remedy	-5342
▁remove	-5343
▁render	-5344
▁repaid	-5345
▁repugn	-5346
▁restor	-5347
▁review	-5348
▁ruined	-5349
▁scenes	-5350
▁school	-5351
▁scotch	-5352
▁screen	-5353
▁seized	-5354
▁senses	-5355
▁shaken	-5356
▁sketch	-5357
▁sorrow	-5358
▁speaks	-5359
▁sphere	-5360
▁sports	-5361
▁stated	-5362
▁strenu	-5363
▁stroke	-5364
▁suited	-5365
▁teased	-5366
▁thread	-5367
▁threat	-5368
▁trifle	-5369
▁tumult	-5370
▁turnpi	-5371
▁uncons	-5372
▁undert	-5373
▁unfelt	-5374
▁unforg	-5375
▁waiter	-5376
▁walker	-5377
▁wealth	-5378
▁whence	-5379
▁worked	-5380
▁writer	-5381
evolence	-5382
ighthood	-5383
irmative	-5384
robinson	-5385
untarily	-5386
▁abusive	-5387
▁accents	-5388
▁accused	-5389
▁acquies	-5390
▁admires	-5391
▁amazing	-5392
▁apology	-5393
▁article	-5394
▁attacks	-5395
▁bathing	-5396
▁begging	-5397
▁behaves	-5398
▁belongs	-5399
▁benefic	-5400
▁blinded	-5401
▁capital	-5402
▁ceremon	-5403
▁claimed	-5404
▁cleared	-5405
▁clearly	-5406
▁closest	-5407
▁compose	-5408
▁condole	-5409
▁consult	-5410
▁courses	-5411
▁courted	-5412
▁covered	-5413
▁cruelly	-5414
▁daresay	-5415
▁decease	-5416
▁decline	-5417
▁defined	-5418
▁designs	-5419
▁despise	-5420
▁develop	-5421
▁dinners	-5422
▁discuss	-5423
▁disincl	-5424
▁dispute	-5425
▁driving	-5426
▁endless	-5427
▁engross	-5428
▁exagger	-5429
▁excuses	-5430
▁exerted	-5431
▁failing	-5432
▁fainter	-5433
▁falling	-5434
▁favours	-5435
▁feather	-5436
▁fellows	-5437
▁fingers	-5438
▁firmest	-5439
▁footing	-5440
▁forming	-5441
▁gallery	-5442
▁genteel	-5443
▁genuine	-5444
▁glimpse	-5445
▁gratify	-5446
▁gravity	-5447
▁hackney	-5448
▁happens	-5449
▁happier	-5450
▁hauteur	-5451
▁holding	-5452
▁illness	-5453
▁imputed	-5454
▁induced	-5455
▁indulge	-5456
▁infancy	-5457
▁inspire	-5458
▁instinc	-5459
▁intrude	-5460
▁involve	-5461
▁liberal	-5462
▁licence	-5463
▁longing	-5464
▁matlock	-5465
▁merited	-5466
▁message	-5467
▁mislead	-5468
▁nearest	-5469
▁nephews	-5470
▁notions	-5471
▁outstri	-5472
▁paddock	-5473
▁parasol	-5474
▁passage	-5475
▁passion	-5476
▁pausing	-5477
▁peevish	-5478
▁pitiful	-5479
▁placing	-5480
▁playful	-5481
▁pledged	-5482
▁portion	-5483
▁poverty	-5484
▁praises	-5485
▁preposs	-5486
▁prevail	-5487
▁project	-5488
▁purport	-5489
▁pursued	-5490
▁quality	-5491
▁quarrel	-5492
▁quickly	-5493
▁raising	-5494
▁rapidly	-5495
▁rapture	-5496
▁receipt	-5497
▁recital	-5498
▁refrain	-5499
▁regrets	-5500
▁repress	-5501
▁reputed	-5502
▁resolve	-5503
▁retreat	-5504
▁rightly	-5505
▁scarlet	-5506
▁seeming	-5507
▁setting	-5508
▁shaking	-5509
▁sharing	-5510
▁shyness	-5511
▁singing	-5512
▁singled	-5513
▁special	-5514
▁stretch	-5515
▁studies	-5516
▁surmise	-5517
▁surpass	-5518
▁tenants	-5519
▁thereby	-5520
▁thirdly	-5521
▁tidings	-5522
▁varying	-5523
▁village	-5524
▁visible	-5525
▁winking	-5526
▁worldly	-5527
avourable	-5528
enetrably	-5529
onourable	-5530
▁abruptly	-5531
▁accosted	-5532
▁accounts	-5533
▁activity	-5534
▁admiring	-5535
▁affinity	-5536
▁agreeing	-5537
▁alliance	-5538
▁anecdote	-5539
▁ardently	-5540
▁arrested	-5541
▁assented	-5542
▁astonish	-5543
▁audience	-5544
▁avoiding	-5545
▁awakened	-5546
▁belonged	-5547
▁bordered	-5548
▁boundary	-5549
▁brothers	-5550
▁building	-5551
▁carrying	-5552
▁censured	-5553
▁checking	-5554
▁compared	-5555
▁conclude	-5556
▁conquest	-5557
▁consoled	-5558
▁converse	-5559
▁conveyed	-5560
▁covering	-5561
▁decisive	-5562
▁derision	-5563
▁detached	-5564
▁detained	-5565
▁detected	-5566
▁dilatory	-5567
▁disliked	-5568
▁doubting	-5569
▁dovedale	-5570
▁effusion	-5571
▁eloquent	-5572
▁evenness	-5573
▁existing	-5574
▁expenses	-5575
▁extended	-5576
▁extracts	-5577
▁fashions	-5578
▁fatigued	-5579
▁feverish	-5580
▁forcibly	-5581
▁foreseen	-5582
▁gaieties	-5583
▁gardener	-5584
▁glancing	-5585
▁governed	-5586
▁grandeur	-5587
▁guidance	-5588
▁hesitate	-5589
▁hitherto	-5590
▁idleness	-5591
▁implicit	-5592
▁incensed	-5593
▁indirect	-5594
▁indulged	-5595
▁innocent	-5596
▁insolent	-5597
▁inspired	-5598
▁intently	-5599
▁inviting	-5600
▁landlord	-5601
▁likeness	-5602
▁listener	-5603
▁maternal	-5604
▁meantime	-5605
▁meditate	-5606
▁meetings	-5607
▁mischief	-5608
▁mistakes	-5609
▁neatness	-5610
▁northern	-5611
▁numerous	-5612
▁observer	-5613
▁offences	-5614
▁overcame	-5615
▁passages	-5616
▁pictures	-5617
▁planning	-5618
▁politely	-5619
▁practice	-5620
▁predomin	-5621
▁presents	-5622
▁pretence	-5623
▁prettier	-5624
▁pursuing	-5625
▁quarters	-5626
▁raptures	-5627
▁reaching	-5628
▁recalled	-5629
▁recovery	-5630
▁regarded	-5631
▁regulars	-5632
▁renewing	-5633
▁repaired	-5634
▁repining	-5635
▁replying	-5636
▁reserves	-5637
▁retained	-5638
▁revealed	-5639
▁rewarded	-5640
▁rudeness	-5641
▁scruples	-5642
▁secondly	-5643
▁secretly	-5644
▁sensibly	-5645
▁settling	-5646
▁signific	-5647
▁singular	-5648
▁solidity	-5649
▁solitary	-5650
▁speeches	-5651
▁stopping	-5652
▁striking	-5653
▁striving	-5654
▁suitable	-5655
▁supplied	-5656
▁surround	-5657
▁symptoms	-5658
▁tendency	-5659
▁tenderly	-5660
▁throwing	-5661
▁tiresome	-5662
▁toilette	-5663
▁unjustly	-5664
▁vanished	-5665
▁veracity	-5666
▁wilfully	-5667
▁wounding	-5668
▁accompany	-5669
▁accounted	-5670
▁admirable	-5671
▁adventure	-5672
▁affording	-5673
▁affronted	-5674
▁agreeably	-5675
▁allowance	-5676
▁anxiously	-5677
▁apologies	-5678
▁assisting	-5679
▁atonement	-5680
▁attracted	-5681
▁bordering	-5682
▁brotherly	-5683
▁cheapside	-5684
▁christian	-5685
▁comparing	-5686
▁concisely	-5687
▁condemned	-5688
▁conducted	-5689
▁confident	-5690
▁confirmed	-5691
▁consented	-5692
▁consisted	-5693
▁continual	-5694
▁contrived	-5695
▁cordially	-5696
▁courtship	-5697
▁deception	-5698
▁deserving	-5699
▁despising	-5700
▁destroyed	-5701
▁directing	-5702
▁discharge	-5703
▁discussed	-5704
▁disdained	-5705
▁disgusted	-5706
▁dismissed	-5707
▁disturbed	-5708
▁doubtless	-5709
▁duplicity	-5710
▁dutifully	-5711
▁effusions	-5712
▁embracing	-5713
▁entreated	-5714
▁essential	-5715
▁establish	-5716
▁estimable	-5717
▁etiquette	-5718
▁excepting	-5719
▁exception	-5720
▁expedient	-5721
▁formality	-5722
▁forwarded	-5723
▁gouldings	-5724
▁greatness	-5725
▁hastening	-5726
▁horseback	-5727
▁immovable	-5728
▁impartial	-5729
▁impudence	-5730
▁including	-5731
▁incumbent	-5732
▁indignity	-5733
▁inexpress	-5734
▁informing	-5735
▁ingenious	-5736
▁injurious	-5737
▁injustice	-5738
▁integrity	-5739
▁intervals	-5740
▁intricate	-5741
▁intruding	-5742
▁irritable	-5743
▁liberally	-5744
▁malicious	-5745
▁meanwhile	-5746
▁meditated	-5747
▁momentary	-5748
▁mountains	-5749
▁northward	-5750
▁obstacles	-5751
▁obstinacy	-5752
▁offensive	-5753
▁oppressed	-5754
▁ornaments	-5755
▁overheard	-5756
▁overpower	-5757
▁overthrow	-5758
▁panegyric	-5759
▁performer	-5760
▁persisted	-5761
▁philipses	-5762
▁possessed	-5763
▁possessor	-5764
▁preferred	-5765
▁presented	-5766
▁presently	-5767
▁pretended	-5768
▁privilege	-5769
▁pronounce	-5770
▁provision	-5771
▁provoking	-5772
▁purchases	-5773
▁qualified	-5774
▁rapturous	-5775
▁readiness	-5776
▁recurring	-5777
▁rejecting	-5778
▁reluctant	-5779
▁requiring	-5780
▁retaining	-5781
▁scattered	-5782
▁sensation	-5783
▁sharpened	-5784
▁sheltered	-5785
▁smilingly	-5786
▁staircase	-5787
▁statement	-5788
▁steadfast	-5789
▁stiffness	-5790
▁substance	-5791
▁suffering	-5792
▁testimony	-5793
▁tradesman	-5794
▁undergone	-5795
▁undervalu	-5796
▁unfeeling	-5797
▁universal	-5798
▁unnatural	-5799
▁unsettled	-5800
▁unwelcome	-5801
▁variation	-5802
▁vexatious	-5803
▁violently	-5804
▁willingly	-5805
▁wonderful	-5806
▁wondering	-5807
▁worthless	-5808
▁abhorrence	-5809
▁abruptness	-5810
▁acceptance	-5811
▁accustomed	-5812
▁additional	-5813
▁affability	-5814
▁answerable	-5815
▁apartments	-5816
▁apologized	-5817
▁apparently	-5818
▁assertions	-5819
▁attempting	-5820
▁attendance	-5821
▁backgammon	-5822
▁breathless	-5823
▁brilliancy	-5824
▁celebrated	-5825
▁characters	-5826
▁charmingly	-5827
▁cheerfully	-5828
▁collection	-5829
▁compatible	-5830
▁condescend	-5831
▁confession	-5832
▁confidante	-5833
▁confirming	-5834
▁conscienti	-5835
▁constantly	-5836
▁containing	-5837
▁contracted	-5838
▁conversing	-5839
▁deficiency	-5840
▁descending	-5841
▁describing	-5842
▁discourage	-5843
▁displaying	-5844
▁downstairs	-5845
▁endeavours	-5846
▁essentials	-5847
▁exercising	-5848
▁familiarly	-5849
▁fastidious	-5850
▁favourably	-5851
▁flirtation	-5852
▁forgetting	-5853
▁formidable	-5854
▁generality	-5855
▁handsomely	-5856
▁hereabouts	-5857
▁indisposed	-5858
▁individual	-5859
▁inevitable	-5860
▁inheriting	-5861
▁inspection	-5862
▁intimately	-5863
▁knighthood	-5864
▁laughingly	-5865
▁liberality	-5866
▁maintained	-5867
▁misconduct	-5868
▁neglecting	-5869
▁obsequious	-5870
▁opposition	-5871
▁overlooked	-5872
▁perplexity	-5873
▁pianoforte	-5874
▁pleasantry	-5875
▁positively	-5876
▁postscript	-5877
▁preferment	-5878
▁prejudices	-5879
▁prevailing	-5880
▁proprietor	-5881
▁prosperity	-5882
▁prosperous	-5883
▁protection	-5884
▁punctually	-5885
▁rationally	-5886
▁reconciled	-5887
▁refreshing	-5888
▁regardless	-5889
▁regretting	-5890
▁repetition	-5891
▁requesting	-5892
▁resistance	-5893
▁sanctioned	-5894
▁scandalous	-5895
▁soliciting	-5896
▁subsisting	-5897
▁suppressed	-5898
▁suspecting	-5899
▁threadbare	-5900
▁unavailing	-5901
▁unsuitable	-5902
▁warehouses	-5903
▁wickedness	-5904
▁absurdities	-5905
▁affirmative	-5906
▁attentively	-5907
▁benevolence	-5908
▁captivating	-5909
▁chambermaid	-5910
▁circulation	-5911
▁comfortably	-5912
▁concealment	-5913
▁concurrence	-5914
▁conjectured	-5915
▁contentment	-5916
▁convenience	-5917
▁determining	-5918
▁development	-5919
▁discernment	-5920
▁discharging	-5921
▁discomposed	-5922
▁exclamation	-5923
▁experienced	-5924
▁extravagant	-5925
▁forgiveness	-5926
▁fortunately	-5927
▁gratulation	-5928
▁hospitality	-5929
▁humiliation	-5930
▁impatiently	-5931
▁inattention	-5932
▁inattentive	-5933
▁incessantly	-5934
▁instruction	-5935
▁overpowered	-5936
▁penetration	-5937
▁perpetually	-5938
▁playfulness	-5939
▁precipitate	-5940
▁presumption	-5941
▁remembering	-5942
▁resentfully	-5943
▁resignation	-5944
▁restoration	-5945
▁sensibility	-5946
▁significant	-5947
▁strenuously	-5948
▁substantial	-5949
▁temptations	-5950
▁termination	-5951
▁unconcerned	-5952
▁unforgiving	-5953
▁unhappiness	-5954
▁vindication	-5955
▁willingness	-5956
▁wonderfully	-5957
▁accidentally	-5958
▁accompanying	-5959
▁advantageous	-5960
▁anticipating	-5961
▁carelessness	-5962
▁communicated	-5963
▁confirmation	-5964
▁consequences	-5965
▁considerably	-5966
▁discomposure	-5967
▁exclamations	-5968
▁explanations	-5969
▁expressively	-5970
▁housekeeping	-5971
▁hypocritical	-5972
▁impenetrably	-5973
▁inclinations	-5974
▁intermission	-5975
▁interrupting	-5976
▁neighbouring	-5977
▁observations	-5978
▁perturbation	-5979
▁precipitance	-5980
▁preservation	-5981
▁preservative	-5982
▁prodigiously	-5983
▁supercilious	-5984
▁tranquillity	-5985
▁unfavourable	-5986
▁watchfulness	-5987
▁wretchedness	-5988
▁apprehensions	-5989
▁commendations	-5990
▁compassionate	-5991
▁conditionally	-5992
▁congratulated	-5993
▁correspondent	-5994
▁disappointing	-5995
▁dishonourable	-5996
▁expeditiously	-5997
▁instinctively	-5998
▁involuntarily	-5999
▁misunderstand	-6000
▁prepossession	-6001
▁unconsciously	-6002
▁unfortunately	-6003
▁unwillingness	-6004
▁accomplishment	-6005
▁advantageously	-6006
▁characteristic	-6007
▁circumspection	-6008
▁communications	-6009
▁disinclination	-6010
▁distinguishing	-6011
▁inconveniences	-6012
▁misrepresented	-6013
▁qualifications	-6014
▁reconciliation	-6015
▁thoughtfulness	-6016
▁acknowledgments	-6017
af	-6018
ah	-6019
az	-6020
bb	-6021
be	-6022
bo	-6023
bu	-6024
dy	-6025
gs	-6026
he	-6027
hn	-6028
ls	-6029
ob	-6030
ox	-6031
pe	-6032
pl	-6033
xy	-6034
alm	-6035
alo	-6036
amb	-6037
anu	-6038
anz	-6039
ars	-6040
asp	-6041
asy	-6042
atu	-6043
aye	-6044
bag	-6045
bbs	-6046
cha	-6047
cue	-6048
der	-6049
ede	-6050
eni	-6051
equ	-6052
eti	-6053
etu	-6054
euv	-6055
for	-6056
gen	-6057
gib	-6058
gor	-6059
gro	-6060
has	-6061
hau	-6062
hed	-6063
her	-6064
how	-6065
iat	-6066
ids	-6067
idu	-6068
ino	-6069
iqu	-6070
irs	-6071
iss	-6072
ker	-6073
lar	-6074
ldi	-6075
lew	-6076
lex	-6077
log	-6078
men	-6079
nch	-6080
nit	-6081
off	-6082
ogn	-6083
oid	-6084
oke	-6085
oth	-6086
ots	-6087
oxh	-6088
ped	-6089
pes	-6090
pic	-6091
pid	-6092
pon	-6093
pti	-6094
rau	-6095
rim	-6096
ris	-6097
rog	-6098
ruc	-6099
bru	-6100
fil	-6101
iev	-6102
ips	-6103
mme	-6104
run	-6105
saf	-6106
sed	-6107
set	-6108
tes	-6109
the	-6110
uge	-6111
uit	-6112
ulf	-6113
uls	-6114
uly	-6115
unk	-6116
ury	-6117
uss	-6118
uts	-6119
vey	-6120
vis	-6121
vor	-6122
▁cr	-6123
▁ep	-6124
▁it	-6125
▁my	-6126
▁od	-6127
▁om	-6128
▁ox	-6129
▁py	-6130
▁sn	-6131
▁te	-6132
▁ul	-6133
abit	-6134
acit	-6135
akew	-6136
allo	-6137
amor	-6138
arel	-6139
arse	-6140
ased	-6141
aucy	-6142
ault	-6143
bish	-6144
bled	-6145
cale	-6146
ceiv	-6147
cher	-6148
dled	-6149
done	-6150
dure	-6151
eard	-6152
ecom	-6153
edan	-6154
eder	-6155
edge	-6156
enge	-6157
enil	-6158
erce	-6159
erge	-6160
ewer	-6161
ffed	-6162
ffin	-6163
ghts	-6164
gout	-6165
grad	-6166
gues	-6167
hand	-6168
iced	-6169
ilty	-6170
inct	-6171
inea	-6172
inel	-6173
ingt	-6174
inqu	-6175
ints	-6176
iser	-6177
ivor	-6178
leen	-6179
lets	-6180
lorn	-6181
mean	-6182
merg	-6183
mits	-6184
mply	-6185
nees	-6186
noon	-6187
nuts	-6188
ocal	-6189
oeuv	-6190
omic	-6191
onic	-6192
only	-6193
onst	-6194
onym	-6195
orse	-6196
orts	-6197
pers	-6198
pool	-6199
saw	-6200
arke	-6201
city	-6202
dies	-6203
erto	-6204
hold	-6205
oped	-6206
pted	-6207
quel	-6208
rant	-6209
rent	-6210
requ	-6211
rier	-6212
rily	-6213
roar	-6214
roop	-6215
rost	-6216
shly	-6217
sing	-6218
sion	-6219
some	-6220
ssip	-6221
sven	-6222
teen	-6223
tenu	-6224
tish	-6225
tons	-6226
tted	-6227
uctu	-6228
uish	-6229
uled	-6230
umed	-6231
uned	-6232
urel	-6233
vest	-6234
veys	-6235
ware	-6236
xing	-6237
▁aid	-6238
▁amb	-6239
▁asp	-6240
▁bat	-6241
▁cas	-6242
▁cel	-6243
▁coa	-6244
▁cre	-6245
▁cuc	-6246
▁cul	-6247
▁cun	-6248
▁cup	-6249
▁dee	-6250
▁dim	-6251
▁dur	-6252
▁ela	-6253
▁enh	-6254
▁ere	-6255
▁exu	-6256
▁fat	-6257
▁ham	-6258
▁haz	-6259
▁hei	-6260
▁hug	-6261
▁jun	-6262
▁lac	-6263
▁lie	-6264
▁lob	-6265
▁lun	-6266
▁lur	-6267
▁mul	-6268
▁now	-6269
▁obv	-6270
▁pin	-6271
▁pli	-6272
▁pop	-6273
▁por	-6274
▁sag	-6275
▁sam	-6276
▁sar	-6277
▁sea	-6278
▁sen	-6279
▁sle	-6280
▁soo	-6281
▁thr	-6282
▁thw	-6283
▁tor	-6284
▁unt	-6285
▁unv	-6286
▁upb	-6287
▁ven	-6288
▁viv	-6289
▁vow	-6290
▁win	-6291
acted	-6292
ading	-6293
akest	-6294
alian	-6295
alled	-6296
amish	-6297
amped	-6298
amper	-6299
ets	-6300
agon	-6301
felt	-6302
lore	-6303
oton	-6304
pets	-6305
tiny	-6306
uman	-6307
▁apt	-6308
▁but	-6309
▁jot	-6310
▁mag	-6311
▁ral	-6312
anest	-6313
aning	-6314
anish	-6315
arder	-6316
aries	-6317
ashed	-6318
ashes	-6319
assed	-6320
atage	-6321
belie	-6322
ccent	-6323
ceive	-6324
cence	-6325
count	-6326
dable	-6327
dimin	-6328
earch	-6329
eared	-6330
ecary	-6331
echam	-6332
ectly	-6333
ewels	-6334
ffect	-6335
ffers	-6336
groom	-6337
hatic	-6338
icken	-6339
icted	-6340
idate	-6341
ipage	-6342
irest	-6343
ishes	-6344
isome	-6345
ister	-6346
itent	-6347
itful	-6348
itous	-6349
lived	-6350
loved	-6351
moved	-6352
mport	-6353
nable	-6354
nings	-6355
nonym	-6356
oblig	-6357
olved	-6358
omley	-6359
onest	-6360
oried	-6361
oting	-6362
pence	-6363
peron	-6364
quain	-6365
quali	-6366
rimon	-6367
rious	-6368
roach	-6369
rowed	-6370
ssino	-6371
sters	-6372
stood	-6373
tened	-6374
tific	-6375
uling	-6376
unity	-6377
uster	-6378
ustle	-6379
ustre	-6380
utest	-6381
uting	-6382
venge	-6383
▁alas	-6384
▁alth	-6385
▁anew	-6386
▁answ	-6387
▁appo	-6388
▁aton	-6389
▁aust	-6390
▁balm	-6391
▁band	-6392
▁beat	-6393
▁bequ	-6394
▁boul	-6395
▁bowl	-6396
▁cake	-6397
▁cast	-6398
▁chim	-6399
pte	-6400
cere	-6401
▁imm	-6402
▁wet	-6403
arice	-6404
bated	-6405
orary	-6406
ouded	-6407
ppice	-6408
tingu	-6409
vours	-6410
▁agit	-6411
▁begs	-6412
▁blem	-6413
▁broo	-6414
▁city	-6415
▁cler	-6416
▁clue	-6417
▁coup	-6418
▁cure	-6419
▁cust	-6420
▁dark	-6421
▁date	-6422
▁dili	-6423
▁dose	-6424
▁dupe	-6425
▁ecst	-6426
▁edge	-6427
▁exas	-6428
▁exqu	-6429
▁fame	-6430
▁flew	-6431
▁food	-6432
▁gets	-6433
▁goes	-6434
▁hang	-6435
▁heal	-6436
▁heed	-6437
▁hide	-6438
▁hire	-6439
▁irks	-6440
▁jest	-6441
▁lace	-6442
▁lear	-6443
▁lend	-6444
▁leve	-6445
▁lies	-6446
▁ling	-6447
▁lizz	-6448
▁mast	-6449
▁mead	-6450
▁mien	-6451
▁moun	-6452
▁nect	-6453
▁nour	-6454
▁oper	-6455
▁page	-6456
▁pang	-6457
▁pant	-6458
▁pave	-6459
▁peak	-6460
▁peep	-6461
▁pens	-6462
▁perm	-6463
▁pies	-6464
▁prem	-6465
▁prey	-6466
▁quer	-6467
▁race	-6468
▁rant	-6469
▁rash	-6470
▁rely	-6471
▁rode	-6472
▁rush	-6473
▁sang	-6474
▁sati	-6475
▁scra	-6476
▁sell	-6477
▁shed	-6478
▁shee	-6479
▁shoe	-6480
▁sigh	-6481
▁smoo	-6482
▁spac	-6483
▁spas	-6484
▁stem	-6485
▁stub	-6486
▁tack	-6487
▁tent	-6488
▁tort	-6489
▁trib	-6490
▁unan	-6491
▁undu	-6492
▁unpr	-6493
▁unst	-6494
▁unti	-6495
▁unus	-6496
▁void	-6497
▁ward	-6498
▁wast	-6499
ysic	-6500
aited	-6501
anges	-6502
cably	-6503
chess	-6504
erred	-6505
gnost	-6506
ouche	-6507
▁coqu	-6508
▁dole	-6509
▁eyel	-6510
▁glen	-6511
▁haye	-6512
▁rage	-6513
▁rail	-6514
▁simp	-6515
▁soft	-6516
▁vers	-6517
▁wave	-6518
▁west	-6519
▁wits	-6520
ackled	-6521
acknow	-6522
ainous	-6523
aliate	-6524
amping	-6525
ancies	-6526
aneous	-6527
appear	-6528
arines	-6529
arkled	-6530
arying	-6531
atable	-6532
bruary	-6533
coming	-6534
ctable	-6535
ctured	-6536
ective	-6537
eenest	-6538
encing	-6539
erable	-6540
erness	-6541
erston	-6542
ervice	-6543
feited	-6544
icated	-6545
ilions	-6546
inable	-6547
incere	-6548
inings	-6549
ioners	-6550
iority	-6551
irited	-6552
isance	-6553
itably	-6554
ivance	-6555
kingly	-6556
ldiers	-6557
ledged	-6558
licacy	-6559
licted	-6560
logged	-6561
luding	-6562
mbarra	-6563
nation	-6564
nitude	-6565
ocrity	-6566
omised	-6567
onsist	-6568
oralty	-6569
orated	-6570
ormity	-6571
ptible	-6572
rained	-6573
ramids	-6574
ration	-6575
rement	-6576
rewish	-6577
rified	-6578
rigues	-6579
soever	-6580
stible	-6581
tenant	-6582
tening	-6583
terate	-6584
tiness	-6585
uccess	-6586
udiced	-6587
ulance	-6588
ulsive	-6589
ulting	-6590
umbled	-6591
urable	-6592
ushing	-6593
▁abate	-6594
▁abide	-6595
▁ached	-6596
▁affli	-6597
▁agony	-6598
▁alive	-6599
ills	-6600
lete	-6601
raws	-6602
▁gla	-6603
lease	-6604
▁blen	-6605
▁blow	-6606
▁busy	-6607
▁fill	-6608
▁minu	-6609
▁pull	-6610
▁weep	-6611
ecided	-6612
enging	-6613
etuous	-6614
iating	-6615
ongest	-6616
▁amend	-6617
▁apace	-6618
▁apoth	-6619
▁aught	-6620
▁awake	-6621
▁beaux	-6622
▁billi	-6623
▁bills	-6624
▁black	-6625
▁brain	-6626
▁brown	-6627
▁calls	-6628
▁chall	-6629
▁chest	-6630
▁china	-6631
▁coher	-6632
▁colds	-6633
▁contr	-6634
▁corru	-6635
▁cover	-6636
▁darcy	-6637
▁defin	-6638
▁depra	-6639
▁deter	-6640
▁dines	-6641
▁ducti	-6642
▁earth	-6643
▁empty	-6644
▁enfor	-6645
▁envir	-6646
▁equiv	-6647
▁evade	-6648
▁exult	-6649
▁fewer	-6650
▁field	-6651
▁forms	-6652
▁forty	-6653
▁frame	-6654
▁frisk	-6655
▁fruit	-6656
▁gaped	-6657
▁gayer	-6658
▁grain	-6659
▁grasp	-6660
▁hears	-6661
▁heirs	-6662
▁heret	-6663
▁imply	-6664
▁incau	-6665
▁ingra	-6666
▁invar	-6667
▁invec	-6668
▁irret	-6669
▁laity	-6670
▁lanes	-6671
▁lease	-6672
▁loose	-6673
▁manif	-6674
▁meets	-6675
▁micha	-6676
▁mince	-6677
▁misch	-6678
▁model	-6679
▁newly	-6680
▁oddly	-6681
▁pages	-6682
▁paint	-6683
▁paler	-6684
▁parce	-6685
▁plays	-6686
▁prior	-6687
▁procl	-6688
▁purse	-6689
▁rated	-6690
▁recre	-6691
▁refus	-6692
▁repel	-6693
▁ridge	-6694
▁rings	-6695
▁roads	-6696
▁roman	-6697
▁roses	-6698
▁rough	-6699
upon	-6700
vene	-6701
work	-6702
▁avo	-6703
forth	-6704
reets	-6705
ruded	-6706
stery	-6707
venue	-6708
voted	-6709
▁airs	-6710
▁awed	-6711
▁bets	-6712
▁flat	-6713
▁yawn	-6714
▁york	-6715
anuary	-6716
mitage	-6717
raided	-6718
veness	-6719
▁cares	-6720
▁cents	-6721
▁effic	-6722
▁glory	-6723
▁heads	-6724
▁hurts	-6725
▁iniqu	-6726
▁lobby	-6727
▁ruled	-6728
▁sadly	-6729
▁salad	-6730
▁scope	-6731
▁seduc	-6732
▁seize	-6733
▁shake	-6734
▁shill	-6735
▁shine	-6736
▁signs	-6737
▁silli	-6738
▁sings	-6739
▁sixth	-6740
▁sized	-6741
▁slept	-6742
▁space	-6743
▁spars	-6744
▁stage	-6745
▁stagg	-6746
▁stanz	-6747
▁stole	-6748
▁stubb	-6749
▁swell	-6750
▁symme	-6751
▁tacit	-6752
▁talks	-6753
▁teeth	-6754
▁tells	-6755
▁tents	-6756
▁timed	-6757
▁trait	-6758
▁tresp	-6759
▁tries	-6760
▁troop	-6761
▁troub	-6762
▁ultim	-6763
▁unapp	-6764
▁unint	-6765
▁unite	-6766
▁using	-6767
▁vener	-6768
▁vigor	-6769
▁volub	-6770
▁wears	-6771
▁weary	-6772
▁witty	-6773
▁yards	-6774
actions	-6775
akewell	-6776
allowed	-6777
anguine	-6778
ariwise	-6779
ateness	-6780
aughter	-6781
cations	-6782
ductive	-6783
earying	-6784
easable	-6785
ecoming	-6786
ections	-6787
ederacy	-6788
endence	-6789
ensably	-6790
ensions	-6791
entance	-6792
erences	-6793
ficient	-6794
fitable	-6795
hibited	-6796
ifiable	-6797
ildered	-6798
inement	-6799
cheon	-6800
ithet	-6801
layne	-6802
ofore	-6803
rench	-6804
utors	-6805
▁cows	-6806
lative	-6807
manent	-6808
tected	-6809
uality	-6810
▁blots	-6811
▁blown	-6812
▁board	-6813
▁boxes	-6814
▁brace	-6815
▁cheat	-6816
▁embar	-6817
▁final	-6818
▁flown	-6819
▁mixed	-6820
▁named	-6821
▁rites	-6822
▁rocks	-6823
entious	-6824
inquish	-6825
intment	-6826
ionably	-6827
isition	-6828
itative	-6829
itution	-6830
kindled	-6831
larging	-6832
lexibly	-6833
liation	-6834
licting	-6835
lighted	-6836
ligious	-6837
mediate	-6838
mingham	-6839
orehand	-6840
ornness	-6841
ortions	-6842
otonous	-6843
oughout	-6844
oulders	-6845
ounding	-6846
picious	-6847
raction	-6848
raughts	-6849
ributed	-6850
riended	-6851
rieties	-6852
rogance	-6853
ssiping	-6854
terable	-6855
tiality	-6856
ulating	-6857
umbling	-6858
unction	-6859
verting	-6860
▁abound	-6861
▁accede	-6862
▁acquit	-6863
▁acting	-6864
▁action	-6865
▁adjust	-6866
▁airing	-6867
▁alarms	-6868
▁allure	-6869
▁amount	-6870
▁annual	-6871
▁archly	-6872
▁argued	-6873
▁artful	-6874
▁aspire	-6875
▁assent	-6876
▁backed	-6877
▁biting	-6878
▁blamed	-6879
▁blenhe	-6880
▁blinds	-6881
▁bodies	-6882
▁boldly	-6883
▁bounds	-6884
▁bowing	-6885
▁brains	-6886
▁breast	-6887
▁brings	-6888
▁capers	-6889
▁chatty	-6890
▁clamor	-6891
▁clarke	-6892
▁contro	-6893
▁copied	-6894
▁corner	-6895
▁cultiv	-6896
▁curric	-6897
▁decked	-6898
▁defend	-6899
etic	-6900
tics	-6901
▁esq	-6902
elmas	-6903
litic	-6904
rical	-6905
▁adap	-6906
▁bath	-6907
▁duel	-6908
▁ecli	-6909
berant	-6910
ituted	-6911
sworth	-6912
▁adept	-6913
▁assoc	-6914
▁downs	-6915
▁hired	-6916
▁irish	-6917
▁narra	-6918
▁plans	-6919
▁punch	-6920
▁scorn	-6921
gmented	-6922
ictions	-6923
tuously	-6924
▁attics	-6925
▁defied	-6926
▁desper	-6927
▁detain	-6928
▁devoid	-6929
▁disarm	-6930
▁dishes	-6931
▁dismay	-6932
▁disreg	-6933
▁doubly	-6934
▁doubts	-6935
▁duties	-6936
▁elated	-6937
▁eleven	-6938
▁eluded	-6939
▁emphas	-6940
▁enable	-6941
▁encumb	-6942
▁energe	-6943
▁equals	-6944
▁errand	-6945
▁expost	-6946
▁extort	-6947
▁eyeing	-6948
▁fidget	-6949
▁finery	-6950
▁fixing	-6951
▁flowed	-6952
▁fluctu	-6953
▁friday	-6954
▁frisks	-6955
▁gaiety	-6956
▁grapes	-6957
▁guinea	-6958
▁hardsh	-6959
▁hating	-6960
▁haunch	-6961
▁headed	-6962
▁hearth	-6963
▁hinted	-6964
▁humili	-6965
▁hursts	-6966
▁hypocr	-6967
▁impute	-6968
▁indisc	-6969
▁indist	-6970
▁inured	-6971
▁invari	-6972
▁irrevo	-6973
▁jewels	-6974
▁joking	-6975
▁jumped	-6976
▁kinder	-6977
▁larder	-6978
▁lastly	-6979
▁latest	-6980
▁leaves	-6981
▁limits	-6982
▁losing	-6983
▁losses	-6984
▁loving	-6985
▁lustre	-6986
▁mature	-6987
▁meanly	-6988
▁minded	-6989
▁misled	-6990
▁misman	-6991
▁newest	-6992
▁nicest	-6993
▁obtain	-6994
▁occurs	-6995
▁oddity	-6996
▁overjo	-6997
▁oxford	-6998
▁partri	-6999
ians	-7000
faced	-7001
ficed	-7002
udied	-7003
▁bash	-7004
▁exig	-7005
▁gaze	-7006
▁medi	-7007
▁pool	-7008
▁rule	-7009
▁drily	-7010
▁facts	-7011
▁falls	-7012
▁jokes	-7013
▁plead	-7014
▁rises	-7015
▁shoes	-7016
▁songs	-7017
▁topic	-7018
▁total	-7019
aculous	-7020
▁allude	-7021
▁beside	-7022
▁buying	-7023
▁detail	-7024
▁detect	-7025
▁fender	-7026
▁intrep	-7027
▁lowest	-7028
▁piling	-7029
▁piquet	-7030
▁policy	-7031
▁prided	-7032
▁prized	-7033
▁prizes	-7034
▁probab	-7035
▁profit	-7036
▁prompt	-7037
▁puffed	-7038
▁purses	-7039
▁rained	-7040
▁reader	-7041
▁refuge	-7042
▁refute	-7043
▁regain	-7044
▁repose	-7045
▁rested	-7046
▁resume	-7047
▁retail	-7048
▁retain	-7049
▁retort	-7050
▁revive	-7051
▁revolt	-7052
▁richly	-7053
▁rivers	-7054
▁selves	-7055
▁sequel	-7056
▁shades	-7057
▁shield	-7058
▁social	-7059
▁sorely	-7060
▁sounds	-7061
▁spleen	-7062
▁stands	-7063
▁supers	-7064
▁surest	-7065
▁tackle	-7066
▁talker	-7067
▁taller	-7068
▁tastes	-7069
▁tenant	-7070
▁tenour	-7071
▁termed	-7072
▁thinks	-7073
▁tithes	-7074
▁topics	-7075
▁traced	-7076
▁traces	-7077
▁trembl	-7078
▁trepid	-7079
▁trials	-7080
▁tricks	-7081
▁truest	-7082
▁uncles	-7083
▁undone	-7084
▁unfold	-7085
▁unison	-7086
▁unpret	-7087
▁unwell	-7088
▁vanish	-7089
▁vexing	-7090
▁victim	-7091
▁volati	-7092
▁waived	-7093
▁wander	-7094
▁warded	-7095
▁watson	-7096
▁willed	-7097
▁wisher	-7098
echamber	-7099
dges	-7100
▁bass	-7101
▁foul	-7102
▁fuss	-7103
▁gidd	-7104
▁inns	-7105
▁male	-7106
▁owns	-7107
▁slee	-7108
▁facul	-7109
▁irrep	-7110
▁stamp	-7111
▁stoke	-7112
▁tones	-7113
assable	-7114
repared	-7115
▁afresh	-7116
▁calmly	-7117
▁graces	-7118
▁growth	-7119
▁ingenu	-7120
▁nicely	-7121
▁occupy	-7122
▁safety	-7123
▁sheets	-7124
▁shrink	-7125
▁speedy	-7126
▁spoilt	-7127
▁transp	-7128
▁volume	-7129
▁youths	-7130
encement	-7131
ensation	-7132
ensities	-7133
entation	-7134
fferable	-7135
gnostics	-7136
iduously	-7137
ievously	-7138
igations	-7139
incipled	-7140
kerchief	-7141
mediable	-7142
mergency	-7143
minution	-7144
mportant	-7145
obliging	-7146
ognizing	-7147
omically	-7148
ominated	-7149
queamish	-7150
retation	-7151
ringtons	-7152
spective	-7153
swerable	-7154
termined	-7155
voidably	-7156
▁acceded	-7157
▁acquire	-7158
▁affable	-7159
▁affords	-7160
▁agonies	-7161
▁anguish	-7162
▁answers	-7163
▁apparel	-7164
▁appears	-7165
▁applies	-7166
▁arguing	-7167
▁assents	-7168
▁audible	-7169
▁avarice	-7170
▁bashful	-7171
▁bearing	-7172
▁blasted	-7173
▁blemish	-7174
▁boasted	-7175
▁brevity	-7176
▁britain	-7177
▁brittle	-7178
▁bromley	-7179
▁burying	-7180
▁carpets	-7181
▁charity	-7182
▁chicken	-7183
▁chimney	-7184
▁circles	-7185
▁clearer	-7186
▁closely	-7187
▁closets	-7188
▁closure	-7189
▁cluster	-7190
▁collect	-7191
▁compare	-7192
▁compass	-7193
▁confide	-7194
▁connect	-7195
▁conquer	-7196
▁consign	-7197
▁conster	-7198
▁cookery	-7199
board	-7200
▁crad	-7201
▁dazz	-7202
▁soup	-7203
athize	-7204
eathed	-7205
svenor	-7206
▁april	-7207
▁coats	-7208
▁crowd	-7209
▁fifth	-7210
▁glove	-7211
▁hotel	-7212
▁irreg	-7213
▁rainy	-7214
▁semin	-7215
▁vices	-7216
▁asleep	-7217
▁cogent	-7218
▁conjug	-7219
▁deaden	-7220
▁discla	-7221
▁edward	-7222
▁gloomy	-7223
▁hyster	-7224
▁lizzie	-7225
▁mostly	-7226
▁solace	-7227
▁talent	-7228
▁warned	-7229
strained	-7230
titioned	-7231
▁bequest	-7232
▁bribery	-7233
▁chanced	-7234
▁cherish	-7235
▁cordial	-7236
▁costing	-7237
▁counted	-7238
▁cradles	-7239
▁crowned	-7240
▁darling	-7241
▁darting	-7242
▁decency	-7243
▁deduced	-7244
▁deepest	-7245
▁demands	-7246
▁deprive	-7247
▁derived	-7248
▁derives	-7249
▁despair	-7250
▁destruc	-7251
▁dictate	-7252
▁diffuse	-7253
▁discrim	-7254
▁dishear	-7255
▁dispose	-7256
▁doorway	-7257
▁doubled	-7258
▁dullest	-7259
▁earthly	-7260
▁elderly	-7261
▁elevate	-7262
▁eloping	-7263
▁embargo	-7264
▁eminent	-7265
▁endured	-7266
▁enemies	-7267
▁ensuing	-7268
▁envying	-7269
▁essence	-7270
▁examine	-7271
▁excused	-7272
▁exhibit	-7273
▁expects	-7274
▁exposed	-7275
▁failure	-7276
▁fairest	-7277
▁falsely	-7278
▁feature	-7279
▁felicit	-7280
▁females	-7281
▁figures	-7282
▁flaming	-7283
▁flowing	-7284
▁footman	-7285
▁forbade	-7286
▁forbore	-7287
▁forcing	-7288
▁foresaw	-7289
▁foresee	-7290
▁forgave	-7291
▁forgets	-7292
▁forlorn	-7293
▁founded	-7294
▁frankly	-7295
▁fresher	-7296
▁fronted	-7297
▁fullest	-7298
▁glories	-7299
emble	-7300
ubial	-7301
▁dirt	-7302
▁illi	-7303
▁nods	-7304
▁snug	-7305
▁ancle	-7306
▁legal	-7307
▁risen	-7308
▁shrug	-7309
▁sneer	-7310
▁unsus	-7311
▁untin	-7312
▁animal	-7313
▁ardent	-7314
▁candid	-7315
▁critic	-7316
▁device	-7317
▁devote	-7318
▁envied	-7319
▁folded	-7320
▁hatred	-7321
▁laurel	-7322
▁legacy	-7323
▁maiden	-7324
▁novels	-7325
▁signal	-7326
▁sprang	-7327
▁uglier	-7328
▁yawned	-7329
ccentric	-7330
tificial	-7331
tinuance	-7332
▁angelic	-7333
▁campful	-7334
▁couples	-7335
▁digress	-7336
▁efforts	-7337
▁exclude	-7338
▁gradual	-7339
▁grouped	-7340
▁guiding	-7341
▁hanging	-7342
▁harriet	-7343
▁harshly	-7344
▁healthy	-7345
▁hearers	-7346
▁hearted	-7347
▁honours	-7348
▁imitate	-7349
▁implied	-7350
▁implies	-7351
▁include	-7352
▁inconst	-7353
▁inhabit	-7354
▁inmates	-7355
▁insists	-7356
▁invalid	-7357
▁irksome	-7358
▁italian	-7359
▁jumbled	-7360
▁keenest	-7361
▁kindest	-7362
▁kindred	-7363
▁laconic	-7364
▁landing	-7365
▁lasting	-7366
▁legally	-7367
▁lighted	-7368
▁lowness	-7369
▁lurking	-7370
▁managed	-7371
▁mansion	-7372
▁marries	-7373
▁masters	-7374
▁mindful	-7375
▁miserly	-7376
▁missing	-7377
▁missish	-7378
▁mistook	-7379
▁monthly	-7380
▁musical	-7381
▁muslins	-7382
▁mystery	-7383
▁netting	-7384
▁nettled	-7385
▁nonsens	-7386
▁nowhere	-7387
▁obvious	-7388
▁oppress	-7389
▁orderly	-7390
▁overset	-7391
▁paining	-7392
▁painter	-7393
▁panting	-7394
▁partake	-7395
▁patched	-7396
▁patient	-7397
▁payment	-7398
▁penance	-7399
calfe	-7400
▁gift	-7401
▁hagg	-7402
▁cheap	-7403
▁local	-7404
▁shift	-7405
▁arrear	-7406
▁barely	-7407
▁bosoms	-7408
▁bounty	-7409
▁coughs	-7410
▁forego	-7411
▁griefs	-7412
▁hotels	-7413
▁mildly	-7414
▁poured	-7415
▁stroll	-7416
▁vastly	-7417
rievable	-7418
▁denoted	-7419
▁fidgets	-7420
▁fidgety	-7421
▁glazing	-7422
▁packing	-7423
▁periods	-7424
▁plainer	-7425
▁players	-7426
▁pleaded	-7427
▁pleases	-7428
▁pliancy	-7429
▁pouring	-7430
▁praised	-7431
▁preside	-7432
▁presume	-7433
▁probity	-7434
▁procure	-7435
▁proving	-7436
▁publish	-7437
▁quieted	-7438
▁quieter	-7439
▁rambled	-7440
▁rectory	-7441
▁redress	-7442
▁relates	-7443
▁relieve	-7444
▁replies	-7445
▁reports	-7446
▁resides	-7447
▁retains	-7448
▁returns	-7449
▁revenge	-7450
▁revered	-7451
▁reverse	-7452
▁richard	-7453
▁scamper	-7454
▁science	-7455
▁screens	-7456
▁sending	-7457
▁sermons	-7458
▁serving	-7459
▁shelves	-7460
▁shorten	-7461
▁sighted	-7462
▁sinking	-7463
▁sloping	-7464
▁slyness	-7465
▁solaced	-7466
▁someone	-7467
▁spanish	-7468
▁speaker	-7469
▁springs	-7470
▁stating	-7471
▁stepped	-7472
▁stoutly	-7473
▁studied	-7474
▁studier	-7475
▁suiting	-7476
▁survive	-7477
▁suspend	-7478
▁swelled	-7479
▁tallest	-7480
▁tongues	-7481
▁torment	-7482
▁trifled	-7483
▁ungover	-7484
▁uniting	-7485
▁unquest	-7486
▁utterly	-7487
▁vacancy	-7488
▁vicious	-7489
▁warmest	-7490
▁warwick	-7491
▁watches	-7492
▁wearied	-7493
▁weighty	-7494
▁whither	-7495
▁winding	-7496
▁womanly	-7497
▁workbag	-7498
▁yawning	-7499
safed	-7500
▁cram	-7501
▁oaks	-7502
inctly	-7503
▁aimed	-7504
▁burnt	-7505
▁cooks	-7506
▁ducks	-7507
▁enemy	-7508
▁jumps	-7509
▁loser	-7510
▁olive	-7511
▁title	-7512
▁valid	-7513
ivalent	-7514
▁amazes	-7515
▁canvas	-7516
▁closer	-7517
▁dawson	-7518
▁fruits	-7519
▁inmate	-7520
▁louder	-7521
▁loudly	-7522
▁miller	-7523
▁muslin	-7524
▁oakham	-7525
▁permit	-7526
▁piqued	-7527
▁rivals	-7528
▁saloon	-7529
▁sedate	-7530
▁sighed	-7531
ambridge	-7532
ffectual	-7533
▁adhered	-7534
▁ancient	-7535
▁benches	-7536
▁blacken	-7537
▁burning	-7538
▁changes	-7539
▁clouded	-7540
▁crammed	-7541
▁devoted	-7542
▁dulness	-7543
▁enabled	-7544
▁extingu	-7545
▁faintly	-7546
▁fervent	-7547
▁inflict	-7548
▁informs	-7549
▁insipid	-7550
▁mankind	-7551
▁mingled	-7552
▁peaches	-7553
▁pitched	-7554
▁profuse	-7555
▁reverie	-7556
▁revival	-7557
▁roasted	-7558
▁seizing	-7559
▁slacken	-7560
▁unmoved	-7561
▁weighed	-7562
▁yielded	-7563
countable	-7564
elligible	-7565
enilworth	-7566
iseration	-7567
offensive	-7568
roachable	-7569
spections	-7570
▁abundant	-7571
▁acceding	-7572
▁accuracy	-7573
▁accurate	-7574
▁accusing	-7575
▁acquaint	-7576
▁acquired	-7577
▁acrimony	-7578
▁actuated	-7579
▁adhering	-7580
▁advances	-7581
▁advising	-7582
▁although	-7583
▁ambition	-7584
▁anywhere	-7585
▁appeased	-7586
▁archness	-7587
▁arranged	-7588
▁arriving	-7589
▁artfully	-7590
▁articles	-7591
▁ashworth	-7592
▁asserted	-7593
▁attacked	-7594
▁attained	-7595
▁attitude	-7596
▁backward	-7597
▁bakewell	-7598
▁beatings	-7599
buke	-7600
dyce	-7601
enius	-7602
etite	-7603
place	-7604
poned	-7605
▁foxh	-7606
▁john	-7607
▁kiss	-7608
▁pigs	-7609
alogue	-7610
equate	-7611
genial	-7612
▁awoke	-7613
▁proxy	-7614
▁webbs	-7615
iatures	-7616
▁anyhow	-7617
▁eligib	-7618
▁fulfil	-7619
▁genius	-7620
▁hushed	-7621
▁infatu	-7622
▁morris	-7623
▁outrun	-7624
▁rebuke	-7625
▁rescue	-7626
▁search	-7627
ceivable	-7628
▁deserts	-7629
▁fordyce	-7630
▁inexhau	-7631
▁theatre	-7632
▁threats	-7633
▁adequate	-7634
▁appetite	-7635
▁barouche	-7636
▁believes	-7637
▁benefits	-7638
▁bewailed	-7639
▁billiard	-7640
▁bitterly	-7641
▁blushing	-7642
▁boasting	-7643
▁breaking	-7644
▁breathed	-7645
▁capacity	-7646
▁careless	-7647
▁catching	-7648
▁chaperon	-7649
▁cheating	-7650
▁cheering	-7651
▁clearing	-7652
▁clerical	-7653
▁coachman	-7654
▁coincide	-7655
▁comprise	-7656
▁concerto	-7657
▁confirms	-7658
▁conjugal	-7659
▁contrive	-7660
▁coquetry	-7661
▁coughing	-7662
▁counting	-7663
▁courtier	-7664
▁creative	-7665
▁critical	-7666
▁crossing	-7667
▁cucumber	-7668
▁curtains	-7669
▁dazzling	-7670
▁deceives	-7671
▁deciding	-7672
▁decorums	-7673
▁defended	-7674
▁delights	-7675
▁departed	-7676
▁desiring	-7677
▁despises	-7678
▁detailed	-7679
▁detested	-7680
▁develope	-7681
▁devoting	-7682
▁dialogue	-7683
▁dictates	-7684
▁diffused	-7685
▁disclaim	-7686
▁disclose	-7687
▁dislikes	-7688
▁dispense	-7689
▁disputes	-7690
▁dissuade	-7691
▁dividing	-7692
▁doubtful	-7693
▁draughts	-7694
▁dreading	-7695
▁drinking	-7696
▁drooping	-7697
▁efficacy	-7698
▁elevated	-7699
▁gulf	-7700
▁july	-7701
bishop	-7702
oeuvre	-7703
▁amply	-7704
▁duets	-7705
▁frost	-7706
▁hedge	-7707
▁knees	-7708
▁notes	-7709
▁pedan	-7710
▁sarah	-7711
▁saucy	-7712
▁scale	-7713
▁trunk	-7714
▁vingt	-7715
agonist	-7716
alloyed	-7717
atagems	-7718
umanity	-7719
▁casual	-7720
▁caused	-7721
▁coarse	-7722
▁coaxed	-7723
▁coveys	-7724
▁deemed	-7725
▁degrad	-7726
▁demean	-7727
▁eloped	-7728
▁extenu	-7729
▁guilty	-7730
▁injury	-7731
▁invest	-7732
▁joints	-7733
▁junior	-7734
▁mixing	-7735
▁muffin	-7736
▁purvis	-7737
▁ragout	-7738
▁soothe	-7739
▁survey	-7740
▁uproar	-7741
▁angrily	-7742
▁battled	-7743
▁british	-7744
▁butcher	-7745
▁circuit	-7746
▁courier	-7747
▁cunning	-7748
▁dawdled	-7749
▁default	-7750
▁elapsed	-7751
▁enhance	-7752
▁explore	-7753
▁heiress	-7754
▁leaning	-7755
▁meanest	-7756
▁omitted	-7757
▁outdone	-7758
▁rallied	-7759
▁remonst	-7760
▁remorse	-7761
▁unaware	-7762
▁undimin	-7763
▁unfrequ	-7764
▁unheard	-7765
▁untamed	-7766
▁venison	-7767
▁verdure	-7768
▁warrant	-7769
▁weakest	-7770
believing	-7771
▁celerity	-7772
▁commerce	-7773
▁duration	-7774
▁embraced	-7775
▁eminence	-7776
▁emphatic	-7777
▁enabling	-7778
▁encamped	-7779
▁endeavor	-7780
▁enduring	-7781
▁enforced	-7782
▁enormity	-7783
▁ensigncy	-7784
▁environs	-7785
▁equalled	-7786
▁exceeded	-7787
▁exciting	-7788
▁executed	-7789
▁exerting	-7790
▁exposure	-7791
▁farthing	-7792
▁favoured	-7793
▁fearless	-7794
▁feathers	-7795
▁february	-7796
▁fighting	-7797
▁firmness	-7798
▁flirting	-7799
▁septe	-7800
▁atoned	-7801
▁bustle	-7802
▁physic	-7803
▁rushed	-7804
▁scrape	-7805
▁spasms	-7806
▁verses	-7807
quainted	-7808
rimonial	-7809
▁acutest	-7810
▁awaited	-7811
▁beloved	-7812
▁boister	-7813
▁cassino	-7814
▁coppice	-7815
▁custody	-7816
▁doleful	-7817
▁duchess	-7818
▁ecstasy	-7819
▁flogged	-7820
▁gloried	-7821
▁immoral	-7822
▁meadows	-7823
▁savours	-7824
▁suffers	-7825
▁synonym	-7826
▁tribute	-7827
▁unquali	-7828
▁unusual	-7829
▁wasting	-7830
▁borrowed	-7831
▁brooking	-7832
▁combated	-7833
▁deferred	-7834
▁endeared	-7835
▁equipage	-7836
▁fluently	-7837
▁forgiven	-7838
▁forsters	-7839
▁fortunes	-7840
▁forwards	-7841
▁fourthly	-7842
▁frighten	-7843
▁gathered	-7844
▁gentlest	-7845
▁goulding	-7846
▁graceful	-7847
▁grieving	-7848
▁grossest	-7849
▁habitual	-7850
▁hardened	-7851
▁hardship	-7852
▁hatfield	-7853
▁hazarded	-7854
▁heedless	-7855
▁humanity	-7856
▁humbling	-7857
▁imitated	-7858
▁imparted	-7859
▁impelled	-7860
▁imposing	-7861
▁improves	-7862
▁impudent	-7863
▁impulses	-7864
▁impunity	-7865
▁imputing	-7866
▁included	-7867
▁inconsid	-7868
▁incurred	-7869
▁indolent	-7870
▁injuring	-7871
▁insisted	-7872
▁inspires	-7873
▁instruct	-7874
▁insulted	-7875
▁involves	-7876
▁journeys	-7877
▁lamented	-7878
▁latterly	-7879
▁laudable	-7880
▁laughter	-7881
▁lawfully	-7882
▁learning	-7883
▁lessened	-7884
▁levelled	-7885
▁lifetime	-7886
▁luckiest	-7887
▁luckless	-7888
▁luncheon	-7889
▁maintain	-7890
▁manifold	-7891
▁masterly	-7892
▁meanness	-7893
▁messages	-7894
▁mildness	-7895
▁military	-7896
▁milliner	-7897
▁mingling	-7898
▁miseries	-7899
▁avenue	-7900
▁french	-7901
▁straws	-7902
latively	-7903
▁adapted	-7904
▁avoided	-7905
▁epithet	-7906
▁january	-7907
▁parcels	-7908
▁replete	-7909
▁stanzas	-7910
▁streets	-7911
ativeness	-7912
▁alighted	-7913
▁blenheim	-7914
▁coherent	-7915
▁crushing	-7916
▁curricle	-7917
▁eclipsed	-7918
▁emphasis	-7919
▁exigence	-7920
▁moderate	-7921
▁morality	-7922
▁mornings	-7923
▁mounting	-7924
▁mutually	-7925
▁narrowly	-7926
▁nearness	-7927
▁nothings	-7928
▁noticing	-7929
▁objected	-7930
▁obtruded	-7931
▁occupies	-7932
▁oddities	-7933
▁operated	-7934
▁ordained	-7935
▁ornament	-7936
▁outlived	-7937
▁outstrip	-7938
▁overtook	-7939
▁parading	-7940
▁parental	-7941
▁passions	-7942
▁pathetic	-7943
▁pavement	-7944
▁penitent	-7945
▁performs	-7946
▁persists	-7947
▁personal	-7948
▁perusing	-7949
▁perverse	-7950
▁pictured	-7951
▁polluted	-7952
▁porridge	-7953
▁portrait	-7954
▁position	-7955
▁powerful	-7956
▁practise	-7957
▁preceded	-7958
▁precious	-7959
▁premises	-7960
▁presided	-7961
▁presumed	-7962
▁prevents	-7963
▁proclaim	-7964
▁promoted	-7965
▁prompted	-7966
▁proudest	-7967
▁pursuits	-7968
▁	-7969
e	-7970
n	-7971
t	-7972
i	-7973
a	-7974
r	-7975
s	-7976
o	-7977
l	-7978
d	-7979
c	-7980
u	-7981
m	-7982
h	-7983
g	-7984
p	-7985
y	-7986
b	-7987
f	-7988
w	-7989
v	-7990
k	-7991
_	-7992
z	-7993
x	-7994
j	-7995
q	-7996
